{"<|endoftext|>":0,"<s>":1,"<pad>":2,"</s>":3,"!":4,"\"":5,"#":6,"$":7,"%":8,"&":9,"'":10,"(":11,")":12,"*":13,"+":14,",":15,"-":16,".":17,"/":18,"0":19,"1":20,"2":21,"3":22,"4":23,"5":24,"6":25,"7":26,"8":27,"9":28,":":29,";":30,"<":31,"=":32,">":33,"?":34,"@":35,"A":36,"B":37,"C":38,"D":39,"E":40,"F":41,"G":42,"H":43,"I":44,"J":45,"K":46,"L":47,"M":48,"N":49,"O":50,"P":51,"Q":52,"R":53,"S":54,"T":55,"U":56,"V":57,"W":58,"X":59,"Y":60,"Z":61,"[":62,"\\":63,"]":64,"^":65,"_":66,"`":67,"a":68,"b":69,"c":70,"d":71,"e":72,"f":73,"g":74,"h":75,"i":76,"j":77,"k":78,"l":79,"m":80,"n":81,"o":82,"p":83,"q":84,"r":85,"s":86,"t":87,"u":88,"v":89,"w":90,"x":91,"y":92,"z":93,"{":94,"|":95,"}":96,"~":97,"¡":98,"¢":99,"£":100,"¤":101,"¥":102,"¦":103,"§":104,"¨":105,"©":106,"ª":107,"«":108,"¬":109,"®":110,"¯":111,"°":112,"±":113,"²":114,"³":115,"´":116,"µ":117,"¶":118,"·":119,"¸":120,"¹":121,"º":122,"»":123,"¼":124,"½":125,"¾":126,"¿":127,"À":128,"Á":129,"Â":130,"Ã":131,"Ä":132,"Å":133,"Æ":134,"Ç":135,"È":136,"É":137,"Ê":138,"Ë":139,"Ì":140,"Í":141,"Î":142,"Ï":143,"Ð":144,"Ñ":145,"Ò":146,"Ó":147,"Ô":148,"Õ":149,"Ö":150,"×":151,"Ø":152,"Ù":153,"Ú":154,"Û":155,"Ü":156,"Ý":157,"Þ":158,"ß":159,"à":160,"á":161,"â":162,"ã":163,"ä":164,"å":165,"æ":166,"ç":167,"è":168,"é":169,"ê":170,"ë":171,"ì":172,"í":173,"î":174,"ï":175,"ð":176,"ñ":177,"ò":178,"ó":179,"ô":180,"õ":181,"ö":182,"÷":183,"ø":184,"ù":185,"ú":186,"û":187,"ü":188,"ý":189,"þ":190,"ÿ":191,"Ā":192,"ā":193,"Ă":194,"ă":195,"Ą":196,"ą":197,"Ć":198,"ć":199,"Ĉ":200,"ĉ":201,"Ċ":202,"ċ":203,"Č":204,"č":205,"Ď":206,"ď":207,"Đ":208,"đ":209,"Ē":210,"ē":211,"Ĕ":212,"ĕ":213,"Ė":214,"ė":215,"Ę":216,"ę":217,"Ě":218,"ě":219,"Ĝ":220,"ĝ":221,"Ğ":222,"ğ":223,"Ġ":224,"ġ":225,"Ģ":226,"ģ":227,"Ĥ":228,"ĥ":229,"Ħ":230,"ħ":231,"Ĩ":232,"ĩ":233,"Ī":234,"ī":235,"Ĭ":236,"ĭ":237,"Į":238,"į":239,"İ":240,"ı":241,"Ĳ":242,"ĳ":243,"Ĵ":244,"ĵ":245,"Ķ":246,"ķ":247,"ĸ":248,"Ĺ":249,"ĺ":250,"Ļ":251,"ļ":252,"Ľ":253,"ľ":254,"Ŀ":255,"ŀ":256,"Ł":257,"ł":258,"Ń":259,"ĦØ":260,"ÙĦØ":261,"ÙĪ":262,"ÙĨ":263,"§Ø":264,"Ø§Ø":265,"§ÙĦØ":266,"Ø§ÙĦØ":267,"ĦÙ":268,"Ø±":269,"ÙĦÙ":270,"Ø§":271,"ĠØ§ÙĦØ":272,"Øª":273,"Ø©":274,"Ø¨":275,"Ø¹":276,"Ø¯":277,"ĠØ§":278,"Ùģ":279,"Ùĩ":280,"ĠÙĪ":281,"ÙĤ":282,"Ø³":283,"Ùĥ":284,"ĠØ§ÙĦÙ":285,"ĠØ":286,"ĠØ¨":287,"ĠÙģ":288,"ĬØ©":289,"ØŃ":290,"ĠØ£":291,"ĠØ¹":292,"ĠØ§ÙĦÙħ":293,"ÙĬØ©":294,"ĠØª":295,"Ø§Øª":296,"ĠØĮ":297,"Ø§Ù":298,"Ø¬":299,"Ġ.":300,"ħÙĨ":301,"ÙħÙĨ":302,"ĠÙģÙ":303,"Ø§Ø±":304,"ĠÙģÙĬ":305,"ĬÙĨ":306,"Ø§ÙĨ":307,"ĠÙħÙĨ":308,"Ø·":309,"ÙĬÙĨ":310,"Øµ":311,"ÙĪÙ":312,"Ø´":313,"Ø¶":314,"Ø²":315,"ÙĦÙī":316,"Ø±Ù":317,"Ø®":318,"Ø¯Ù":319,"ÙĦØ§":320,"ÙĦÙĬ":321,"Ø§Ùħ":322,"ĬØ±":323,"ĠÙĥ":324,"ĠØ§ÙĦØª":325,"ĠØ§Ù":326,"ĠØ¥":327,"ÙĦÙħ":328,"ĠØ§ÙĦØ¹":329,"ÙĪÙĨ":330,"ĠØŃ":331,"ÙĩØ§":332,"Ø°":333,"ĠØ³":334,"Ø±ÙĬ":335,"ĠØ§ÙĦ":336,"ÙĬØ±":337,"Ø§Ø¨":338,"ĠÙĤ":339,"ĠØ§ÙĦØ£":340,"Ø§Ø¯":341,"Ø«":342,"ÙĩÙ":343,"ĬÙ":344,"Ø§Ø¡":345,"ĠÙĨ":346,"ħØ§":347,"ħÙ":348,"Ø£":349,"ĠÙĪØ§ÙĦØ":350,"ĠÙĦØ":351,"ÙĪØ±":352,"ØªÙ":353,"Ø§Ø³":354,"ĠØ¹ÙĦÙī":355,"Ø§ÙĦ":356,"Ø§Ø¦":357,"ÙħÙ":358,"ĠÙĩ":359,"ĠØ¬":360,"Ø§Ø¹":361,"ĠØ§ÙĦØ³":362,"ÙĦÙĥ":363,"ĠØ£ÙĨ":364,"ÙħØ§":365,"ÙĦØ§Ø":366,"ħØ¹":367,"Ø¨Ù":368,"ĬØ¯":369,"ÙĬÙ":370,"ĠØ´":371,"Ġ\"":372,"ĠØ§ÙĦØŃ":373,"ĠØ±":374,"ÙħØ¹":375,"ÙĪÙĦ":376,"Ø¸":377,"ĠØ§ÙĦØ§Ø":378,"ĠØ¯":379,"Ø§Ùģ":380,"Øº":381,"Ø³Ù":382,"Ġ:":383,"Ġ)":384,"ÙĪÙħ":385,"Ġ(":386,"ĠÙĦÙ":387,"ĠØ®":388,"ĠØ§ÙĦÙĤ":389,"ÙĩÙħ":390,"Ġ-":391,"ĠØ§ÙĦØ´":392,"ĠØ§ÙĦØ¨":393,"ĠØ¹ÙĨ":394,"Ùī":395,"ÙĦØ©":396,"ħØ±":397,"ĠØ§ÙĦØ¬":398,"ĠØ§ÙĦÙĨ":399,"ĠØ§ÙĦØ¯":400,"ĦÙĦØ":401,"ÙĦÙĦØ":402,"ĠÙĦÙĦØ":403,"ĬØ¹":404,"ÙĥÙ":405,"ħÙĪ":406,"Ø³Øª":407,"ĠØ§ÙĦØ±":408,"Ø§ØŃ":409,"ĠÙħØ¹":410,"ĠØµ":411,"Ø¦":412,"Ġ2":413,"ĠØ§ÙĦØ¥":414,"Ġ1":415,"ÙĨØ§":416,"Ø§ÙĦÙħ":417,"ĬØ§":418,"ÙĦØ§Ù":419,"ĠØ§ÙĦÙģ":420,"ÙħÙĪ":421,"Ø±Ø¨":422,"ÙĤÙ":423,"ĠØ§ÙĨ":424,"Ø§Ø¬":425,"ĬØª":426,"Ø¹Ù":427,"ÙħØ±":428,"Ø§ÙĦÙ":429,"Ø¯ÙĬ":430,"Ø±Ø©":431,"ĠØ¥ÙĦÙī":432,"ÙĪØ¯":433,"ØŃÙ":434,"ĠÙĩØ°":435,"ĠØ§ÙĦÙĥ":436,"ĠØ¨Ø§ÙĦØ":437,"ĠÙĪÙ":438,"ħØ©":439,"ĠØ§ÙĦØ®":440,"Ø¨ÙĬ":441,"Ø¨Ø±":442,"ÙģÙ":443,"ĠØ§ÙĦÙĪ":444,"ĠØ§ÙĦØ§":445,"ØªØ±":446,"ÙĨÙ":447,"Ø¤":448,"ĠØ§ÙĦØµ":449,"Ø§Øµ":450,"ħØ¯":451,"ĬØ³":452,"Ø§ÙĤ":453,"Ø¹Ø¯":454,"Ø§Ø¶":455,"ĠØ·":456,"Ġ,":457,"ĠÙĪØª":458,"ĬÙĤ":459,"ĠØ§ÙĦØªÙ":460,"Ø±ÙĪ":461,"ĬÙģ":462,"ħØ³":463,"ÙĨØª":464,"ĠØ£ÙĪ":465,"ħØª":466,"ĠØ§ÙĦØ°":467,"ĠØ§ÙĦØªÙĬ":468,"ĠØ£Ù":469,"ĠÙĪØ£":470,"ÙĬØ¹":471,"ĠØ§ÙĦÙĦÙ":472,"Ø±Ùĥ":473,"ĠÙĦØ§":474,"ĠÂ":475,"Ø¹Ø©":476,"Ø¬Ù":477,"ÙĦÙĬØ©":478,"Ø§Ø·":479,"ÙĬÙħ":480,"ĠØ§Ø³":481,"ĠÙħØ§":482,"ĠÙĦÙħ":483,"Ø§ÙĨÙ":484,"ĦÙĪ":485,"ÙĦÙĩ":486,"Ø¯Ø©":487,"ĠØº":488,"ØªÙħ":489,"Ġ20":490,"Ø¨Ø©":491,"Ø¯Ùħ":492,"ÙĬØ³":493,"ÙĤØ©":494,"ÙĨÙĬ":495,"Ø§Ø±Ø©":496,"ÙĬØª":497,"ĠÙħÙĪ":498,"ÙĬØ¯":499,"Ø³Ùħ":500,"âĢ":501,"ĠâĢ":502,"ĠÙĪÙĤ":503,"ĬØ²":504,"ĬØ§Øª":505,"ÙĦÙģ":506,"ÙĦØ³":507,"ÙħØ³":508,"ĠØ¹ÙĦÙĬ":509,"ĠØ§ÙĦØ·":510,"ÙĪÙĤ":511,"ĠØ°":512,"ĠØªØŃ":513,"ĬÙĥ":514,"ħØ¬":515,"ÙħÙĦ":516,"ÙĬÙĦ":517,"ÙĪØ§":518,"ĠÙĦÙĦÙ":519,"ÙĦØ¨":520,"ĠÙĥÙ":521,"ĠÙĥØ§ÙĨ":522,"Ø§Ø²":523,"Ø±Ùģ":524,"Ø§Ø®":525,"ÙģÙĬ":526,"Ø¥":527,"Ø§ÙĨÙĬ":528,"ħØŃ":529,"ÙĪÙĬ":530,"ĠØ¨ÙĨ":531,"Ø¯Ùī":532,"ĬÙĪ":533,"ĠØ¨Ù":534,"Ø§Ø¦Ù":535,"ÙĦÙĤ":536,"ĠØ§ÙĦÙĦÙĩ":537,"ĠØ§ÙĦØ«":538,"ĠØªØ¹":539,"Ø¨Ø¯":540,"Ø§Ùĩ":541,"ĠÙĩØ°Ø§":542,"ØªÙĬ":543,"Ø¯ÙĬØ¯":544,"ĠØŃÙ":545,"ĠÙĪØ§ÙĦÙħ":546,"ħØ´":547,"ÙħØª":548,"ÙĥÙĨ":549,"ĠØ§ÙĦÙħØª":550,"ÙħØ¬":551,"ÙĦØ§Ùħ":552,"ÙĥØ±":553,"ĠÙħØ±":554,"ĠØ«":555,"ÙĩÙĬ":556,"ĠÙħØ¬":557,"ĬØŃ":558,"ØµÙ":559,"ÙĦØª":560,"ĠØ§ÙĦÙħÙĪ":561,"Ø²Ù":562,"ĠØ§ÙĦØ°Ù":563,"ĠÙĦÙĩ":564,"ĠØ§ÙĦØ°ÙĬ":565,"ĠØ¢":566,"ĠØ²":567,"Ø¨Ø§Ø±":568,"Ġ201":569,"ÙħØŃ":570,"Ø§Ø´":571,"ØªÙĩ":572,"ÙĨØ©":573,"ĠÙħØ³":574,"ĠØ¹Ù":575,"Ø¨ÙĦ":576,"ĠÙĪØ§ÙĦØª":577,"ĠÙĩØ°Ùĩ":578,"ĬÙĪÙħ":579,"ĠØ³Ù":580,"ĠØ¨ÙĬÙĨ":581,"ĠØ¶":582,"Ø¯Ø±":583,"ĠÙħØŃ":584,"Ø±Ùī":585,"ĠÙĦÙĬ":586,"ÙĥØª":587,"ĠØ¥ÙĨ":588,"ĠØ§ÙĦÙħÙĨ":589,"Ø®Ø±":590,"ØµØ±":591,"Ø³Ø¨":592,"ÙĦØ§ÙĦ":593,"ÙħØ´":594,"ĠØªÙĤ":595,"Ø§Ø¯Ø©":596,"ÙĩØ±":597,"ĠØ¨Ø¹Ø¯":598,"ĠÙħØ´":599,"Ø§Ø±Ù":600,"Ø´Ø±":601,"ĬÙĦ":602,"Ø¶Ù":603,"ĠĊ":604,"Ø§ÙĦÙĬ":605,"ĠØ§ÙĦØ§Ø³":606,"ÙĪØ¨":607,"Ø°Ø§":608,"Ø¯Ø§":609,"Ø³ÙĬ":610,"ĠÙģÙī":611,"Ø¦ÙĬØ³":612,"Ø±Ø¶":613,"ĬØ®":614,"ĠÙħÙ":615,"Ø§Ø±Ø§Øª":616,"ÙĬØ±Ø©":617,"ĠØ§ÙĦÙī":618,"ÙĪØ¹":619,"ĠØ§Ø³Øª":620,"ÙĬÙĥ":621,"Ø§ÙĨÙĬØ©":622,"ĠÙĦÙĥ":623,"ĠÙĬØ¹":624,"ÙĪØ±Ø©":625,"Ø§Ø©":626,"Ø«Ù":627,"ÙĦØ§Øª":628,"Ø§Ø¯Ù":629,"ĠÙħØª":630,"ĠÂ»":631,"ĠØ§ÙĦØ¹Ø§Ùħ":632,"ÙģØ±":633,"ĠÙĪØ¨":634,"ħÙĤ":635,"Ġ3":636,"ÙĦÙĪ":637,"ÙĥÙħ":638,"ĠØ£ÙĬ":639,"ĠÙĦØª":640,"ØŃØ¯":641,"ÙħØ¯":642,"ĠÙħÙĨØª":643,"ÙĥÙĦ":644,"ÙĩØ¯":645,"ÙĬÙĪ":646,"ÙĦÙĬÙ":647,"ĬØ¨":648,"ĠÙĬØª":649,"ÙĪØ§Øª":650,"ĠÙĥÙĦ":651,"ĦÙĨ":652,"Ø±Ø§Ø¡":653,"ÙĪÙĦØ©":654,"ÙĬÙģ":655,"Ø¹Ùħ":656,"ĬØ´":657,"ĠØ§ÙĦÙħØ³":658,"ĠÙĪØ¹":659,"ÙĬØ§":660,"ØŃÙħØ¯":661,"ØŃØ©":662,"ĠØ§ÙĦÙĩ":663,"ĠÙĩÙĪ":664,"ĬØ¬":665,"Ø¹Ø¶":666,"ĠÙĪÙĩ":667,"ĠÙĪÙĥ":668,"ÙĤØª":669,"ĠØ¹Ùħ":670,"ÙĨÙĬØ©":671,"ÙĬÙĤ":672,"ĠØªÙ":673,"ÙĨØ³":674,"ĠØ¨Ø£":675,"Ø±ÙĥØ©":676,"Ø±Ø¨ÙĬØ©":677,"Ø«Ø±":678,"ĠÂ«":679,"ÙĪÙģ":680,"ĠØ¨Ø±":681,"ĬÙħ":682,"ÙĤØ¯":683,"ÙĪØ³":684,"ĠÙĪØ§ÙĦÙ":685,"ĠØ§ÙĦÙħØ´":686,"ĠÙĪØ¬":687,"ÙħØ©":688,"ĠØ§ÙĦÙħØŃ":689,"Ø±ÙĤ":690,"ĠØ§ÙĦØ³Ù":691,"ĠÙĦØ£":692,"ĠØ§ÙĦÙħØ¹":693,"ĬÙĪÙĨ":694,"ÙģØ³":695,"ĬØ«":696,"Ø§Ùĥ":697,"ĬÙĩ":698,"ĠÙĪØ³":699,"Ø§ÙģØ©":700,"ĠØ§ÙĦÙħØ¬":701,"ĠØ°ÙĦÙĥ":702,"ÙĪÙī":703,"ÙħÙĤ":704,"Ø¯Ø¯":705,"ĠÙħØ¯":706,"ÙĨØ¯":707,"ĠØ§ÙĦØ²":708,"ĠÙħÙĤ":709,"Ø§ÙĦØ©":710,"ĠØªÙĪ":711,"Ø·Ø©":712,"ØªÙī":713,"ĠØ§ÙĦØº":714,"ĠØ¹Ø§Ùħ":715,"ĠØ®ÙĦØ§ÙĦ":716,"ÙĪØ±ÙĬ":717,"ħØ³Øª":718,"ĠØªÙħ":719,"Ø±ÙĬÙĤ":720,"ĠÙĥÙħØ§":721,"ĠØ§ÙĦÙħØ±":722,"ĠØ¹Ø¨Ø¯":723,"ĠÙĬÙĤ":724,"ÙĬØŃ":725,"Ø®Øµ":726,"Ø§Ø±Ùĥ":727,"er":728,"ĠØªØ±":729,"ÙĦØ¯":730,"ĬØ§Ø³":731,"Ø¡":732,"ĠØ£Ùħ":733,"ĠØªÙĨ":734,"ĠØ§ÙĦØ£Ù":735,"ÙĬØ¬":736,"Ġ4":737,"ĠØ£Ùĥ":738,"ØµÙĦ":739,"ÙħÙĬ":740,"Ø§Ø«":741,"ÙĦØº":742,"ĠØ§ÙĦØªØ¹":743,"ĠÙĤØ³Ùħ":744,"ÙĤÙĬ":745,"ħÙĩ":746,"Ø§Ø°":747,"ħØµ":748,"ĠØŁ":749,"ÙĪØª":750,"ĠÙĪØ¥":751,"ÙĬØ´":752,"ħÙĥ":753,"ÙĪÙĬØ©":754,"ĠØ¨Øª":755,"Ø¸Ø±":756,"ÙĤÙĦ":757,"ĠØ§Ø¨":758,"ĠÙĦØ§Ø":759,"ĠØ§ÙĦÙĬÙĪÙħ":760,"ħØŃÙħØ¯":761,"Ġ5":762,"ĠÙĬÙĥ":763,"Ø¦Ø©":764,"ĠØªØ¬":765,"ÙĦÙĬÙħ":766,"ĬØ§ÙĨ":767,"ÙħØ³Øª":768,"ÙĬÙĨØ©":769,"ĠÙĤØ¯":770,"Ø±Ùħ":771,"ĠØ§ÙĦØ¹Ø§ÙĦÙħ":772,"ÙĤÙĬÙĤ":773,"ĠÙĬÙĨ":774,"ĠÙĬÙħ":775,"Ø³Ø±":776,"ĠØ§Ø¹":777,"ĠÙħØ³Øª":778,"ÙħÙĬØ¹":779,"ĠØ§ÙĦÙħÙĤ":780,"ĠÙĬØŃ":781,"ÙĦØ¹":782,"ĠÙħÙĨØªØ¯Ùī":783,"ØºÙ":784,"Ø§ÙħØ¬":785,"ĠØ§ÙĦØ£Ùħ":786,"ĠØªØª":787,"Ø¹ÙĦ":788,"ĠØ§ÙĦØ¢":789,"Ø³Ø©":790,"Ø§Ø¹Ø©":791,"ĠØ¨Ø¯":792,"ĠÙĩÙĬ":793,"ĠØ£Ø®":794,"Ø¬ÙĦ":795,"Ø·Ø±":796,"ĠØ§Ø®":797,"ÙħØŃÙħØ¯":798,"ĠÙĪÙħÙĨ":799,"ĠÙħØŃÙħØ¯":800,"ĠØ¹ÙĦÙĬÙĩ":801,"ĠÙĤØ¨ÙĦ":802,"ÙģØ¹":803,"Ġ0":804,"ĠØŃÙĬØ«":805,"ÙĪØ²":806,"ĠÙĪØ²":807,"ĠØªØµ":808,"ĠÙĪØŃ":809,"ĠØ§ØŃ":810,"ÙĥÙĬ":811,"ĠØ§ÙĦØ¹Ù":812,"ĠØ§ÙĦÙħÙĨØª":813,"ÙĪØ§ÙĨ":814,"ØªØ¨":815,"ĠØ¨Ø´":816,"ĠØ§ÙĦÙħØ³Øª":817,"ĠØºÙĬØ±":818,"ĠØ£Ø¨":819,"ÙģØª":820,"ĠÙĪÙĦØ§":821,"ĠØ¨Ø§ÙĦÙ":822,"Ø§ØµØ©":823,"ÙĨÙĩ":824,"ĠâĢĿ":825,"ÙħØµ":826,"ĠØ§ÙĦÙħØµ":827,"ÙĪØ¬":828,"ĠØ¨Ùĩ":829,"ĠØªÙĥ":830,"Ø°ÙĦÙĥ":831,"ĠÙĪÙĨ":832,"ÙĦÙĩØ§":833,"ĠÙħØµ":834,"ĠØ£Ø³":835,"ħØ¤":836,"Ø§ÙħÙ":837,"§Øª":838,"ÙĪØ©":839,"ØªÙĩØ§":840,"ĠØ§ÙĦØ¹Ø±":841,"Ø²Ø©":842,"ĠØŃØªÙī":843,"ĠØªØ³":844,"ÙĦØŃ":845,"ÙĬØ®":846,"ĠÙĦØ¯":847,"ÙĩÙĦ":848,"Ø§Ø¨Ø©":849,"ĠØªØ´":850,"Ø§ÙĦÙĬØ©":851,"ĠØ§ÙĦØ¹ÙĬÙĨ":852,"ÙħÙĥ":853,"Ø§Ø¦ÙĬ":854,"Ø§Ø¯ÙĬ":855,"Ø«ÙĦ":856,"ħØ®":857,"ÙĪÙħØ©":858,"Ø¶Ø¹":859,"Ø¹Ø±":860,"ĠØ±Ø¦ÙĬØ³":861,"Ø¹Ø¨":862,"ÙħÙĩ":863,"ĠÙĦÙĦØª":864,"ĠØ³ÙĬ":865,"Ø¯ÙĬØ±":866,"Ø±Ø§Ø±":867,"ĠØ§ÙĦØ¯ÙĪ":868,"ÙĦÙĬÙĨ":869,"ĠØ¨Ø§ÙĦÙħ":870,"ĠÙĪØ§ÙĦØ£":871,"ĠÙĤØ§ÙĦ":872,"ĠØ¨ØŃ":873,"Ø§ÙĦØ¨":874,"ħØ§Ø±":875,"ĠØ§ÙĦÙħØ¯":876,"ĠÙĩÙĨØ§":877,"Ġ!":878,"Ø±Ø¯":879,"Ø«ÙĬØ±":880,"ĠØ¨Ø¹Ø¶":881,"ÙĥÙĬØ©":882,"ĠØ¢Ø®Ø±":883,"Ġ19":884,"ØªÙħØ§Ø¹":885,"ĠØ§ÙĦØ§Ø³Øª":886,"ÙĬÙĪÙħ":887,"ĬØ¶":888,"ØªÙħØ±":889,"ĠØ§ÙĦØ£Ø³":890,"ĠÙĪØ§ÙĦØ¹":891,"ĬØ·":892,"ÙĬØ§Øª":893,"ĠÙĬÙħÙĥÙĨ":894,"ÙĬØ¨":895,"ÙħØ¤":896,"ĠÙħØ¤":897,"ĠÙĪØ§ÙĦ":898,"Ġ6":899,"Ø¬Ø©":900,"ĠÙĬÙĪ":901,"ħØ¨":902,"Ø¹Ø§":903,"Ø§Ø¦ÙĬØ©":904,"ĠÙĪÙģ":905,"ÙĦØ§ÙĤ":906,"Ø§ÙĦØ§Øª":907,"ÙĦØ§ØŃ":908,"ÙĨØ§ÙĨ":909,"ÙĦÙĨ":910,"ÙħØ®":911,"ĠÙĬØ¬":912,"Ø·ÙĤØ©":913,"ĠØ§Øª":914,"ĠÙħØ®":915,"ĠØ³Øª":916,"ĠØ§ÙĦØ±Ù":917,"ÙĪØ±ÙĬØ©":918,"ĠÙĦÙĪ":919,"ĬØ§Ø¶":920,"ĠÙĥØ§ÙĨØª":921,"ĠØ§ÙĦØ¹Ø±Ø¨ÙĬØ©":922,"ÙĪØ§Ø±":923,"ĠâĢľ":924,"Ø¨ØŃ":925,"Ø¶ÙĦ":926,"ĠÙģÙĤ":927,"ĠØ¹ÙĨØ¯":928,"ĠØ§Ø±":929,"ĠÙĬÙĪÙħ":930,"Ø¢":931,"ĠØ§ÙĦØ£Ø®":932,"Ø§ØŃØ©":933,"ĠØ§ÙĦØªØŃ":934,"ÙĪØ¶":935,"ĠØ£ÙĨÙĩ":936,"ĠÙģØ±":937,"Ø¨ÙĬØ±":938,"ĠØ«Ù":939,"ĠØ§ÙĦÙĪØ·":940,"ØµÙģ":941,"ĠÙĦÙĦØ¹":942,"ĠÙĪÙģÙĬ":943,"ĠÙĦØ¨":944,"ĠÙĪÙĩÙĪ":945,"ĠØ§ÙĦÙħØ®":946,"Ø§ÙĦØª":947,"Ø§Ø±ÙĬ":948,"Ø¨Ùĩ":949,"Ġ'":950,"ÙĥØ³":951,"ĠØ«Ùħ":952,"Ø¯ÙĬØ¯Ø©":953,"ĠÙĦÙĤ":954,"ĠØ§ÙĦØ¶":955,"Ø§Ø±ÙĬØ®":956,"ÙĦØ·":957,"Ø§ÙĨÙĪÙĨ":958,"Ø¬Ùĩ":959,"Ġ[":960,"ĠØ§ÙĦØ§Øª":961,"Ø¨Øª":962,"Ø§Ø¦ÙĦ":963,"ØŃØ±":964,"ÙĨØ§Ø¡":965,"ÙĦØ§Ø«":966,"ħØµØ±":967,"ÙĩÙħØ§":968,"ħØ·":969,"ĠÙħÙĥ":970,"ĠØ§ÙĦØ³Ø¹":971,"ÙĬÙĨÙ":972,"Ø¨Ø§Øª":973,"ĠÙĨÙĤ":974,"ĠØ§ÙĦØ±Ø¦ÙĬØ³":975,"Ø¨ÙĬØ©":976,"ÙĦØ§ÙĨ":977,"ĠØªØ£":978,"Ġ7":979,"ĠØ§ÙĪ":980,"ÙĦØ§Ø¯":981,"Ġ10":982,"ĠØªØ·":983,"ĠØ§Ø¬":984,"ħØ§ÙĦ":985,"ĬÙĬÙĨ":986,"ĠÙħØ¬ÙĦØ³":987,"ĠØŃØ³":988,"ÙħØ¨":989,"ħÙĦÙĬ":990,"ĠÙĪØ§ÙĦØ§Ø":991,"ĠØ§ÙĦÙĤØ±":992,"ĠØ§ÙĦØ¥Ø³":993,"ĠØ§ÙĦÙħØ¤":994,"ĠØ§ÙĦØ§ÙĨ":995,"ĠÙģØ¥":996,"ĠØ¨ÙĤ":997,"Ø±ÙĬØ¯":998,"ĠÙĪØ±":999,"Ø¸Ø§Ùħ":1000,"Ø§Ø³Ù":1001,"ĠØ§ÙĦØ¨Ø±":1002,"ĠØ¨ÙĪ":1003,"Ø®Ù":1004,"Ø¨Ø¹":1005,"ĠÙĦØ¹":1006,"Ø§ÙħÙĦ":1007,"ĠÙĬØ³":1008,"ÙģØ©":1009,"ĠÙĦÙĨ":1010,"ĠØ¬ÙħÙĬØ¹":1011,"ØµØ©":1012,"Ø§Ø¶Ù":1013,"ĠÙĪÙĦÙĥ":1014,"ÙħØµØ±":1015,"ĠÙħØµØ±":1016,"ÙģØ¶ÙĦ":1017,"Ø§ÙĦÙĥ":1018,"ĠÙħØ¨":1019,"ĠÙģÙĬÙĩØ§":1020,"ĠÙĪØ§ØŃ":1021,"ĠØ¹Ø¯Ø¯":1022,"ĠØ¸":1023,"Ø§Ø¹Ø¯":1024,"ĠØ¹ÙħÙĦÙĬØ©":1025,"ħÙĬ":1026,"ĠØŃÙĪÙĦ":1027,"ĠÙĬÙĥÙĪÙĨ":1028,"ĬØ³Øª":1029,"Ġs":1030,"Ø§ÙģØ¸":1031,"ÙĨÙī":1032,"ĠØ¨ÙĩØ§":1033,"ĠÙĪÙĤØ¯":1034,"ÙģØ§ÙĦ":1035,"ĠØ£Øµ":1036,"ĠØ§ÙĦØŃÙĥ":1037,"ÙĦÙĤØ©":1038,"Ø§Ø±ÙĬØ©":1039,"ØŃØ¯Ø©":1040,"ĠS":1041,"ĠÙĨØŃ":1042,"Ø°Ùĩ":1043,"ÙĪØ¯Ø©":1044,"Ø§Ø¯Ø±":1045,"ĠØ§ÙĦÙĬ":1046,"Ø§Ø¨Ø§Øª":1047,"ĠÙĪÙĤØ§ÙĦ":1048,"ÙĪÙĤØ¹":1049,"ĠÙģØª":1050,"Ø¬Ùħ":1051,"Ø±ÙĬÙ":1052,"on":1053,"Ø¬Ø¯":1054,"ĠØ§ÙĦØ§Ø¬":1055,"Ġ8":1056,"ħØ«ÙĦ":1057,"ØºÙĬØ±":1058,"ÙħØ·":1059,"Ø§ÙĬ":1060,"ĠÙĪØ§ÙĦØ³":1061,"Ø§Ø¦Ø±":1062,"ØªÙĦÙģ":1063,"ĠØ¨Ø§ÙĦØª":1064,"Ø¨ÙĬØ¹":1065,"ÙĤØ±":1066,"ĠØ´Ù":1067,"ÙĬØ¶":1068,"ĠØ¥Ø°Ø§":1069,"ĠÙħÙĪÙĤ":1070,"ĠØ§ÙĦØªØ±":1071,"ÙĦØ³Ø·":1072,"ĠØ§ÙĨØª":1073,"ÙģØ§Ø¹":1074,"ĠØ¥ÙĦØ§":1075,"ÙĬÙĪÙĨ":1076,"Ø¶Ø§":1077,"ØµÙĪÙĦ":1078,"ĠÙĦØŃ":1079,"ĠØ¯ÙĪ":1080,"Ø´Ùģ":1081,"Ø§ÙħØ©":1082,"ĠÙĬØ±":1083,"Ø¸Ù":1084,"Ø¬ÙĬ":1085,"ĠØ§ÙĦÙħÙ":1086,"ĠØ£Ø¹":1087,"ĠÙĨÙģØ³":1088,"ØªÙħØ¹":1089,"ĠÙģÙĬÙĩ":1090,"ĠØ§ÙĦØªÙĤ":1091,"ĠÙĪÙĥØ§ÙĨ":1092,"ÙĦØ§Ø±":1093,"ÙĨÙĬÙĨ":1094,"ĠØ§ÙĦØŃÙ":1095,"ĠØ¯Ø±":1096,"ĠØ´Ø±ÙĥØ©":1097,"Ø§Øº":1098,"Ø±ÙĬØ±":1099,"ÙĤØªØµ":1100,"Ø§Ø¶ÙĬ":1101,"ĠÙĦÙĥÙĨ":1102,"ÙĩØ©":1103,"Ġ*":1104,"ĠØ§ÙĦØªÙĪ":1105,"Ø¯ÙĬØ«":1106,"ÙħÙĦÙĬ":1107,"ħØ§ÙĨ":1108,"ĠØ§ÙĦØªØ¬":1109,"la":1110,"ÙĬØ·":1111,"ĠØŃÙĤ":1112,"ĠØ£ÙĥØ«Ø±":1113,"ÙĪØ¯ÙĬØ©":1114,"Ø§Ø±Ø¬":1115,"ĠØ£ØŃØ¯":1116,"ĠØ¨Ø·":1117,"Ø¯ÙħØ§":1118,"Ø§Ø¨Ù":1119,"ĠØ¯ÙĬ":1120,"ĠØ§ÙĦØ³ÙĬ":1121,"ĠØ§ÙĦÙģØ±":1122,"Ø£Ø³":1123,"Ø·Ø§Ø¹":1124,"ĠØ§ÙĦØ³ÙĬØ§Ø³":1125,"ÙĦØ§Ø¬":1126,"ĠØ¨Ø¹":1127,"ĠØ¨Ø§ÙĦ":1128,"Ø¬Ø±":1129,"ħØ«":1130,"ĠØªØ¯":1131,"ĠÙĪØ´":1132,"ĠØ§ÙĦØ±ÙĬØ§Ø¶":1133,"ħØ§Ùħ":1134,"ĠÙĬØ´":1135,"Ġ2018":1136,"ĠØ®Ø·":1137,"ĠA":1138,"Ø±ÙĪØ¹":1139,"ĠÙħØ·":1140,"Ø§ÙĤØ¹":1141,"Ġ200":1142,"in":1143,"ÙĪÙĬØª":1144,"Ø¯Ø§Ùħ":1145,"ÙĪÙĥ":1146,"ÙĨÙĪØ§Øª":1147,"ĠÙħÙĦÙĬ":1148,"ĠØ¨Ø¥":1149,"at":1150,"ĠÙĪØ§ÙĦØŃ":1151,"ĠØ³Ø¨":1152,"ĠØ§ÙĦØ´Ø¨":1153,"ĠâĢĵ":1154,"ĠØ¯ÙĪÙĨ":1155,"ÙĬÙĩ":1156,"ur":1157,"ÙĤØ§Øª":1158,"Ø¯Ø§Ø±Ø©":1159,"Ġ9":1160,"Ø¹ÙĬ":1161,"Ø§Ø³Ø©":1162,"ÙĦØ§Ø¡":1163,"Ø§Ø¨Ø¹":1164,"ĠØ±ÙĬ":1165,"Ø¹ÙĬØ¯":1166,"ĠØ§ÙĦØ§ØŃ":1167,"Ø§ÙĦØŃ":1168,"ĠÙĦØ¬":1169,"ĠÙĦÙĦØ£":1170,"ÙĪÙĬØ±":1171,"ĠÙĪÙĬ":1172,"ÙĬØ³Øª":1173,"ĠÙĪÙĦÙĥÙĨ":1174,"ĠÙĩÙĨØ§Ùĥ":1175,"ĠØ§ÙĦØ§Ø¹":1176,"ÙĪÙħØ§Øª":1177,"ĠØªØŃØª":1178,"ĠØ§ÙĦØ¹ÙħÙĦ":1179,"ĠÙĦÙĩØ§":1180,"Ø§Ø¦ÙĤ":1181,"ĠÙĦØ¥":1182,"ÙĦØ§Ø¨":1183,"ÙĬØ§ÙĨ":1184,"Ø¯ÙħØ©":1185,"ÙĨØ§ÙħØ¬":1186,"ĠØ¨Ø£ÙĨ":1187,"ĠØ±Ø³":1188,"ar":1189,"ÙĪÙĦÙī":1190,"ĠÙĪØ§Ø³":1191,"ÙĤÙħ":1192,"ħÙĦÙĥ":1193,"ĠÙĬØ³Øª":1194,"ĠØ£Ø´":1195,"ĠÙĪØ§ÙĦØ¯":1196,"ÙħØ«ÙĦ":1197,"ĠØ§ÙĦÙĪØ²":1198,"ÙĥØ¯":1199,"ĠØ§ÙĦØ°ÙĬÙĨ":1200,"Ø±ÙĬØ¨":1201,"ØŃØ§Ø¯":1202,"ĠØ¥ÙĦÙĬ":1203,"ØªØ§Ø¨":1204,"ĠÙĬØ¯":1205,"ĠÙħÙĨØ°":1206,"ĠØ§ÙĦØ¹Ø§ÙħØ©":1207,"ÙģØ§":1208,"ÙĦØ§ÙħÙĬØ©":1209,"Ø²ÙĬ":1210,"ĠØ§ÙĦØ§ÙĨØª":1211,"ĠÙĪØ§ÙĨ":1212,"ĠÙħØ«ÙĦ":1213,"Ø¶ÙĪØ¹":1214,"ĠØ§ÙĦÙĨØ¸Ø±":1215,"Ø¯Ø«":1216,"Ø§Ø±ÙĥØ©":1217,"ĠØ§ÙĦÙħØªØŃØ¯Ø©":1218,"ĠÙĪØ§ÙĦØ¨":1219,"Ø±ÙĥØ§Øª":1220,"ĠØ¨Ùĥ":1221,"ĠH":1222,"ĠØ§ÙĦØ®Ø§ØµØ©":1223,"ĠÙĪØ§ÙĦØ¥":1224,"ØŃÙĬ":1225,"ØªØ¨Ø±":1226,"ÙĦØ¬":1227,"ÙĬÙĨÙĬ":1228,"Ġc":1229,"ĠØ¨Ø´ÙĥÙĦ":1230,"ĠÙĪØµ":1231,"Ø³Ø§Øª":1232,"ĬØµ":1233,"ÙĬØ²":1234,"Ø§ØµÙ":1235,"ÙĥØªÙĪØ±":1236,"Ø±ØŃ":1237,"ĠÙĤØ±":1238,"ØªÙĥ":1239,"ÙģÙĦ":1240,"ĠÙĪØ¯":1241,"ÙĪØŃ":1242,"Ø§ÙħØ¹Ø©":1243,"ĠØ§ÙĦØªÙĨ":1244,"ÙĪÙĨÙ":1245,"ÙĬÙĨÙĬØ©":1246,"ĠØ£ÙĬØ¶Ø§":1247,"Ø§Ø¯ÙĬØ©":1248,"Ø®Ø¯Ø§Ùħ":1249,"ĬØ§Ùħ":1250,"ĬØªÙħ":1251,"Ø¸Ùħ":1252,"Ø¹Ø§Ø±":1253,"ÙĪØ·":1254,"ĠÙĪÙħ":1255,"ĠÙģØ¥ÙĨ":1256,"ÙĪØµ":1257,"ÙħÙĬÙĦ":1258,"Ø£Ø©":1259,"Ø¯ÙĬØ§Øª":1260,"ĠØ§ÙĦØµØŃ":1261,"ÙĪÙĨÙĬ":1262,"ÙĦØ§Ø¹":1263,"ÙĬØªÙħ":1264,"ØŃÙĬØŃ":1265,"ĠØ§ÙĦØ£ÙĪÙĦ":1266,"ĠÙħÙĪÙĤØ¹":1267,"ĠÙĪØ®":1268,"Ø¸ÙĬÙģ":1269,"ĠP":1270,"Ø§Ø¦Ø¨":1271,"ĠÙĪÙĩÙĬ":1272,"ĠÙĬØªÙħ":1273,"ĠØªØ®":1274,"ĠØĽ":1275,"ĠØ¹ÙĦÙĬÙĩØ§":1276,"ÙĦÙĬÙĦ":1277,"ÙĪØ§Ø¬":1278,"ĠØ§ÙĦÙħÙĨØªØ¯Ùī":1279,"ĠÙĪØ°ÙĦÙĥ":1280,"ĠØªÙģ":1281,"ĠÙĨØª":1282,"ĠC":1283,"Ø¹ÙħØ§ÙĦ":1284,"ÙĥØ©":1285,"ĠM":1286,"Ø±ÙĬÙħ":1287,"ÙĤØ§":1288,"ĠÙĪØ·":1289,"ĠØ§ÙĦØ¹Ùħ":1290,"ĠØ§ÙĦÙħÙĩ":1291,"ĠÙĦÙĥÙ":1292,"ĠÙĦØ£ÙĨ":1293,"ØŃØ§Øª":1294,"ÙģØ§ÙĤ":1295,"ĠÙĦÙĦØ³":1296,"ĠÙģÙĤØ·":1297,"ØŃØ«":1298,"ĦÙĩ":1299,"Ø¯ÙĬÙħ":1300,"ĠØ§ÙĦØ¹ÙĦÙħ":1301,"Ø§ÙĬØ§":1302,"ĠØªÙĦÙĥ":1303,"ĠÙħÙĨÙĩØ§":1304,"ĠØ¹Ø¨Ø±":1305,"³Øª":1306,"ÙĥØ§ÙĨ":1307,"ĠØ¨ÙĦ":1308,"Ø²Ø¨":1309,"ĠØªÙĥÙĪÙĨ":1310,"Ø±Ø§":1311,"ĠØ£Ø¯":1312,"Ø§Ø¨Ø·":1313,"ĠÙĨØ³":1314,"ÙħÙĪØ¹Ø©":1315,"ĠØ²Ù":1316,"ĠÙĪØ§ÙĦØ´":1317,"Ø³Ø¨Ø¨":1318,"ĬØ§Ø©":1319,"an":1320,"Ø§Ø°Ø§":1321,"Ø£ÙĨ":1322,"ØªÙĦ":1323,"ĠØ£ÙĤ":1324,"Ø¯ÙħØ§Øª":1325,"ĠØ§ÙĦØ¯Ø±":1326,"Ø¶Ø©":1327,"ĠØ§ÙĦØ´Ø±":1328,"ĠØ§ÙĦÙħØ·":1329,"ĠØ§ÙĦØ³Ø¹ÙĪØ¯ÙĬØ©":1330,"ĠÙĦÙĦØŃ":1331,"ĠØ§ÙĦÙħØº":1332,"ĠØ§ÙĦØ§Ø®":1333,"Ø¶Ø±":1334,"ĠØ´Ø¨":1335,"Ø£Ù":1336,"Ø±ÙģØ©":1337,"ĠÙĪØ§ÙĦÙĤ":1338,"ÙħØ§ÙĦ":1339,"Ø¶Ø§ÙģØ©":1340,"Ø¶Ø§Ø¡":1341,"Ø±ÙĬÙģ":1342,"ĠÙĦÙĦØ¨":1343,"ÙĦØ§Ùģ":1344,"ĠÙĤÙ":1345,"Ø²ÙĬØ²":1346,"ÙĦÙĬØ§Øª":1347,"ĠØªØ¨":1348,"ĠØ§ÙĦØ§Ø¬ØªÙħØ§Ø¹":1349,"ÙĤØ¨":1350,"ÙĤÙī":1351,"ĠÙĨÙĪ":1352,"ĠØ§ÙĦØ¬ÙĨ":1353,"ĠÙĦÙĬØ³":1354,"ĠØ§ÙĦØ§Ø±":1355,"Ø§Ø®Ù":1356,"Ø®ÙĦ":1357,"ĠØ£Ø¨ÙĪ":1358,"ĠØªØ³Øª":1359,"Ø§ÙĨØ¨":1360,"ĠØ£ØŃ":1361,"Ø§ÙĦØ«":1362,"ĬØ§Ø¯Ø©":1363,"Ġ%":1364,"ÙĬÙĨØ§":1365,"ÙĪØ§Ø¡":1366,"ĠØ§ÙĦØ§Ø¨":1367,"ĠØ§ÙĦÙħØ¨":1368,"ØºÙħ":1369,"ĠØ¬ÙĨ":1370,"ĠØ´ÙĬ":1371,"ĠØ£Ø±":1372,"Ġ11":1373,"Ø´Ù":1374,"ĠØ¥Ø¹":1375,"Ø§ÙĨÙĬØ§":1376,"ĠØ£Ø®Ø±Ùī":1377,"ĠØ§ÙĦØ±Ø³":1378,"ÙĥØ²":1379,"ĠØ§ÙĦØ´ÙĬØ®":1380,"ÙĥÙĪÙĨ":1381,"Ø§ØµÙĦ":1382,"Ġ12":1383,"ØºÙĬ":1384,"Ø¸ÙĬÙħ":1385,"ĠÙĪØ§ÙĦÙģ":1386,"Ø§Ø¨Ø¹Ø©":1387,"Ø±Ø§Øª":1388,"or":1389,"ĠØ§ÙĦØ§Ù":1390,"ÙĪÙĦÙĩ":1391,"ĠØ§ÙĦÙĦÙĬØ²":1392,"Ø§ÙĦØ¯":1393,"Ø§Ø¦Ø¯":1394,"ĠÙĪØ£ÙĨ":1395,"ĠØ§ÙĦØ¬Ø²":1396,"ħÙĬØ©":1397,"ĠÙĪØ§ÙĦØ¬":1398,"ĠT":1399,"Ø¶Ø§Ùģ":1400,"ĠÙĪÙĦÙĬ":1401,"ger":1402,"ÙĬÙħØ©":1403,"Ġ14":1404,"ĠØ§ÙĦØŃÙĥÙĪÙħØ©":1405,"ĠØ¹ÙĦÙħ":1406,"ĠÙĪØ§ÙĦØ±":1407,"ÙĪØ±ÙĬØ§":1408,"Ø§ÙĦÙģ":1409,"ÙĩØ§Ø¨":1410,"ĠØ§ÙĦØ¥Ø¹":1411,"Ø§Ø®ÙĦ":1412,"en":1413,"ĠØ§ÙĦØ¯ÙĪÙĦØ©":1414,"Ø§ØªÙĩ":1415,"Ø§ÙĤØ©":1416,"ĠØ§ÙĦØ¹Ø±Ø¨ÙĬ":1417,"Ø´Ø§Ø±":1418,"Ø¯ÙĦ":1419,"ÙħØ§Ø±":1420,"Ø§Ø²Ù":1421,"ĠÙĪØ§ÙĦØ§":1422,"Ġsur":1423,"ĠÙĪÙĦÙħ":1424,"ØµØ¯":1425,"ØªØ¯":1426,"Ø§ÙĩØ¯":1427,"ØºØ·":1428,"ÙĥØ§":1429,"ħÙĥØª":1430,"Ø§ÙĬØ±":1431,"ħØ¨Ø§Ø±":1432,"Ġ_":1433,"es":1434,"ĠØ§ÙĦØ¢ÙĨ":1435,"ÙĬØ±Ø§":1436,"ÙĬØ±Ø§ÙĨ":1437,"ħÙĦÙĥØ©":1438,"Ø°ÙĥØ±":1439,"ĠÙĬØ®":1440,"ÙĪÙĩ":1441,"ĠØ§ÙĦØªÙī":1442,"ħÙĬÙĨ":1443,"ÙĦØ§ÙħÙĬ":1444,"00":1445,"ĠÙģÙĤØ¯":1446,"ĠÙĪØ§ÙĦØªÙ":1447,"Ø§Ø¯Ø§Øª":1448,"Ġla":1449,"ĠÙĪØ§ÙĦÙĨ":1450,"ĠÙĬÙģ":1451,"ĠØ§ÙĦØªØµ":1452,"Ø¬ÙĬÙĦ":1453,"Ø§ÙģÙ":1454,"ĠØ§ÙĦØªØ³":1455,"ĠØ¨Ø¬":1456,"ĠÙĥØ¨ÙĬØ±":1457,"ØªØ¨Ø§Ø±":1458,"ÙĪÙħØ§":1459,"ÙģØ¶":1460,"Ø§ØªØ¨":1461,"ĠÙħØ¯ÙĬÙĨØ©":1462,"Ġ15":1463,"ĠÙĦØ³":1464,"ÙĬØ§Ùĩ":1465,"ÙĪÙĦÙĬ":1466,"Ø§Ø¹Ù":1467,"Ø¨Ø·":1468,"ÙĥØ«Ø±":1469,"gery":1470,"ĠØ§ÙĦØ«Ø§ÙĨÙĬ":1471,"ĠØ£ÙħØ§Ùħ":1472,"Ø¨ÙĬØ±Ø©":1473,"ÙĨØ³Ø§ÙĨ":1474,"ÙģÙĬØ°":1475,"Ø®Ø¯Ùħ":1476,"ÙħØ§ÙĨ":1477,"ÙħÙĥØª":1478,"ÙĦÙĥØªØ±":1479,"Ġsurgery":1480,"ĠÙĪØ²ÙĬØ±":1481,"ĠØ§ÙĦÙħÙĦÙĥ":1482,"ÙħØ¨Ø§Ø±":1483,"ĠØ§ÙĦÙħØ±Ùĥ":1484,"Ø§ÙħØ§":1485,"ĠØ¬Ø²":1486,"ĠÙħÙĥØª":1487,"Ø¶ÙĬ":1488,"ØŃÙĦØ©":1489,"ĠØ§ÙĦØ´Ø¹Ø¨":1490,"ÙĪØ¯ÙĬ":1491,"ĠØ§ÙĦØµÙģ":1492,"ĠØ§ÙĦØ£ÙĨ":1493,"ĠÙħØ¨Ø§Ø±":1494,"Ø§ÙĦÙĩ":1495,"ĠØ£Ùģ":1496,"ĠØ§ÙĦØ§ÙĤØªØµ":1497,"ĠÙĪÙħØ§":1498,"ÙĥØ±ÙĬ":1499,"ĠâĢ¦":1500,"ĠÙĪØ§ÙĦØªÙĬ":1501,"ĠØ´Ø®Øµ":1502,"ĠØ§ÙĦÙģÙĦØ³Ø·":1503,"ĠÙģØ¹":1504,"ĠB":1505,"Ø§Ø¹Ø§Øª":1506,"ĠØ§ÙĦÙĨØ§Ø³":1507,"ÙĪØ³Ø·":1508,"ħÙĬØ²":1509,"ĠÙħÙĨÙĩ":1510,"Ø§Ø¨ÙĤ":1511,"ĠÙģÙĬÙħØ§":1512,"ĠØ§Ø¨ÙĨ":1513,"ØŃÙĨ":1514,"ĠØ§ÙĦØŃØ±":1515,"ĠØ§ÙĦØ£ÙħØ±":1516,"ÙĤÙĬÙĤØ©":1517,"ĠØ¹ÙĨØ¯ÙħØ§":1518,"ĠØ§ÙĦØ£ÙħÙĨ":1519,"Ġ@":1520,"ĠØ§ÙĦØ¬ÙħØ¹":1521,"Ø¯ÙĪØ¯":1522,"ĠØ¯ÙĪÙĦØ§Ø±":1523,"Ø§ÙģØ¸Ø©":1524,"Ø¸ÙħØ©":1525,"ĠØ§ÙĦÙĪÙĤØª":1526,"ĠØ§ÙĦØ¯ÙĥØªÙĪØ±":1527,"Ġe":1528,"Ø³ÙĨ":1529,"ĠÙĪØ§ÙĦØµ":1530,"ĠØ§ÙĦØ£ÙĪÙĦÙī":1531,"Ø®ÙĪÙĦ":1532,"ĠØ§ÙĦØ®Ø·":1533,"ĠØ¯ÙĪØ±":1534,"ĠØ§Ø¶":1535,"Ø§Ø±Ø³":1536,"Ø²ÙĦ":1537,"ĠØ®Ø§ØµØ©":1538,"ĠÙĪØ§ÙĦØ®":1539,"ĬÙģØ©":1540,"ħÙĦÙģ":1541,"ĠØ¨Ø§ÙĦØ¹":1542,"Ø§ÙĩØ±Ø©":1543,"ØªÙĤ":1544,"ĠØ£ÙħØ§":1545,"ØªÙĬÙĨ":1546,"ĠØ§ÙĦØ¹Ø±Ø§ÙĤ":1547,"ĠØ¹ÙħØ±":1548,"ĠØ§ÙĦØ¥Ù":1549,"ĠÙĪØ²Ø§Ø±Ø©":1550,"ĠØ¨Ø§ÙĦØ¥":1551,"ĬØ¦Ø©":1552,"ÙĪÙĨØ©":1553,"ĠØ·Ø±ÙĬÙĤ":1554,"Ġlas":1555,"ĠØŃÙħ":1556,"ĠØ¨ÙħØ§":1557,"ĠØ±ÙĪ":1558,"ħØ§Ø±Ø§Øª":1559,"ØºØ±":1560,"Ø¬ÙĨ":1561,"Ø³Ùī":1562,"ĠØ¨Ø§ÙĦÙĤ":1563,"ħØ¯ÙĬØ±":1564,"Ø§Ø³ÙĬØ©":1565,"ĠÙĬØ§":1566,"ĠØ§ÙĦØªØ¹ÙĦÙĬÙħ":1567,"ÙĥÙħØ©":1568,"ĠØ§Ø´":1569,"ĠÙĦÙĦØ´":1570,"Ø¹Ø§Øª":1571,"ĠØ¬Ùĩ":1572,"ĠØ«ÙĦØ§Ø«":1573,"ĠØ¹Ø¯Ùħ":1574,"ĠØŃÙĦÙĤØ©":1575,"ĠØ¶Ø¯":1576,"ĠØ§ÙĦØ¹ÙĤ":1577,"ĠØ´ÙĩØ±":1578,"Ø¯Ø§Ø¯":1579,"ĠØ§ÙĦÙĦØº":1580,"ÙĦÙħØ©":1581,"Ø§ÙĦÙī":1582,"ĠØ¨Ø±ÙĨØ§ÙħØ¬":1583,"ĠØµÙĪØ±":1584,"ĠÙĪØªØŃ":1585,"ĠØ£ØŃÙħØ¯":1586,"ĠÙħÙħØ§":1587,"ĠØ§ÙĦÙħÙĨØ·ÙĤØ©":1588,"ĠØ§ÙĨÙĩ":1589,"ÙħØ«":1590,"ĠÙĪÙħØ¹":1591,"ĠÙĦØ¨ÙĨØ§ÙĨ":1592,"ĠÙĬØ¬Ø¨":1593,"ĠÙħÙĩ":1594,"ĠØ³ÙĨØ©":1595,"Ø²ÙĬØ¯":1596,"al":1597,"ØµØ§ÙĦ":1598,"ÙĬØµ":1599,"Ø§ÙģÙĬØ©":1600,"ĠØ§ÙĦÙģØª":1601,"ĠØ§ÙĦØ¥ÙĨ":1602,"ÙĪÙĬÙĦ":1603,"ĠØµÙģ":1604,"Ø§ÙģÙĤ":1605,"Ø§ÙĪ":1606,"ÙĦØŃØ©":1607,"ĠØµÙĦÙī":1608,"ĠØ§ÙĦØ«Ø§ÙĦØ«":1609,"ÙħÙĦÙģ":1610,"ĠØŃÙĬÙĨ":1611,"ĠØ¬Ø¯ÙĬØ¯":1612,"Ø§Ø·ÙĤ":1613,"Ø§Ø¦ÙĬÙĦ":1614,"ĠÙĬØ¨":1615,"ÙĨØ¹":1616,"Ø§Ø¦Ùģ":1617,"ĠØ¬Ø¯ÙĬØ¯Ø©":1618,"ĠØ§ÙĦØ£ÙħÙĬØ±":1619,"ĠÙħÙĨØ·ÙĤØ©":1620,"ĠØ¹ÙħÙĦ":1621,"ĠØ§ÙĦØ£ÙħØ±ÙĬ":1622,"ĠØ§ÙĦØ¨ÙĦØ¯":1623,"Ø±Ø¨Ø©":1624,"Ø¨ÙĬÙĨ":1625,"Ø¹Ùģ":1626,"Ø±ÙĪÙģ":1627,"Ø±ÙĬÙĤØ©":1628,"ĦÙĪÙħ":1629,"ĬØ§Ø±":1630,"Ø§ØµØ±":1631,"ĠØ¨Ø³Ø¨Ø¨":1632,"ÙħØ¯ÙĬØ±":1633,"ĠÙħØ¯ÙĬØ±":1634,"ĠØ§ÙĦÙħØ¬ØªÙħØ¹":1635,"ac":1636,"Ø¨Ø§":1637,"ĠØ§ÙĦÙĦØ¨":1638,"ĠØ§ÙĦÙħØ§Ø¶ÙĬ":1639,"ĠÙħÙĦÙĬÙĪÙĨ":1640,"Ø¹Ø¶Ø§Ø¡":1641,"Ø³Ø·":1642,"ĠØ§ÙĦØ¬Ùĩ":1643,"ĠØ§ÙĦÙħÙĬØ§Ùĩ":1644,"ĠÙĦØ°":1645,"ĠÙĦÙĦÙĤ":1646,"Ø¬Ø²":1647,"ĠØ§ÙĦØ¯ÙĬÙĨ":1648,"ĠØ¹Ø§ÙĦÙħ":1649,"ĠØ·ÙĦØ¨":1650,"ĠD":1651,"ĠØ§ÙĦÙĤÙ":1652,"ĠÙĪØ§ÙĦØ°":1653,"Ø§Ø³Ùħ":1654,"Ø±ÙĪØ¶":1655,"Ø§Ø¶ÙĬØ¹":1656,"ĠØ§ÙĦØ®Ø§Ø±Ø¬":1657,"Ø³Ø§Ø¡":1658,"Ø³ÙĬÙĨ":1659,"ĠØ§ÙĦÙĤØ§ÙĨÙĪÙĨ":1660,"ĠÙĦÙĦØ¬":1661,"ÙĤÙĤ":1662,"ĠØ³ÙĬØ§Ø³":1663,"ĠÙħÙĦÙģ":1664,"ĠØ§ÙĦØ§Ø·":1665,"ĠÙĪØ¶Ø¹":1666,"ĠØ´Ø±":1667,"ĠÙħØ®ØªÙĦÙģ":1668,"ĠÙĪØ³ÙĦÙħ":1669,"ØµÙĬ":1670,"ØŃØ¯Ø«":1671,"ÙĬØ¦Ø©":1672,"Ø·Ø§Ø±":1673,"ØŃØ§Ø¨":1674,"ĠØ§ÙĦÙĪØ·ÙĨÙĬ":1675,"ħÙĬØ±":1676,"ĠØ¯Ø§Ø®ÙĦ":1677,"ĠØ¬ÙĪ":1678,"ĠÙĩÙĦ":1679,"ĠÙĪÙĩØ°Ø§":1680,"Ø³ÙĬØ§":1681,"ĠØ¹Ø¨":1682,"ħØ¨Ø±":1683,"Ø±Øª":1684,"ĠÙĪÙĤØª":1685,"ĠØ§ÙĦØ§ØªØŃØ§Ø¯":1686,"ĠØ±Ùħ":1687,"ĠÙĥÙĬÙģ":1688,"ĠØ§ÙĦØ³ÙĦØ§Ùħ":1689,"ÙĤØ§Ø¦ÙĤ":1690,"Ø¹ÙĬØ©":1691,"Ø§ØŃÙ":1692,"Ø·Ù":1693,"ĠG":1694,"Ø§ÙģÙĬ":1695,"ĠØ§Ø¯":1696,"ĠÙħØ«":1697,"ĠØ¬Ø¯Ø§":1698,"ĠÙĤØ§Ùħ":1699,"Ø±Ø¬":1700,"Ø§Ø¹Ø¯Ø©":1701,"ĠØ§ÙĦØ£Ø¯":1702,"ÙĩÙĪ":1703,"ÙĥÙĪ":1704,"Ø§Ø¦Ùħ":1705,"Ø§ÙĨØ§Øª":1706,"ØµØ±ÙĬØ©":1707,"Ø¶ÙĪ":1708,"ĠØ¬Ù":1709,"ĠØ§ÙĦÙħÙĪÙĤØ¹":1710,"ÙĦÙĬØ§":1711,"ĠÙĪØ¬ÙĪØ¯":1712,"Ø¹Øª":1713,"ĠØ§ÙĦØªØ´":1714,"ĠÙħØ±ÙĥØ²":1715,"ĠØ§ÙĦØ³ÙĦØ·":1716,"ĠØªØ§Ø±ÙĬØ®":1717,"is":1718,"ĠÙĤØ¶":1719,"ĬØ¤":1720,"ĠØ³ÙĨ":1721,"Ø§Ø¨ÙĦ":1722,"ØªØµ":1723,"ĠÙħØ§Ø±":1724,"ÙĬØ¤":1725,"ĠÙĬØ¤":1726,"ĠØ§ÙĦØªØ¯":1727,"ĠØ£ÙħØ³":1728,"ĠØ§ÙĦÙĦØ¨ÙĨ":1729,"Ø®Ø°":1730,"ĠÙĨØŃÙĪ":1731,"ĠØ§ÙĦÙħØ§Ø¡":1732,"ĠØ£Øº":1733,"Ø¨Ø§ØŃ":1734,"ĠØ§ÙĦÙħÙĪØ¶ÙĪØ¹":1735,"ĠØ£ÙĪÙĦ":1736,"ÙħÙĬÙħ":1737,"Ø¯ÙĬÙĪ":1738,"ĠØ§ÙĦØ«ÙĦØ§Ø«":1739,"ĠÙħØ¬ÙħÙĪØ¹Ø©":1740,"ĠØ¨ÙĬØª":1741,"ĠØ£ÙĨÙĩØ§":1742,"ĠF":1743,"Ġ18":1744,"ĠØ¨Ø³":1745,"Ø±ÙĬØ·":1746,"Ø¯ÙĬÙĦ":1747,"ĠØ¨Ø§ÙĦØ±":1748,"ĠÙĦÙĩÙ":1749,"ĠØ¨ÙĬ":1750,"Ø®Ø§Ø¨Ø§Øª":1751,"ĠØ°Ø§Øª":1752,"Ø¬ÙĩØ²Ø©":1753,"Ø¸ÙĩØ±":1754,"ÙĨÙĥ":1755,"ĠØ¹ÙĤ":1756,"ĠÙĬØµ":1757,"ÙĩÙħØ©":1758,"ĠÙĦÙģ":1759,"ĠÙĥØªØ¨":1760,"ĠØ§ÙĦØ£ØŃ":1761,"Ø§ÙĦØ§":1762,"Ø§ÙĪÙĨ":1763,"Ø§ÙĦÙĬØ§":1764,"ÙħÙħ":1765,"Ġ13":1766,"ĠÙĦÙĩÙħ":1767,"ÙĩØ¯Ùģ":1768,"Ø±Ø¨ÙĬ":1769,"ĠØ§ÙĦØ¯ÙĪÙĦÙĬ":1770,"ÙĦØ§ÙĬØ§Øª":1771,"ĠØ¨Ø§Ø³":1772,"ÙĪØ¨ÙĬØ©":1773,"Ø±Ø³":1774,"ÙĪÙĦÙĬØ©":1775,"Ġp":1776,"ÙĪØ¡":1777,"ĠØ£ÙħØ±":1778,"Ø®Ø±Ø¬":1779,"ĠØ§ÙĬ":1780,"Ġt":1781,"Ø§Ø¸":1782,"Ø¨Ø¯Ø£":1783,"ØŃÙħ":1784,"ĠÙĪØ§ÙĦÙĥ":1785,"ĠÙĪØ¹ÙĦÙī":1786,"ĠØ¹Ø´Ø±":1787,"ĠÙĥØ«ÙĬØ±":1788,"Ø´Ø©":1789,"ĠØ§ÙĦÙħØ¬ÙĦØ³":1790,"Ø¨ÙĬÙĤ":1791,"ĠØ£Ø¬ÙĦ":1792,"Ø®Ø¨":1793,"ĠØ§Øµ":1794,"ĠÙĨØ¬":1795,"Ø¯Ø§ÙĬØ©":1796,"ĠØ§ÙĦÙĦØ¬":1797,"ĠØ£ÙĦÙģ":1798,"ĠØ§ÙĦØ¯ÙĪÙĦ":1799,"ĠØ£Ø«":1800,"ĠØ¨ÙĦØ¯":1801,"ÙĪØ±ÙĪ":1802,"ĠÙĦÙĦÙĨ":1803,"ĠØ¨Ø§ÙĦØ£":1804,"Ø·Ø¹":1805,"Ø§Ø¹ÙĬØ©":1806,"ĠÙĪØºÙĬØ±":1807,"ĠØ§ÙĦØ«Ø§ÙĨÙĬØ©":1808,"ĠØ¨ÙĬØ§ÙĨ":1809,"ĠØ¨Ø±Ø§ÙħØ¬":1810,"Ø¯Ùģ":1811,"ĠÙĤØ§ÙĨÙĪÙĨ":1812,"ĠÙĪØ§ØŃØ¯":1813,"ÙĨÙĬÙĩ":1814,"ÙĪØ±Ø§Øª":1815,"ĠØ¹Ø¯":1816,"ĠØ£ÙĩÙħ":1817,"ĠÙĦÙĦØ¯":1818,"ĠÙĦØ´":1819,"ĠØ§ÙĦØ¸":1820,"ĠØ§ÙĦØ«ÙĤ":1821,"ÙĤØ¨ÙĦ":1822,"Ø±ÙĪØ·":1823,"ĠÙĥØ¨ÙĬØ±Ø©":1824,"ĠØ§ÙĦÙĦÙĬØ²Ùĥ":1825,"ØŃÙĦ":1826,"ĠØ§ÙĦØ¨ØŃØ±":1827,"ĠØ§ÙĦÙĥØ«ÙĬØ±":1828,"Ø§ÙħÙĨ":1829,"ĠØŃÙĥ":1830,"Ø§ÙĪÙĦ":1831,"Ø¬Ø§ÙĦ":1832,"Ø¹Ùī":1833,"ĠØ§ÙĦØ¬Ø¯ÙĬØ¯":1834,"ÙĩÙī":1835,"ĠØ¶ÙħÙĨ":1836,"ĠØ§ÙĤ":1837,"Ø¨ÙĬØ§":1838,"ĠØ¥Ø¯Ø§Ø±Ø©":1839,"Ø§ÙĨØ©":1840,"Ø¬Ø±Ø§Ø¡":1841,"Ø§Ø¹ÙĬ":1842,"Ø§ÙħÙĦØ©":1843,"ĠÙĦÙĦØ¥":1844,"ĠÙĪØ¥ÙĨ":1845,"Ø¨ÙĬØ¨":1846,"ĠÙģØ±ÙĬÙĤ":1847,"ÙĪØ§ÙĦ":1848,"Ø·ÙĬØ¹":1849,"Ø§Ø³Ø¨Ø©":1850,"Ø¨Ø§Ø¡":1851,"Ø§ÙĦÙĦÙĩ":1852,"ĠØ§Ø³ØªØ®Ø¯Ø§Ùħ":1853,"Ø§ØªÙ":1854,"ĠÙĪØªÙĤ":1855,"ØªØ¬":1856,"ÙĦÙĩÙ":1857,"Ø³ÙĥØ±":1858,"Ø¶ØŃ":1859,"Ġ16":1860,"ĠE":1861,"re":1862,"Ø±Ø¨Ø¹":1863,"ĠÙĬÙĤÙĪÙĦ":1864,"ĠØ¹ÙĨÙĩ":1865,"ØµÙĪØµ":1866,"ĠØ§ÙĦØ´Ø±ÙĤ":1867,"Ø§ÙĨØ§":1868,"Ġ#":1869,"ĠÙģØ£":1870,"ĠØ§ÙĦØ§Ø´":1871,"ÙĪÙĨÙĬØ©":1872,"ĠØ¬Ø§Ø¡":1873,"ĠÙĪØªØ¹":1874,"ÙĪÙħÙĬ":1875,"ÙħÙī":1876,"Ø³Ø±Ø§Ø¦ÙĬ":1877,"ĠØ§ÙĦØ¨ØŃØ«":1878,"Ø§Ø¯ÙĦ":1879,"ħÙģ":1880,"Ø§ÙħÙĬ":1881,"Ø§ÙĦØ¬":1882,"ĠØ§ÙĦÙĨØ¸Ø§Ùħ":1883,"ÙĪÙħÙĬØ©":1884,"Ø³Ø§Ùħ":1885,"Ø³Ø¨ÙĪØ¹":1886,"ÙĪØ§Ø¨":1887,"ĠÙĨÙģ":1888,"ĠØ§ÙĦÙĬÙħÙĨ":1889,"ĠØ¬ÙħØ¹":1890,"Ġ25":1891,"ÙĦÙħÙĬÙĨ":1892,"ĠÙĦØ¯Ùī":1893,"ĠØ§ÙĦÙĥÙĪÙĬØª":1894,"ĠØ§ÙĦØŃØ¯ÙĬØ«":1895,"Ø±ÙĬØ©":1896,"ĠØ¯ÙĪÙĦØ©":1897,"ĠÙĬØ²":1898,"Ø·ÙĦØ§ÙĤ":1899,"ĠL":1900,"Ø§Ø³ÙĬ":1901,"ĠØ±ÙĤÙħ":1902,"ĠØµØŃ":1903,"Ġey":1904,"ĠØ¨Ø§Ø±":1905,"ĠÙħØ´Ø±ÙĪØ¹":1906,"ØµØ§Ø±":1907,"ĠØ§ÙĦØ¥ÙĨØ³Ø§ÙĨ":1908,"ĠØ§ÙĦÙĦØºØ©":1909,"ÙĨÙħÙĬØ©":1910,"ĠØ§ÙĦØŃÙĬØ§Ø©":1911,"ÙĩÙĬÙħ":1912,"Ġ2017":1913,"ĠØŃØ§ÙĦØ©":1914,"ĠÙĦÙħÙĨ":1915,"ØªÙħØ¯":1916,"ĠØ§ÙĦØ®Ø§Øµ":1917,"ĠØ¹Ø±Ø¶":1918,"ĠØ¯ÙĤØ§Ø¦ÙĤ":1919,"Ø¨ÙĬÙĦ":1920,"ĠØ§ÙĦÙĪØ·ÙĨÙĬØ©":1921,"ĠÙĥØªØ§Ø¨":1922,"ĠÙĬØªØ¹":1923,"ĠØ¨Øµ":1924,"ØªØ±ÙĨØª":1925,"ĠØ§Ø«":1926,"Ø§Ø³Ø¨":1927,"Ø§Ø¨ÙĤØ©":1928,"Ø§Ø¯Ø«":1929,"Ø³ÙĦ":1930,"ĠÙĦÙĦØ¹ÙĬÙĪÙĨ":1931,"ĠØ§ÙĦØ³ÙĬØ¯":1932,"ĠÙħØ³Ø¤":1933,"ĠØ§ÙĦØ¬Ø¯ÙĬØ¯Ø©":1934,"ĦÙĦØ§Ø":1935,"ĠØ§ÙĦØ³ÙĨØ©":1936,"Ø·ÙģØ§ÙĦ":1937,"ĠØ§ÙĦØ³ÙĪØ¯":1938,"Ø§Ø¯Ø±Ø©":1939,"ĠØ¶Ø¹Ùģ":1940,"Ø§Ø¬Ùĩ":1941,"ĠØ£ÙģØ¶ÙĦ":1942,"ĠÙĪØ£Ø¶Ø§Ùģ":1943,"ØªÙĬØ¬Ø©":1944,"ÙĪÙĤÙģ":1945,"ÙĪÙĬØ§Øª":1946,"ÙĩØ§ÙĬØ©":1947,"ĠHD":1948,"ÙħÙĩÙĪØ±ÙĬØ©":1949,"ĠØ§ÙĦØ¹Ø¯ÙĬØ¯":1950,"ĠØ§ÙĦÙĨÙĤ":1951,"ĠÙĨÙģØ³Ùĩ":1952,"ĠÙĨØ¸Ø§Ùħ":1953,"ĠØ§ÙĦØªÙģ":1954,"ĠØ¨Ø§ÙĨ":1955,"ĠØ§ÙĦØªØ·":1956,"ĠØ¥Ø°":1957,"ĠÙĥÙĨØª":1958,"ĠÙĦØ±":1959,"Ø¹Ø¯Ø§Ø¯":1960,"Ø³Ø³Ø©":1961,"ÙĦÙĦØ§Ø":1962,"ĠÙĦÙĦØ§Ø":1963,"ØªÙĩÙħ":1964,"Ø²ÙĬØ©":1965,"Ø§Ø¦Ø¬":1966,"Ø¹ÙĪ":1967,"ĠØ§ÙĦØ³ÙĬØ§Ø³ÙĬØ©":1968,"ĠØ§ÙĦØ¯ÙĪÙĦÙĬØ©":1969,"ÙĦÙĬÙģ":1970,"ic":1971,"ĠÙĤØµ":1972,"ĠÙĬÙĪÙĨ":1973,"ØªÙģ":1974,"ĠØ§ÙĦÙħÙħÙĦÙĥØ©":1975,"ĠI":1976,"ĠØ§ÙĦÙħØ¹ÙĦ":1977,"Ø§Ø¨ÙĬØ©":1978,"ĠÙĪÙĪ":1979,"ĠØ§ÙĦØ´Ø±ÙĥØ©":1980,"ÙħÙģ":1981,"ÙĦÙĩÙħ":1982,"ĠØ§ÙĦÙħØµØ±ÙĬ":1983,"ĠÙħÙģ":1984,"ĠØ§ÙĦØ¯Ø§Ø®":1985,"ĠØ¨Ø§ÙĦØ§Ø":1986,"ÙĪØ¨Ø±":1987,"ĠØ§ÙĦÙģÙ":1988,"ÙĨÙĬØ§":1989,"Ø³ÙĬÙĤ":1990,"ĠØ£Ø¬":1991,"ĠØ§ÙĦÙĨÙģ":1992,"ħØ§Ø¡":1993,"ĦÙĨØ§":1994,"ÙģÙĬØ¯":1995,"Ġ17":1996,"Ġ+":1997,"ĠÙĪØ¬Ùĩ":1998,"ĠØ§ÙĦØ¨Ø·":1999,"Ø¶Ùħ":2000,"ĠØ§ÙĦÙĤØ¶":2001,"ĠÙħØ±Ø©":2002,"Ø§ÙĦØ¹":2003,"Ġ>":2004,"ĠØ§ÙĦÙħØ¨Ø§Ø±":2005,"ĠØ¨ÙħÙĨ":2006,"Ġeye":2007,"ĠÙħØ³ØªÙĪÙī":2008,"Ø§ØŃØ¨":2009,"ĠØ§ÙĦÙģØ±ÙĬÙĤ":2010,"ĠØ§ÙĦØ§Ø¯":2011,"ĠØ·Ø¨":2012,"Ġ30":2013,"ÙĦØ§ÙĤØ©":2014,"Ø§Ø¦ÙħØ©":2015,"Ø£Øª":2016,"ÙĦØ¹Ø¨":2017,"ĠØ§ÙĦØªØ§Ø±ÙĬØ®":2018,"Ø¯ÙĬØ©":2019,"ĠØ§ÙĦØ®Ø§Ø±Ø¬ÙĬØ©":2020,"ÙĦØ³Ù":2021,"ĠØ§ÙĦÙħÙĪØ§Ø·":2022,"ĠØ§ÙĦØ¨ÙĬØ¶":2023,"ĠØ§ÙĦØ¹Ø§ÙĦÙħÙĬØ©":2024,"ĠØ®Ø§Øµ":2025,"ħØ²":2026,"ÙĩÙĪØ±":2027,"Ø³Ø±Ø§Ø¦ÙĬÙĦ":2028,"ĠÙĨØ´Ø±":2029,"Ø¨Ùī":2030,"ĠØ°ÙĥØ±":2031,"ÙĥØ±Ø©":2032,"Ø§Ø±Ø¨":2033,"ĠØ§ÙĦÙĨÙĩ":2034,"Ø§ØªÙģ":2035,"Ø§ØŃÙĬØ©":2036,"ĠØ¨Ø§ÙĦØŃ":2037,"Ø¶ÙĪØ±":2038,"ĠØ³ÙĪÙĤ":2039,"Ø¹ÙĦÙĨ":2040,"Ø§Ø±Ø¹":2041,"Ø§ØªÙĩØ§":2042,"ĠØ§ÙĦØ¬ÙĬØ´":2043,"ĠÙĩÙħ":2044,"ĠØ±Ø¨":2045,"ĠØ§ÙĦØ·Ø¨":2046,"Ø´ÙĬ":2047,"Ø´Ø±Ø©":2048,"ĠØ§ÙĦØ¥Ø³ÙĦØ§ÙħÙĬØ©":2049,"ĠØ§ÙĦÙħØ±Ø£Ø©":2050,"ØªÙħÙĬØ²":2051,"ĠØ³ÙĪØ±ÙĬØ§":2052,"ĠØ§ÙĦØ¹ÙĨ":2053,"ĠØ³ÙĨÙĪØ§Øª":2054,"ĠN":2055,"ĠØ§ÙĦÙħØ¯ÙĬÙĨØ©":2056,"ĠR":2057,"Ø³Ùģ":2058,"ĠØ¹Ø§ÙħØ§":2059,"Ø§Ø¬Ù":2060,"ÙĩØ±Ø¨":2061,"ĠØ§ÙĦÙĪÙĦØ§ÙĬØ§Øª":2062,"ĠØ¨Ø§ÙĦØ¯":2063,"ĠØ´ÙĬØ¡":2064,"ØºÙĬÙĬØ±":2065,"ħØ§Ù":2066,"ĠÙĨØ¸Ø±":2067,"²Ù":2068,"Ø¦Ù":2069,"ÙĪØ¹Ø©":2070,"ĠØ§ÙĦØ§Ø·ÙģØ§ÙĦ":2071,"Ø·ÙĦÙĤ":2072,"ħÙĦØª":2073,"ÙħØ§ÙĬØ©":2074,"ĠÙħØ¨Ø§Ø´":2075,"ĠØ£ÙĥØ¯":2076,"ħØªØ±":2077,"Ø§Ø¨ÙĬ":2078,"ĠÙĨÙĪÙģÙ":2079,"ÙĬÙħØ§":2080,"Ø§Ø¬Ø©":2081,"ĠØ§Ø·":2082,"Ø´Ø§Ø¡":2083,"ĠØ§ÙĦØ´Ø¹":2084,"Ø³Ø³Ø§Øª":2085,"ĠØŃØ¯":2086,"ÙĨØ³ÙĬØ©":2087,"ØŃÙĬÙģØ©":2088,"ĠØªÙĤØ¯Ùħ":2089,"ion":2090,"ÙĪÙĬØ¯":2091,"ÙĪÙĦÙĪ":2092,"ĠØ§Ø¬ØªÙħØ§Ø¹":2093,"ÙĬØ§ÙĨØ©":2094,"ĬÙĥÙĪÙĨ":2095,"ÙħÙĪØ¯":2096,"ÙĦÙħØ§ÙĨ":2097,"Ø±ÙĪØ³":2098,"ĠÙĨÙĪÙģÙħØ¨Ø±":2099,"ĠØ§ÙĦÙĪØ²Ø±Ø§Ø¡":2100,"ĠÙĪØ§ÙĦØ·":2101,"ÙĦØ§ÙĤØ§Øª":2102,"ĠØ§ÙĦÙħØ§ÙĦÙĬØ©":2103,"ÙĥÙĬØ§":2104,"ĠØ§ÙĦØ¹Ø¯":2105,"Ø§Ø±Ø¯":2106,"ĠØ³ÙĪÙģ":2107,"ĠØ§ÙĦØ³Ø§Ø¨ÙĤ":2108,"Ġ]":2109,"Ø±ÙĬÙĨ":2110,"Ø¬Ø§Ø²":2111,"ĠØ§ÙĦØŃÙĤ":2112,"ĠØ¬Ø§ÙħØ¹Ø©":2113,"Ø§Ø¦Ø±Ø©":2114,"ĠÙħÙĬ":2115,"ĠÙĪØ§Ø³Øª":2116,"ĠÙĨØ´":2117,"it":2118,"ÙħØªØ±":2119,"ĠÙĪÙĬØ¹":2120,"ĠÙĦÙĦÙģ":2121,"Ø²Ùħ":2122,"ĠÙħØªØ±":2123,"Ø§Ø²ÙĬ":2124,"ĠØªØ²":2125,"ĠÙĦØ§Ø¹":2126,"ĠÙĪØ§Ø¶":2127,"ĠÙħØ¹Ù":2128,"ħØ¶":2129,"ĦÙĬØ²":2130,"ĠØ£ÙĪØ±":2131,"ĠØ§ÙĦÙħØ¹ÙĦÙĪÙħØ§Øª":2132,"ÙĤÙĩ":2133,"ĠØ³Ø±":2134,"Ø·Ùģ":2135,"ØŃØª":2136,"ĦÙĪÙĨ":2137,"ĠØ§ÙĦØ¹Ø±Ø¨":2138,"Ø¬Ø§Øª":2139,"ĠÙĬØ·":2140,"ĠØ¨Ø§ÙĦØ³":2141,"ÙĦØµ":2142,"ÙĦØ§Ø©":2143,"ĠØ§ÙĦØ®ÙĦÙĬ":2144,"ĠØ§ÙĦÙģÙĬ":2145,"ħØ±ÙĬ":2146,"ĠØ¨Ø®":2147,"Ġ2016":2148,"ĠØªÙĤÙĪÙħ":2149,"ĠØ§Ø³Ù":2150,"ĠØ§Ùģ":2151,"Ø§Ø¹Ø±":2152,"ĠØ§ÙĦØ¨ÙĦØ§Ø¯":2153,"am":2154,"ÙħØ§Ù":2155,"ĠØ§ÙĦØ°Ùī":2156,"ĠÙĪØ§ØŃØ¯Ø©":2157,"ÙģØ¸":2158,"ĠÙĦÙĥÙĦ":2159,"ÙĦØ§Ø¦":2160,"ĠÙĨØŃÙĨ":2161,"ĠØªØŃÙĤÙĬÙĤ":2162,"Ø¬Ø§ÙĨ":2163,"ÙĪØªØ±":2164,"Ø§ÙĬØ©":2165,"ÙĤØ±Ø§Ø·":2166,"ĠØªØ¹Ø§ÙĦÙī":2167,"ĠØ£Ø®Ø¨Ø§Ø±":2168,"ĠØ¹Ø¨Ø¯Ø§ÙĦÙĦÙĩ":2169,"Ø§ÙĬØ§Øª":2170,"ĠÙĪÙĬØª":2171,"ĠØ§ÙĦØ´Ø¨Ø§Ø¨":2172,"Ø¢ÙĨ":2173,"ĠØ§ÙĦØ´Ø¹Ø±":2174,"ĠØ§ÙĦÙĦØ¬ÙĨØ©":2175,"ĠØ§ÙĦÙħÙģ":2176,"ĠØ§Ø±Øª":2177,"ĠÙĦØµ":2178,"ÙĨØ³Ø¨Ø©":2179,"Ø§Ø±Øª":2180,"ĠØ§ÙĦÙĥÙ":2181,"ĠØ§ÙĦÙĤØ¯":2182,"ÙĪØ«":2183,"ĠÙĦÙħØ§":2184,"ĠÙĦÙĦØ±":2185,"ÙĪØ§Ø¹":2186,"ĠÙĪØ§ÙĦØ°Ù":2187,"ĠØ§ÙģØ¶ÙĦ":2188,"Ø´Ø¯":2189,"ĠØ§ÙĦØ¥Ø³Ø±Ø§Ø¦ÙĬ":2190,"Ø¬ÙĦÙĬ":2191,"ĠÙĤØ±Ø§Ø±":2192,"ĠÙĦØº":2193,"ĠØŃØ²Ø¨":2194,"ĠØ¬Ø§ÙĨØ¨":2195,"ĠØ¥ÙĨÙĩ":2196,"ĠØ¯ÙĬÙĨ":2197,"ĠÙĦÙĦÙĪ":2198,"ĠØ§ÙĦØªØ£":2199,"ĠØŃÙĤÙĪÙĤ":2200,"Ø®ØµØµ":2201,"Ø¶ÙħÙĨ":2202,"ĠØ§ÙĦØ£Ø±Ø¶":2203,"ĠÙĪØ§ÙĦØ«":2204,"ĠÙĪØ§ÙĦØ°ÙĬ":2205,"ĠÙħÙĨØªØ¯ÙĬØ§Øª":2206,"ÙĨØ§Ø©":2207,"ĠØ¨Ø§Ø¨":2208,"ĠØ§ÙĦØ£Ø®ÙĬØ±Ø©":2209,"ÙĩØªÙħ":2210,"ĠÙħØ§Ù":2211,"ĠØ§ÙĦÙħÙĥ":2212,"ĠØ§ÙĦØ³Ø¹ÙĪØ¯ÙĬ":2213,"ĠØ¹Ø¯Ø©":2214,"ØªØ±Ø§Ùĥ":2215,"ĠØ³Ø¹":2216,"ØªØ±Ùĥ":2217,"ĠÙħÙĥØ§ÙĨ":2218,"ÙĬØ§Ø¶":2219,"ĠØ§ÙĦØ³ÙĪØ±ÙĬ":2220,"ÙĪØ´":2221,"Ø±Ø±":2222,"Ø§Ø³Ø§Øª":2223,"Ø¬ÙĬØ§":2224,"ĠÙģÙĦØ³Ø·":2225,"ÙĨØªØ§Ø¬":2226,"ĠÙģÙĨ":2227,"Ø¬Ø§":2228,"Ø§ÙĤÙĬ":2229,"ĠØ§ÙĦØ¥ÙĦÙĥØªØ±":2230,"ĠØ¥Ù":2231,"ĠÙĥØ§ÙģØ©":2232,"ĠØ§ÙĦØ¨ÙĬØ¶Ø§Ø¡":2233,"ĠÙħÙĦÙģØ§Øª":2234,"ÙĦÙĦ":2235,"Ø§Ø¶ÙĬØ©":2236,"ÙĦØ§ÙħØ©":2237,"ĠØ§ÙĦØ¯Ù":2238,"act":2239,"ĠØ£Ø¨ÙĬ":2240,"Ø¬Ø¹":2241,"ĠÙĦÙĦÙħÙĨ":2242,"Ø§ÙĥÙĦ":2243,"Ġ24":2244,"Ø¶Ø§ÙĨ":2245,"ro":2246,"ĠØ¥ØŃ":2247,"ÙĪÙħÙ":2248,"ÙģØ§Ø¡":2249,"ØªÙĦØ§ÙĦ":2250,"ĠØ¨ÙĦØº":2251,"ĠÙĪØ§ÙĦÙħÙĨ":2252,"ĠØ£ÙĥØ¨Ø±":2253,"ĠØ§ÙĦØ¥Ø±":2254,"Ø·ÙĨ":2255,"ĠØŃØ³ÙĨ":2256,"Ø³ÙĬØ©":2257,"Ø±Ø§Ø¨Ø·":2258,"Ø£ÙĬ":2259,"Ø«ÙħØ§Ø±":2260,"Ø¦ÙĬ":2261,"ĠØŃÙĦ":2262,"Ø²ÙħØ©":2263,"Ø·Ø§Ø¡":2264,"ĠÙĨÙĤÙĦ":2265,"ÙĪØ¨Ø§":2266,"ed":2267,"ĠØ£ÙĬØ§Ùħ":2268,"ĠÙĦØªØŃ":2269,"ĠÙĦÙĦÙĥ":2270,"ĠØ¨Ø§ÙĦÙģ":2271,"ĠØ§ÙĦØ¢Ø®Ø±":2272,"ÙĥÙĦØ©":2273,"ÙĩÙĨ":2274,"ĠØ¥Ø³Ø±Ø§Ø¦ÙĬÙĦ":2275,"st":2276,"Ġd":2277,"ÙĤÙĬØ§":2278,"ĠØ§ÙĦØ±ÙĪ":2279,"ĠØ§ÙĦÙĥØ±ÙĬÙħ":2280,"ĠØ£ÙĥØª":2281,"ĠØ§ÙĦØ§Ø«":2282,"Ø¤ÙĪÙĨ":2283,"ÙħÙĦØª":2284,"ĠÙĬÙ":2285,"Ø¬Ø¨":2286,"ĠØŃØ±":2287,"ĠÙĪØ§Ø¹":2288,"ĠØ¨Ø§ÙĦÙĥ":2289,"ĬØ£":2290,"Ø³ÙĥØ±ÙĬØ©":2291,"ĠØ®ÙĦÙģ":2292,"Ġ21":2293,"ÙĪØ§ÙĤ":2294,"ÙħÙĬØ³":2295,"ĠØ§ÙĦÙħØµØ±ÙĬØ©":2296,"ĠØ§ÙĦØ±Ø¦ÙĬØ³ÙĬØ©":2297,"ĠØ§ÙĦÙħØ³Ø¤":2298,"ÙĬØ£":2299,"Ø¨Ø±Ø§":2300,"Ø±ÙĬØ§":2301,"Ø§ÙĩÙħ":2302,"ØŃÙĬØ¯":2303,"ĠØ§ÙĦØ£Ø´":2304,"Ø³ØªØ§ÙĨ":2305,"Ø¨ÙĬÙĪØªØ±":2306,"ĠÙĬØ£":2307,"ÙħØ²":2308,"Ø¯ÙĬÙ":2309,"ĠØŃØ¯ÙĬØ«":2310,"ĠØŃØ³Ø¨":2311,"ĠØ¨Ø§Øª":2312,"ĠÙĨÙĪØ¹":2313,"Ġo":2314,"ĠÙĪØ¨Ø¹Ø¯":2315,"ĠØ¹ÙħÙĦÙĬØ§Øª":2316,"ĠØ§ÙĦÙħØ±ÙĥØ²":2317,"ĠÙĪÙĬÙĤ":2318,"ĠØ§ÙĦØ£ÙĤ":2319,"ĠÙĦØ¬ÙĨØ©":2320,"ĠØ§ÙĦØ³ÙĬØ§Ø³Ù":2321,"ĠØ¨ÙĨØ§Ø¡":2322,"ØŃØ¨":2323,"ĠØ§ÙĦØ´Ø¨ÙĥÙĬØ©":2324,"Ġlaser":2325,"Ø¹Ø§ÙĬØ©":2326,"ØªÙĬØ§Ø±":2327,"Ġw":2328,"ĠØ§ÙĦÙĤØµ":2329,"ĠØ¹ÙĤØ¯":2330,"ĠÙħÙĨÙĩÙħ":2331,"ĠÙħØ¬Ø§ÙĦ":2332,"ĠÙĪÙĦÙĬØ³":2333,"ĠØ§ÙĦØµÙģØŃØ©":2334,"Ø§ØµÙĬÙĦ":2335,"ĠÙĬÙĤÙĪÙħ":2336,"Ø¦Ø§Ø³Ø©":2337,"Ø§Ø¦Ø¹":2338,"ĠØ§ÙĦØµÙĨ":2339,"ÙĩØ¨":2340,"ĠØ¥ÙĦÙĬÙĩ":2341,"ħØº":2342,"Ø®Ø§Øµ":2343,"ĠØ§ÙĦØªØ±Ø¨ÙĬØ©":2344,"ĠÙĥØ±":2345,"ĠØ¬ÙĬØ¯":2346,"Ø§Ø¯Ùħ":2347,"ĠÙĨØ¹":2348,"le":2349,"ĠØ¯Ø¹":2350,"ĠØ§ÙĦØ¹Ø§Ø¨":2351,"ĠØ¢Ù":2352,"ĠØ§ÙĦØ³Ùģ":2353,"ĠÙħØ³Ø§Ø¡":2354,"Ø¨ÙĪ":2355,"Ø§ØµÙħØ©":2356,"ĠÙĨÙ":2357,"ĠØ¨Ø§ÙĦÙĦÙĬØ²":2358,"Ø¸Ø©":2359,"ĠØ¬Ø±":2360,"ĠØ¨Ø§ÙĦØ¨":2361,"ĦÙĪØ§":2362,"ĠÙĬØŃØª":2363,"ĠÙĪØ¹ÙĨ":2364,"ĠØ§ÙĦØ£ØŃØ¯":2365,"ĠÙħÙĦØª":2366,"ĠØ±Ø³ÙĪÙĦ":2367,"ĠÙĦÙĤØ¯":2368,"Ø´ÙģÙī":2369,"Ġ{":2370,"ĠØªÙĤØ¯ÙĬÙħ":2371,"Ø§ÙĬØª":2372,"ĠÙĪÙĥØ§ÙĨØª":2373,"ĠÙħØ²":2374,"ĠØ§ÙĦØ·Ø¨ÙĬØ¹":2375,"ĬØ§Ø±Ø©":2376,"ĠØ§ÙĦØ¬Ù":2377,"ĠÙĪØ§ÙĦØªØ¹":2378,"ħÙĥÙĨ":2379,"Ø§ÙĪÙĬ":2380,"ĠØ§ÙĦØ¥ÙħØ§Ø±Ø§Øª":2381,"ĠØªØ¤":2382,"Ġf":2383,"ĠØ§ÙĦØ£Ø®Ø±Ùī":2384,"Ø§ØŃÙĦ":2385,"Ø§ÙĬØ¯":2386,"ĠØ§ÙĦÙĤØ¯Ùħ":2387,"Ġ}":2388,"Ø°Ø±":2389,"ĠÙĨÙĩ":2390,"Ø¨Ø§Ø¨":2391,"ÙĩØ¯Ø§Ùģ":2392,"Ø´ØŃ":2393,"ĠØ§ÙĦØŃØ±Ø¨":2394,"Ø¦Ø§Øª":2395,"ĠØ§ÙĨÙģ":2396,"ĠØ§Ø³Ùħ":2397,"ÙĥØ§Ø±":2398,"Ø§ÙĩØ¯Ø©":2399,"ÙĪØ§ÙĦÙĬ":2400,"Ø§Ø¦ÙĦØ©":2401,"ÙĦÙģØ©":2402,"ĠØ§ÙĦØ¹ÙĬÙĪÙĨ":2403,"ÙĪØ¨Ø©":2404,"ĠØ¯ÙĪÙĦ":2405,"Ø·ÙĬ":2406,"ĠØªØµØŃÙĬØŃ":2407,"ĠØ§ÙĦÙħØ´Ø§Ø±ÙĥØ©":2408,"ĠØ§ÙĦÙĦÙĤ":2409,"ĠØ§ÙĦØ´Ø®Øµ":2410,"ĠÙĥÙĪÙĨ":2411,"ĠØ§ÙĦÙĤØ·Ø§Ø¹":2412,"ĠØ¨Øº":2413,"Ø±ÙĬØ§Øª":2414,"ħØ¨ÙĬÙĪØªØ±":2415,"ĠÙĦØ°ÙĦÙĥ":2416,"ÙĩÙĬØ±":2417,"ĠÙĤØ·Ø§Ø¹":2418,"ĠØ§ÙĦØ£ÙħØ±ÙĬÙĥÙĬØ©":2419,"ĠØ£ØµØ¨ØŃ":2420,"ĠØ´Ø¹":2421,"Ø¶ÙĬÙģ":2422,"ÙĦÙĪØ¨":2423,"ĠÙĪÙĥØ°ÙĦÙĥ":2424,"ÙĦØ³ÙĦ":2425,"ĠÙĤØ¯Ø±":2426,"ÙģÙĤ":2427,"ĠØ¨ÙĥÙĦ":2428,"ÙĦÙĨØ§":2429,"ĠØ±ÙħØ¶Ø§ÙĨ":2430,"Ø§Ø¬Ø¹":2431,"Ø§ØŃØ«":2432,"ĠÙĪØªØ±":2433,"ĠÙĦÙĬØ³Øª":2434,"ĠØ±ÙĬØ§ÙĦ":2435,"Ø§Ø¬Ø§Øª":2436,"Ġ2015":2437,"ØªÙĨØ§":2438,"ĠÙĨØ¸":2439,"ĠØµØ§ØŃØ¨":2440,"Ġcat":2441,"ĠØ¥ÙĤ":2442,"ĠØ§ÙĦÙĤØ§ÙĩØ±Ø©":2443,"ĠØ®Ø§Ø±Ø¬":2444,"ĠÙĪØªÙħ":2445,"ĠØ¨Ø¯Ø§ÙĬØ©":2446,"ĠÙħÙĪØ¶ÙĪØ¹":2447,"ĠÙĪØ³Ø·":2448,"ĠØ§ÙĦØ®Ø§Ùħ":2449,"ĠÙĦØ·":2450,"ĠÙĤØ¨":2451,"ĠØ¥Ø¯":2452,"ĠØŃØ¯Ø«":2453,"ĠÙĨØµ":2454,"ĠØ§ÙĦÙħØ²":2455,"Ġ2014":2456,"ĠØ¨Ø§ÙĦØ¬":2457,"ĠØ§ÙĦØ¯Ø§Ø®ÙĦÙĬØ©":2458,"Ø±ÙĬØŃ":2459,"Ø§ÙĦØ³":2460,"ĠØ±Ø¤":2461,"ØªÙĤØ¯":2462,"Ø³Ø¨Ø§Ø¨":2463,"Ø§Ø±ÙĬØ¹":2464,"ĠÙĬÙħÙĥÙĨÙĥ":2465,"ĠØ¥Ø³":2466,"ØªÙħØª":2467,"ĠØ¬Ùħ":2468,"ØŃØ±Ø§Ùģ":2469,"ĠØ£ÙħÙĨ":2470,"ĠØ§ÙĦÙĤØ±Ø¢ÙĨ":2471,"ĠÙĦÙĦØµ":2472,"ĠØ§ÙĦØ£Ø¹ÙħØ§ÙĦ":2473,"Ø§ÙĪÙĦØ©":2474,"ĠÙĪØ³ÙĬ":2475,"ĠØ§ÙĦÙģØªØ±Ø©":2476,"ĠÙĨÙĩØ§ÙĬØ©":2477,"ĠØ§ÙĦÙħØ¯Ø±":2478,"ĠØ¹ÙĬÙĨ":2479,"ĠØ·Ø§ÙĦØ¨":2480,"ĠØ§ÙĦØ¯ÙģØ§Ø¹":2481,"ĠØ¹ÙĨÙĩØ§":2482,"ÙĦÙħØ§":2483,"ĠØ¨Ø§ÙĦØ´":2484,"ĠØµØ¨Ø§ØŃ":2485,"Ø´Ø±ÙĬÙĨ":2486,"ĠØ§ÙĦØ¬ÙħØ¹Ø©":2487,"Ø§Ø¦Ùĩ":2488,"ĠØ§ÙĦØ£Ø±":2489,"ĠØ´Ùĩ":2490,"ĠØ¯Ùħ":2491,"ĠØªØŃÙħÙĬÙĦ":2492,"aract":2493,"ĠØ±Ø£Ø³":2494,"ĠÙĦÙĨØ§":2495,"ĠØ³ÙĬØ¯":2496,"ÙĤØ·":2497,"ÙħØ§ÙĦÙĬ":2498,"ÙĦØªÙĩ":2499,"Ø³ÙħÙĬØ©":2500,"Ġ22":2501,"ĠØ§ÙĦÙħÙĪØ§Ø¶ÙĬØ¹":2502,"ĠÙĦØ§ÙĨ":2503,"ĠØ¨ÙĬÙĨÙħØ§":2504,"Ø¯ÙħØª":2505,"ÙĦØ§Ùĥ":2506,"ĠÙĪØ§Ø´":2507,"ÙħØº":2508,"ĠØ±Ø¯":2509,"ĠÙĦÙĦØ·":2510,"ĠØ§ÙĦØŃØµÙĪÙĦ":2511,"ĠÙģÙĦØ§":2512,"ĠØ¨Ø§Ø³Ùħ":2513,"ĬÙĪÙħØ§":2514,"ĠØ§ÙĦØ³ÙĬØ§Ø³ÙĬ":2515,"Ø§Ø¤":2516,"ĠØ«ÙĦØ§Ø«Ø©":2517,"Ġ2013":2518,"ĠØ¨Ø§Ø³Øª":2519,"ÙĬØ§Ø³":2520,"ĠÙĪØ¢":2521,"ĠØ§ÙĦØ±ØŃ":2522,"Ġcataract":2523,"ĠØ¨Ø§ÙĦÙĨØ³Ø¨Ø©":2524,"Ø´ÙĤ":2525,"ĠÙĪÙĦØ":2526,"ĠÙĬÙĥÙĨ":2527,"ÙħÙĬØ¯":2528,"ÙģÙĬÙĨ":2529,"ĠÂ·":2530,"Ø®Ø©":2531,"ØºÙĬØ±Ø©":2532,"Ø¬ÙħØ©":2533,"Ø¸Ø§Ø¦Ùģ":2534,"ĠØŃÙĬØ§Øª":2535,"ĠØ±ØºÙħ":2536,"ĠØ¨Ø§ÙĦÙĦÙĬØ²Ø±":2537,"ĠÙĪØ¨ÙĬÙĨ":2538,"ÙĤØ§Ø¡":2539,"Ø§ÙĨÙī":2540,"ĠØ§Ø°Ø§":2541,"ĠÙģÙĩÙĪ":2542,"ĠØ¹ÙĬÙĪÙĨ":2543,"ĠÙĪÙħÙĪ":2544,"ĠÙĪØ«":2545,"ik":2546,"ĠØ§ÙĦØ´Ø±ÙĥØ§Øª":2547,"ĠØµØ§ÙĦØŃ":2548,"ĠØ¹Ø²":2549,"ØªÙħØ±Ø§Ø±":2550,"ĠØ§ÙĦÙĦÙĪ":2551,"Ø§ØªÙĬ":2552,"ĠÙģØ§ÙĨ":2553,"ĠØ³ÙĪØ§Ø¡":2554,"ĠÙĦØ®":2555,"ĠØ¨Ø§ÙĦØ¥Ø¶Ø§ÙģØ©":2556,"ĠØ®Ø¯ÙħØ©":2557,"Ø±ÙĬØ³":2558,"ĠØ§ÙĦØµÙĪØ±":2559,"ÙĪÙĦÙĬÙĨ":2560,"Ø¤ÙĦØ§Ø¡":2561,"ĠØ³ÙĬØ±":2562,"ĠØ³ÙĦØ·":2563,"Ø¯ÙĪÙĨ":2564,"Ġm":2565,"ĠØ§ÙĦÙħÙĤØ¨ÙĦ":2566,"ĠÙħØº":2567,"ĠØ¬ÙĨÙĬÙĩ":2568,"ÙģØ§Øª":2569,"ĠØ§ÙĦÙĦÙĬ":2570,"ĠØ§ÙĦÙĨØ¨ÙĬ":2571,"ĠØŃØ§ÙĦ":2572,"ĠØ§ÙĦØµØŃØ©":2573,"ĠØ§ÙĦÙĦØ§Ø¹":2574,"ĠÙĨØªÙĬØ¬Ø©":2575,"ĠÙĪÙĬÙĨ":2576,"ĠÙħÙĥØªØ¨Ø©":2577,"ĠØ¨Ø¨":2578,"ĠØµÙĨ":2579,"ĠØ§ÙĦØ¬Ø§Ùħ":2580,"ĠÙĦÙĦÙĩ":2581,"ĠØ§ÙĦÙĥØªØ§Ø¨":2582,"ĠØ¨ÙĬØ±":2583,"ĠØ®Ø§ÙĦØ¯":2584,"Ø±Ø§Ø¡Ø©":2585,"ĠØŃØ±ÙĥØ©":2586,"Ø§Ø¦ÙħØ§":2587,"ĠØ§Ø®Ø¨Ø§Ø±":2588,"ĠÙĪØ§Ø®":2589,"ĠØªØ·ÙĪÙĬØ±":2590,"ĠØ£ÙĨØ§":2591,"ÙĬØ§Ø±":2592,"ĠÙĤÙĪØ§Øª":2593,"ĠØ§ÙĦØŃØ³":2594,"ĠØ§ÙĦÙĪØ·ÙĨ":2595,"ĠÙĪØ£ÙĥØ¯":2596,"ÙģØ±Ø§Ø¯":2597,"ĠØ®Ø¯ÙħØ§Øª":2598,"ĠØ§ÙĦØ¬Ùħ":2599,"ĠØ§ÙĦÙħØ«":2600,"he":2601,"Ø±ÙĪØ¬":2602,"Ø±ÙĪØ§":2603,"ĠÙħØŃØ§ÙģØ¸Ø©":2604,"ÙĪØ¬Ùĩ":2605,"Ø±ÙĪØ±Ø©":2606,"ĠØ£Ø«ÙĨØ§Ø¡":2607,"ĠØ§ÙĦØ³Ø¨":2608,"Ġ23":2609,"ĠÙħØ¨Ø§Ø±Ø§Ø©":2610,"ÙĦÙħØ§Øª":2611,"ÙĥÙĬÙĦ":2612,"ĠØ§ÙĦÙĤØ³Ùħ":2613,"ÙĪØ±Ø¯":2614,"ĠÙģØªØ±Ø©":2615,"Ø§ÙĥÙħ":2616,"ĠØ§ÙĦØ®ÙħÙĬØ³":2617,"Ø§Ø·Ø±":2618,"ĠÙģÙĤØ§ÙĦ":2619,"ĠØ§ÙĦØ§ÙĨØªØ®Ø§Ø¨Ø§Øª":2620,"ĠØªØ·Ø¨ÙĬÙĤ":2621,"ĠØ¯Ø¹Ùħ":2622,"ÙħØ§ÙĦÙĬØ©":2623,"ÙĤÙĬØ©":2624,"ĠØ§ÙĦÙħØ±ØŃÙĦØ©":2625,"Ø§Ø¬ÙĩØ©":2626,"ĠÙģØ¶":2627,"ÙĥØ§Øª":2628,"ĠÙĥØª":2629,"ĠØ§ÙĦÙħÙĥØª":2630,"ÙĪÙģÙĬØ±":2631,"ĠØ§ÙĦÙħØ³ÙĦÙħÙĬÙĨ":2632,"ÙĩØ²Ø©":2633,"ĠØ§ÙĦØ¬Ø§ÙħØ¹Ø©":2634,"ĠØ±Ø£":2635,"ĠØ§ÙĦÙħØ´Ø±ÙĪØ¹":2636,"ĠÙģØªØŃ":2637,"ĠØ¹ÙĦÙĬÙĩÙħ":2638,"ĠØ§ÙĦØ§Ø¨ÙĬØ¶":2639,"ØŃÙĤ":2640,"ÙħÙĬØ²":2641,"ĠØ§ÙĦÙĩÙĨØ¯":2642,"ĠØ§ÙĦØ®Ø¯ÙħØ§Øª":2643,"ĠØ¨Ùģ":2644,"ĠÙĬØ¹ÙĨÙĬ":2645,"ĬØº":2646,"ĠØ§Øº":2647,"ĠØ§ÙĦØ«ÙĦØ§Ø«Ø§Ø¡":2648,"ĠÙħÙĤØ§Ø¨ÙĦ":2649,"ĠÙħØ§Ø±Ø³":2650,"ĠØ§ÙĦÙģÙĦØ³Ø·ÙĬÙĨÙĬØ©":2651,"ĠØ§ÙĦÙĤØ¨":2652,"ĠØ³ÙĦÙĬÙħ":2653,"Ø§Ø¦Ø¯Ø©":2654,"ĠØ§ÙĦÙĤØ±ÙĨÙĬØ©":2655,"ħØ§Øª":2656,"ĠØ¨Ø¯ÙĪÙĨ":2657,"ÙĨØ§Øª":2658,"Ø¨Ø¯ÙĪ":2659,"ÙĦÙĬÙĪ":2660,"ĠØ®ÙħØ³":2661,"Ø§ÙĬÙĨ":2662,"ĠØµÙĦØ§ØŃ":2663,"ĦÙĪÙħØ§Øª":2664,"ĠØ§ÙĦØªØ®":2665,"Ø§ÙĩØ±":2666,"Ø³ÙĥØ±ÙĬ":2667,"ĠØ§ÙĥØ«Ø±":2668,"ĠØ²ÙĪØ¬":2669,"Ø±ÙĬÙĤÙĬØ§":2670,"ĠØ§ÙĦØŃÙĥÙħ":2671,"ĠÙĥØ«":2672,"Ġa":2673,"Ø³Ø¨Ø©":2674,"ĠØ±ÙģØ¹":2675,"ĠÙĦÙĩØ°Ø§":2676,"ØºÙĦ":2677,"ĠØ£ÙĩÙĦ":2678,"ĠØ§ÙĦØ«Ø§ÙĦØ«Ø©":2679,"Ø¬ÙĪÙħ":2680,"Ġ2012":2681,"Ġ199":2682,"Ø´ÙĬÙģ":2683,"ĠØ¨ÙĩØ°Ø§":2684,"Ø·ÙĦØ¨":2685,"ĠÙĬÙĩ":2686,"Ø±ÙĬÙĦ":2687,"ĠØ£ÙĨØª":2688,"ĠØ§ÙĦØ³Ø§Ø¹Ø©":2689,"ĠØ§ÙĦØ¯Ø¹":2690,"ve":2691,"ÙĪÙĬØ³":2692,"ÙĦØ§Ø³":2693,"ÙĨØ§ÙĪÙĦ":2694,"ĠÙĥÙĦÙħØ©":2695,"Ø¬Ø§Ø±":2696,"Ġ100":2697,"ĠØ¨ÙĨÙĬ":2698,"ĠØ£ÙĥØªÙĪØ¨Ø±":2699,"ĠØ§ÙĦØ³ÙĬØ§Ø±Ø§Øª":2700,"ĠØ§ÙĦØ¥Ø³ÙĦØ§Ùħ":2701,"ĠØ§ÙĦØ§Ø¬ØªÙħØ§Ø¹ÙĬØ©":2702,"ĠØ§ÙĦØ£Ø±Ø¨Ø¹":2703,"Ø´ÙĦ":2704,"Ø¯Ø§Ø±":2705,"ĠÙĨØ§Ø¯ÙĬ":2706,"ĠØ¨Ø§ÙĦÙĨ":2707,"ĠÙĪØªÙĨ":2708,"ĠØªÙĨØ¸ÙĬÙħ":2709,"ĠÙĦØ¯Ù":2710,"ÙĪØ±Ø§":2711,"ÙĥØ§Ùħ":2712,"ĠØ§ÙĦØ³ÙĪÙĤ":2713,"Ø¬ÙĪØ¯":2714,"ĠW":2715,"Ø²Ø§Ùħ":2716,"ĠØ§ÙĦØ£Ùģ":2717,"ĠØ´Ø±ÙĥØ§Øª":2718,"ĠØ¬ÙĨÙĪØ¨":2719,"ÙħØ¶":2720,"ĠØŃØµ":2721,"ĠÙħÙĪØ§ÙĤØ¹":2722,"ÙĬÙħÙĬ":2723,"ĠØ¸Ù":2724,"ĠØ²Ø±":2725,"ĠÙĪØ§ÙĦÙĩ":2726,"ĠØªÙĨÙģÙĬØ°":2727,"ĠØ§ÙĦØªØ¹Ø§ÙĪÙĨ":2728,"Ø¹Ø§Ø¯Ø©":2729,"ĠØ§ÙĦØªÙĪØ§ØµÙĦ":2730,"ĠÙĦØ¯ÙĬ":2731,"ĠØ§ÙĦØ§ÙĪÙĦ":2732,"ĠØ§ÙĦØ¯ÙĪÙĦØ§Ø±":2733,"Ø¨Ø±Ø©":2734,"Ø¯Ùĩ":2735,"Ø§Ø¯ÙĤ":2736,"ĠØ§ÙĦØ¥Ø¯Ø§Ø±Ø©":2737,"ĠÙĩÙĬØ¦Ø©":2738,"ĠØ³ÙĬÙĥÙĪÙĨ":2739,"Ø§Ø¯Øª":2740,"ĠØ§ÙĥØª":2741,"ĠÙģÙĦØ³Ø·ÙĬÙĨ":2742,"ĠØ¸ÙĦ":2743,"ÙĥÙĬØ¯":2744,"ĠÙĥÙĨ":2745,"ĠØ®ÙĦØ§":2746,"Ø§Ø¦Ø©":2747,"ĠÙĦÙĥÙħ":2748,"Ø²ÙĬÙĪÙĨ":2749,"ÙĪÙĦØ§":2750,"ÙĦØ§ÙĦØ":2751,"ÙĦØ¹Ø§Ø¨":2752,"ĠÙħÙĦØªÙĤÙī":2753,"ĠÙħØ¹Ùĩ":2754,"Ø¯Øª":2755,"ĠØ§ÙĦÙħØºØ±Ø¨":2756,"ĠØ§ÙĦÙħØ²ÙĬØ¯":2757,"Ø´Ø±Ø§Øª":2758,"Ø³ØªØ§Ø°":2759,"ĠÙħÙĦÙĬØ§Ø±":2760,"Ø§ÙĦÙĬØ§Øª":2761,"ĠØ§ÙĦÙĦØ¨ÙĨØ§ÙĨÙĬ":2762,"ĠÙĪÙħØ±":2763,"ĠØ¨Ø§ÙĦØµ":2764,"ĠÙĥØ°ÙĦÙĥ":2765,"ĠØ§ÙĦØ§Ø¬ØªÙħØ§Ø¹Ù":2766,"ÙĪÙĦÙĪØ¬ÙĬØ§":2767,"ĠØ§ÙĦÙħØ®ØªÙĦÙģ":2768,"ent":2769,"ØªØŃ":2770,"ĠØ§ÙĦØ§ÙĤ":2771,"ĠÙĨÙĤØ·Ø©":2772,"ĠØ§ÙĦØ£Ø±Ø¯":2773,"Ø°Ø¨":2774,"ØµÙĬØ§Øª":2775,"ĠØ§ÙĦØ¹Ø§ÙĦÙħÙ":2776,"Ġ50":2777,"Ø§ÙģØ¹":2778,"ĠØ£ÙħÙĬØ±":2779,"ĠØªØ±Ùĥ":2780,"ĠØªØ¹Ø±Ø¶":2781,"ĠÙĥØ£Ø³":2782,"ĠØ§ÙĦØ®ÙĦÙĬØ¬":2783,"ĠÙĪØªØ´":2784,"Ø§ÙĦØ±":2785,"ÙĥÙĬÙģ":2786,"ĬØ§Ø±Ø§Øª":2787,"ĠÙĨØ³Ø¨Ø©":2788,"ØªØ§Ø±":2789,"ĠØ§ÙĦØ£Ø¹":2790,"Ø§ØŃØ§Øª":2791,"ĠØ§ÙĦØ¨ÙĬØ§ÙĨ":2792,"ÙĦØ§ÙĨØ§Øª":2793,"ĠØ§ÙĦÙĤÙĪØ§Øª":2794,"ĠØ´ÙĩØ¯":2795,"Ø±ÙĬÙĥ":2796,"ÙĩØªÙħØ§Ùħ":2797,"Ø§ÙģØŃØ©":2798,"ĠØ§ÙĦØ§ÙĤØªØµØ§Ø¯ÙĬØ©":2799,"ÙĤÙĬØ¯":2800,"ĠÙħØ¶":2801,"Ġ2011":2802,"Ø·Ø¨":2803,"ĠØ§ÙĦØ§Ø¬ØªÙħØ§Ø¹ÙĬ":2804,"Ø§ÙĦØº":2805,"ĠØ§ÙĦØ³ÙĪØ±ÙĬØ©":2806,"ĠØ§ÙĦØ¥Ø³ÙĦØ§ÙħÙĬ":2807,"ĬÙħÙĨ":2808,"ĠÙĦÙĦÙħÙĪ":2809,"ĠÙħØ´Ø§Ø±ÙĥØ©":2810,"Ø¨ÙĬÙĩ":2811,"ĠØ§ÙĦØ¹ÙĦÙĪÙħ":2812,"ĠØ§ÙĦÙĩÙĬØ¦Ø©":2813,"Ø±ÙħÙ":2814,"ĠØ§Ø³ØªØ±":2815,"ĠØ§ÙĦØ£Ø·ÙģØ§ÙĦ":2816,"ĠØ§ÙĦØ¹Ø¨":2817,"ĠØ§ÙĦÙħØ¹Ø§Ø±":2818,"ĠØ§ÙĦØ¥Ø®":2819,"ĠÙĦÙĦÙħØ±":2820,"Ø§ÙħÙĬØ©":2821,"ĠØ§ÙĦØŃÙĪØ§Ø±":2822,"ĠÙĪÙħØ³":2823,"ĠØºØ²Ø©":2824,"ÙĨÙĪÙĨ":2825,"ĠØ§ÙĦÙħØ§Ø¶ÙĬØ©":2826,"Ø¬Ø§Ùĩ":2827,"Ø±ÙĬØª":2828,"ĠÙĬÙĨØ§ÙĬØ±":2829,"ĠØ§ÙĦÙħØªØ¹":2830,"ĠÙĪÙħØŃ":2831,"Ø§Ø¦ØŃ":2832,"ĠØ§ÙĦØ¨Ø±Ø§ÙħØ¬":2833,"Ø¯ÙĨ":2834,"ĠØŃØ§ÙĦÙĬØ§":2835,"Ø¯ÙĬØ§":2836,"ĠØ§ÙĦØ¬ÙħÙĬØ¹":2837,"om":2838,"ĠØ¯Ø§Ø±":2839,"ÙĬØº":2840,"ĠÙĬØ¹Ø±Ùģ":2841,"ÙģÙĬÙĩ":2842,"ĠØ§ÙĦØ¹Ø§ÙĦÙħÙĬ":2843,"ĠØ£Ø¹ÙħØ§ÙĦ":2844,"ĠØ¨ÙĦØ§Ø¯":2845,"ÙĬÙħÙĤØ±Ø§Ø·":2846,"ĠÙĪØ§ÙĦÙħØ³":2847,"ĠØŃØ³Ø§Ø¨":2848,"ÙĦÙĬÙĨØ§":2849,"ĠÙĨØ§Ø¦Ø¨":2850,"ĠÙĨÙĬ":2851,"ĠØ§ÙĦÙħÙĨØªØ¯ÙĬØ§Øª":2852,"ĠØ§ÙĦØ´Ø±Ø·Ø©":2853,"ĠØ§ÙĦÙħØ¤ØªÙħØ±":2854,"Ø¬ÙĬÙĩ":2855,"ĠØ§Ùħ":2856,"ØªÙħØ¨Ø±":2857,"ĠØ¨Ø´Ø£ÙĨ":2858,"ØµØ¨":2859,"ÙĬØ±Ø§Øª":2860,"ĠÙģØ¨Ø±":2861,"ÙĨØ¨":2862,"ØµÙĬØ¨":2863,"ĠØ§ÙĦØ¬ÙħÙĩÙĪØ±ÙĬØ©":2864,"ĠØªÙĥÙĨ":2865,"ĠØ§ÙħØª":2866,"Ø¦Ø§":2867,"Ø±ÙĪØŃØ§Øª":2868,"ĠØ§ÙĦØ³Ø¨Øª":2869,"ĠØ§ÙĦØ¬ÙĪ":2870,"ĠØ£Ø¬ÙĩØ²Ø©":2871,"ĠÙĬØ¹ÙħÙĦ":2872,"ĠÙĥÙĪ":2873,"ĠØ§ÙĦÙħÙĨØ§Ø·ÙĤ":2874,"ÙĪØ¶ØŃ":2875,"ĠO":2876,"ØµØ§ÙĦØ§Øª":2877,"ĠØ³Ø¨ØªÙħØ¨Ø±":2878,"ĠØ·Ø¨ÙĬØ¹":2879,"ĠØªØ¹ÙħÙĦ":2880,"ĠÙĥØ«ÙĬØ±Ø§":2881,"ÙĥØ¨Ø±":2882,"ĠÙĪÙĦØ¯":2883,"ÙĪÙĨØ³":2884,"Ø¤Ø§ÙĦ":2885,"ĠØ¥Ø¶Ø§ÙģØ©":2886,"Ø§Ø¨Øª":2887,"Ġb":2888,"Ø§Ø¯Ùī":2889,"ØµØ§Ø¨Ø©":2890,"ØºØ¨":2891,"Ø¹Ø§ÙĪÙĨ":2892,"ĠØ²ÙĬØ§Ø¯Ø©":2893,"ĠØ§ÙĦÙĥØ¨ÙĬØ±":2894,"ĠØ¨ÙħÙĪ":2895,"ĠÙĨØªØ§Ø¦Ø¬":2896,"ĠØ¸ÙĩØ±":2897,"ĠÙĪØ£Ø´Ø§Ø±":2898,"ĠÙĩØ¤ÙĦØ§Ø¡":2899,"ĠØ§ÙĦØ£Øµ":2900,"ĠØ§ÙĦØ³ÙĦØ·Ø©":2901,"ĠØªÙĦÙĤ":2902,"ĬØ¶Ø§":2903,"ĠÙĪÙĦÙĪ":2904,"ĠØ¯Ø§Ø¦ÙħØ§":2905,"ĠØ¨Ø¹ÙĬØ¯":2906,"ĠØ¨ÙĪØ±":2907,"ing":2908,"ĠÙĪØŃØ¯":2909,"ĠØ³Ø¹ÙĬØ¯":2910,"ĠØ§ÙĦØ¨Ø±ÙĨØ§ÙħØ¬":2911,"Ø§Ø¦ÙĩØ§":2912,"ĠØ§ÙĦØ²Ø±":2913,"ĠÙĪØµÙģ":2914,"ÙĤØ¯Ùħ":2915,"ĠÙĪÙĬØŃ":2916,"ĠØ§ÙĦÙģÙĨØ§ÙĨ":2917,"ÙĦÙĬÙĤ":2918,"Ġ26":2919,"ÙĩÙĬØ¯":2920,"Ø§Ø¡Ø§Øª":2921,"ĠØ§ÙħØ±":2922,"Ġlasik":2923,"ĠØ¢ÙĦ":2924,"ĠØ§ÙĦÙĤØ±Ø§Ø±":2925,"Ø±ÙĬØ¯Ø©":2926,"ĠØ§ÙĦØ¥Ø¯":2927,"ĠÙħØ´ÙĬØ±Ø§":2928,"ĠÙĦÙĩØ°Ùĩ":2929,"ĠK":2930,"ĠÙĦØ£ÙĨÙĩ":2931,"ĠØ§ÙĦÙĤÙĨÙĪØ§Øª":2932,"ĬØ§Ø¨":2933,"Ø¯ÙĬÙĨ":2934,"ĠØ³Ø¹Ø±":2935,"ĠØ§ÙĦØ³ÙĨ":2936,"ÙĩÙĦØ§":2937,"ĠØŃØ³ÙĬÙĨ":2938,"ĠÙĪØ§ÙĦØ§Ø³Øª":2939,"ĠØªÙħØª":2940,"ĠØ´Ùĥ":2941,"ĠØ§ÙĦÙħØŃÙĦÙĬØ©":2942,"ÙĩØ±Ø¬Ø§ÙĨ":2943,"ĠØªØ±ÙĥÙĬØ§":2944,"ĠØ§ÙĦÙħØ¨Ø§Ø±Ø§Ø©":2945,"ĠØ§ÙĦÙĥØ§ØªØ¨":2946,"Ø±ÙĬØ¨Ø§":2947,"Ø§ÙħØ¨":2948,"Ø§ÙĨÙĪÙĬ":2949,"ĠØ§ÙĦÙĬÙĩ":2950,"ĠØ«ÙĤ":2951,"ĠØ§ÙĦØ·ÙĦØ¨":2952,"Ø§ÙĬÙĦ":2953,"ĠÙĬØ¹Ø¯":2954,"ĠØ§ÙĦÙĥØ±":2955,"ĠØ§ÙĦØ¨Ø±ÙĬØ·":2956,"ĠÙĪØªØ³":2957,"ĠØ§ÙĦÙĦØ¨ÙĨØ§ÙĨÙĬØ©":2958,"ĠÙĤØ·Ø±":2959,"ĠÙĤØ¯Ùħ":2960,"ĠØªÙĨØ¸ÙĬÙģ":2961,"ĠÙģÙĪ":2962,"Ø¬Ø±Ø©":2963,"Ø«Ø©":2964,"Ġ27":2965,"ĠØ§ÙĦÙħØ®ØªÙĦÙģØ©":2966,"ĠØ§ÙĦØ´ÙĩØ±":2967,"ĠØ§ÙĦØŃØ¯":2968,"Ø³ÙĬØ³":2969,"ĠØ§ÙĦÙĨØ³":2970,"ÙĩØ§Ùħ":2971,"ĠØ§ÙĦØ¯ÙĪØ±ÙĬ":2972,"ĠØ§ÙĦØŃØ§ÙĦÙĬ":2973,"Ø¨Ø±Ùī":2974,"Ø±ÙĬÙħØ©":2975,"ĠØ³Ø¹Ø¯":2976,"ĠØ§ÙĦÙĨÙĪ":2977,"ĠÙĦÙħØ¹":2978,"ĠØ§ÙĦÙĦÙĬØ²Ø±":2979,"ÙĦØ¨ÙĬØ©":2980,"Ø«Ø§Ø±":2981,"ĠØµØ¯":2982,"ĠØµØŃÙĬÙģØ©":2983,"ĠÙģÙĪÙĤ":2984,"ÙĨØ³ÙĬ":2985,"Ø§Ø±ÙĤ":2986,"Ø¨Ø±Ø§ÙĩÙĬÙħ":2987,"ĠØ§ÙĦØŃØ²Ø¨":2988,"ĠØ£ØµØŃØ§Ø¨":2989,"ÙħÙĨØ§":2990,"ĠÙĦÙħØ¯Ø©":2991,"Ø³ØªØ±":2992,"ĠØ§ÙĦØ³Ø±":2993,"ĠØ§ÙĦØ¨Ø´Ø±":2994,"ĠØ§ÙĦØªÙĨÙģÙĬØ°":2995,"Ø¹Ø§Ùħ":2996,"ĠØ§ÙĦØ¹ÙħØ±":2997,"ĠV":2998,"ĠÙĪØ¨Ø§ÙĦØª":2999,"Ġ28":3000,"ĠØ§ÙĦØ¬Ø²Ø§Ø¦Ø±":3001,"ĠØ¨ÙħØ¹":3002,"ĠØ§ÙĦØªÙĥ":3003,"ĠØ§ÙĦÙĥÙĩØ±Ø¨":3004,"ĠØ§ÙĦÙĨÙ":3005,"ĠØ§ÙĦØ¥Ø¹ÙĦØ§Ùħ":3006,"ĠÙĪÙĤØ§ÙĦØª":3007,"ĠÙĦØ§ØŃ":3008,"ĠØµÙĪØ±Ø©":3009,"ĬØ±ÙĬØ¯":3010,"Ø¬Ø±Ø§Ø¡Ø§Øª":3011,"ĠÙĪÙĩÙĨØ§":3012,"Ø¯Ø§ÙĪÙĦ":3013,"ĠØ§ÙĦØ±Ø³Ø§Ø¦ÙĦ":3014,"ĠØ£Ø¹Ø¶Ø§Ø¡":3015,"ĠÙħØ¹ÙĦÙĪÙħØ§Øª":3016,"ÙĪØ±Ùĩ":3017,"Ø¨Ø±Ø²":3018,"ĠØŃÙĬ":3019,"Ø§Ø¦Ø²Ø©":3020,"ĠÙĬØªØ¹ÙĦÙĤ":3021,"ĠØ§ØªÙģØ§ÙĤ":3022,"Ø§ÙĥØ²":3023,"ÙĤÙģ":3024,"ĠØ¹ÙĦÙĬÙĥ":3025,"ĠÙĪØ§ÙĦÙħØ¹":3026,"ĠÙĦÙĦØ®":3027,"ec":3028,"ÙĬØ§Ùħ":3029,"ĠÙĪØ§ÙĦØº":3030,"ÙĬØ±ÙĬØ¯":3031,"Ø®ØµØµØ©":3032,"ĠÙĬØ±ÙĬØ¯":3033,"ħÙĪÙĨ":3034,"ÙĦÙĬÙĩ":3035,"ĠØ´Ø¹Ø¨":3036,"ĠØ§ÙĦØ´Ùĩ":3037,"ĠØ§Ø±ØªÙģØ§Ø¹":3038,"ĠØ§ÙĦÙĪØ§ÙĤØ¹":3039,"ĠØ§ÙĦØ¹ÙĦØ§ÙĤØ§Øª":3040,"ÙĨÙĬÙģ":3041,"ĠØ£Øª":3042,"ĠØ§ÙĦØ§ÙĦØ":3043,"ĠØ§ÙĦØ¯Ø³Øª":3044,"ĠØ§ÙĦØ£Ùĩ":3045,"ĠØ§ÙĦØ®Ø¨Ø±":3046,"ĠØ¯Ø¨ÙĬ":3047,"ĠÙĤÙĪ":3048,"ĠØ§ÙĦÙħÙĪØ§Ø¯":3049,"ħØ§Ø¯Ø©":3050,"Ø·ÙĪÙĬØ±":3051,"ĠÙħØŃÙħÙĪØ¯":3052,"ĠØ§ÙĦØ¯Ø®ÙĪÙĦ":3053,"ÙħÙĬÙĨ":3054,"ĠØ§ÙĦÙħÙĪØ§Ø·ÙĨÙĬÙĨ":3055,"Ø±ÙĬØ¹":3056,"ØµÙĦØ§ØŃ":3057,"ÙĨØ³Ø§":3058,"ĠØ§ÙĦØ¨ÙĬØª":3059,"ĠØ±ÙģØ¶":3060,"Ø³Ø§Ø¯":3061,"Ø³ÙħØ§Ø¡":3062,"ĠÙĬÙĪÙĨÙĬÙĪ":3063,"ĠØªÙĨØª":3064,"ĠØ§ÙĦØ·Ø±ÙĬÙĤ":3065,"ĠÙĬÙĪØ¬Ø¯":3066,"Ø±Ø§Ø¹":3067,"ĠØ¯Ø§Ø¹":3068,"ĠÙĨØ¯":3069,"ÙĪØ§ÙĨÙĬÙĨ":3070,"ĠÙĬÙĪØ³Ùģ":3071,"Ø§ÙģØ±":3072,"ÙĪØ±ÙĪØ¨ÙĬ":3073,"ĠØªØ¬ÙħØ¹":3074,"ØµÙĪØ±":3075,"ĠØ¬ÙĩØ©":3076,"ĠØµØŃÙĬØŃ":3077,"ĠØ§ÙĦÙħØ¯ÙĬØ±":3078,"ÙĪÙĬØ§":3079,"Ø±ÙĪØ¨":3080,"ĠÙĦØ§Ø³Øª":3081,"ĠØŃÙĪ":3082,"ĠÙģÙĩ":3083,"ĠØ§ÙĦØ¯Ùħ":3084,"ĠØ·Ø±ÙĬÙĤØ©":3085,"ÙĪØ¨Ø§Øª":3086,"ØºÙĬÙĦ":3087,"ĠÙģÙĬØ¯ÙĬÙĪ":3088,"ĠÙĥØ§ÙĨÙĪØ§":3089,"Ø§ÙĨÙĩ":3090,"ĠØªØ¹Ø¯":3091,"ĠÙĥÙģ":3092,"ĠØ¬ÙĩØ§Ø²":3093,"ĠØ§ÙĦÙĪØ±":3094,"ĠÙħØ¤Ø³Ø³Ø©":3095,"ĠÙĪÙħØª":3096,"ØŃØµ":3097,"ĠØ¨Ø°ÙĦÙĥ":3098,"ÙĨØ§Ùĩ":3099,"ĠØ§ÙĦØ¥Ø¬":3100,"ĠÙĪØ¨Ø±":3101,"ĠØ¨Ø£ÙĨÙĩ":3102,"ÙģÙĬØ§Øª":3103,"ĠØ§ÙĦØ¥ÙĤ":3104,"ĠØ§ÙĦÙĤØ¯Ø³":3105,"ĠÙħØ³ÙĦØ³ÙĦ":3106,"ÙĦØ³Ø©":3107,"ĠØ§ÙĦØŃØ¨":3108,"ĠÙĬØ¹ØªØ¨Ø±":3109,"ĬØ§Ø¯":3110,"ĠØ¨ÙĨØ³Ø¨Ø©":3111,"ĠØ¨Ø§ÙĦØ®":3112,"ĠÙħØ®ØªÙĦÙģØ©":3113,"ĠÙĩØ§ØªÙģ":3114,"ĠØ§ØŃØ¯":3115,"ĠØ·ÙĪÙĬ":3116,"ĠØ¥ÙĬØ±Ø§ÙĨ":3117,"ĠØ§ÙĦÙħÙĪØ³Ùħ":3118,"ĠÙĪØ¹Ø¯":3119,"Ø³ÙħØŃ":3120,"ĠÙĪÙĥÙĦ":3121,"ĠÙĪØºÙĬØ±ÙĩØ§":3122,"ĠØ§ÙĦÙĨÙģØ·":3123,"ĠØ§ÙĦØ£Ø±Ø¨Ø¹Ø§Ø¡":3124,"ĠØ³ÙĬÙĨ":3125,"ĠØ§ÙĦÙħÙĩÙĨØ¯":3126,"ĠÙĪÙĩÙħ":3127,"ĠØ§ÙĦØ¨Ø¹Ø¶":3128,"ĠØ§ÙĦØ§Øµ":3129,"ØªØ¯Ùī":3130,"ĠØ¯ÙģØ¹":3131,"ĠÙħØµØ§Ø¯Ø±":3132,"ĠU":3133,"ĠØªÙĤØ±ÙĬØ±":3134,"ĠØ§ÙĦØªØ¬Ø§Ø±ÙĬØ©":3135,"ra":3136,"ĠØ§ÙĦÙħÙĨØªØ®Ø¨":3137,"ĠØ§ÙĦÙĥÙħØ¨ÙĬÙĪØªØ±":3138,"ĠØ§ÙĦØ¹Ø³ÙĥØ±ÙĬØ©":3139,"ĠØ¥Ø¹Ø§Ø¯Ø©":3140,"ĠØ§ÙĦØŃØ¬":3141,"ĠÙħØ¤ØªÙħØ±":3142,"ÙĪÙĦØ§Øª":3143,"ØµØ¨ØŃ":3144,"ĠØ§ÙĦØ¬Ø±":3145,"ĠØ§ÙĩÙħ":3146,"ĠÙĪÙĬÙħ":3147,"ĠØ§ÙĦØ³Ø§Ø¯":3148,"ĠØ§ÙĨÙģØµØ§ÙĦ":3149,"ĠÙħØ¹Ø¸Ùħ":3150,"ĠØ¬Ø²Ø¡":3151,"Ø¬ÙĦÙĬØ²ÙĬØ©":3152,"ÙĦÙħØ§ÙĨÙĬØ©":3153,"ÙģØ³ÙĬØ±":3154,"ĠØ¹Ø¶ÙĪ":3155,"ÙĤÙĬØª":3156,"ĠØ£ÙħØ±ÙĬ":3157,"ĠØ§ÙĦØ¥Ø±ÙĩØ§Ø¨":3158,"ĠÙĪØ§ÙĦÙħØ±":3159,"ĠÙħØ¨Ø§Ø´Ø±Ø©":3160,"ĠØªØº":3161,"ĠØµÙĬØ§ÙĨØ©":3162,"ØªØ§ØŃ":3163,"ĠØ¹Ø¨Ø¯Ø§ÙĦØ¹":3164,"ĠØ£Ø¹ÙĦÙĨ":3165,"ĠØ³ÙĪØ±ÙĬØ©":3166,"ÙģÙĬÙĤ":3167,"ĠØŃØ¨":3168,"ĠØ§ØŃÙħØ¯":3169,"ĠÙĪÙħØ´":3170,"ĠØ®ØµÙĪØµ":3171,"ĠØªÙĩ":3172,"ĠÙĬÙĪÙĦÙĬÙĪ":3173,"Ø§Ø²ÙĦ":3174,"ĠØ§ÙĦØ±Ø¬ÙĦ":3175,"Ġ40":3176,"ĠØ§ÙĦÙĪØ¶Ø¹":3177,"ĠØ§ÙĦØ´Ø±ÙĬÙģ":3178,"Ø²ÙĬÙĨ":3179,"ĠØ£Ø³Ø¨ÙĪØ¹":3180,"ÙģØ§ÙĪØ¶":3181,"ĠØ§ÙĦØ³ÙĪØ¯Ø§ÙĨ":3182,"ĠØ§ÙĦØ¹Ø§ØµÙħØ©":3183,"et":3184,"Ø²Ùĩ":3185,"ĠØ¹Ø§Ø¦":3186,"ĠØ§ÙĦÙħÙĪØ§ÙĤØ¹":3187,"ĠÙĤØ§ÙĦØª":3188,"Ø·Ø§Øª":3189,"Ø¬Ø§ØŃ":3190,"ĠØ§ÙĦØŃÙĪ":3191,"ÙĬØ§Ø±Ø§Øª":3192,"ĠØ§ÙĦÙħØ§ÙĦ":3193,"ĠÙħØ§ÙĬÙĪ":3194,"Ġ2010":3195,"Ø§Ø·Ù":3196,"ĠØ³Ø§Ø¹Ø©":3197,"ĠØ¨Ø§ÙĦØ±ÙĬØ§Ø¶":3198,"ĠØ§ÙĦØ¬ÙħØ¹ÙĬØ©":3199,"Ø³Ø§ÙĨ":3200,"Ø°Ù":3201,"ĠÙĤÙĦØ¨":3202,"il":3203,"ĠÙĪØ§Øª":3204,"ĠÙĥØ§ÙħÙĦ":3205,"ØªØ¨Ø§Ø±Ø§Øª":3206,"ĠØŃÙĥÙĪÙħØ©":3207,"ĠØ¥Ø®":3208,"ĠØ§ÙĦØ§ØŃØªÙĦØ§ÙĦ":3209,"ĠØ§ÙĦØ¯ÙĬÙħÙĤØ±Ø§Ø·":3210,"ĠØ§ÙĦÙģÙĨÙĬ":3211,"ĠÙĪØº":3212,"Ø°Ùĥ":3213,"ĠØ§ÙĦÙħÙĨØ´":3214,"ĠÙħØµØ¯Ø±":3215,"ĠÙĤØ¶ÙĬØ©":3216,"ĠÙĪØ³Ø§Ø¦ÙĦ":3217,"ĠØ¥ÙĦÙĬÙĩØ§":3218,"Ø°ÙĩØ¨":3219,"ÙĬÙħÙĨ":3220,"ĠØ¥Ø¨Ø±Ø§ÙĩÙĬÙħ":3221,"ÙĨØ¯ÙĬØ©":3222,"ĠØ§ÙĦØ£Ø¹Ø¶Ø§Ø¡":3223,"ou":3224,"ĠØ§Ø¶Ø±Ø§Ø±":3225,"ĠÙĤÙĪÙĦÙĩ":3226,"ĠØ¹ÙĨÙĪØ§ÙĨ":3227,"ĠØ§ÙĦÙħØ³ØªÙĪÙī":3228,"ĠØªØ¹ÙĦÙĬÙħ":3229,"Ø§ÙĪÙħØ©":3230,"ĠØ±ÙĪØ³ÙĬØ§":3231,"Ø³ÙĬØŃ":3232,"ĠØ§ÙĦØ¹ÙĦØ§Ø¬":3233,"ÙĦÙģØ²ÙĬÙĪÙĨ":3234,"ĠØ£Ø±Ø¶":3235,"ĠØªØªØ¹":3236,"id":3237,"Ø¹ÙĦÙĨØª":3238,"ĠØ£Ø´ÙĩØ±":3239,"ØªÙħØ§Ø¯":3240,"ĠÙĦÙĦØ¨ÙĬØ¹":3241,"ĠØ§ÙĦÙħØ¯ÙĨÙĬ":3242,"ĠØ§ÙĦØ§Ø«ÙĨÙĬÙĨ":3243,"Ø§Ø´Ø±":3244,"ÙĤÙĪÙĤ":3245,"ÙĪÙĬÙĨ":3246,"ĠØŃÙĥÙħ":3247,"ĠØ§ÙĨØŃØ±Ø§Ùģ":3248,"ĠØ§ÙĦØ£Ø³Ø¨ÙĪØ¹":3249,"Ø§ÙħÙĬÙĨ":3250,"ĠØ§ÙĦØ¹ÙħÙĦÙĬØ©":3251,"Ġ29":3252,"ĠÙģØ¨Ø±Ø§ÙĬØ±":3253,"ĠØªØŃØ¯ÙĬØ¯":3254,"ĠØ§ÙĦØŃÙĦÙĤØ©":3255,"ĠÙĪØ¹ÙĦØ§Ø¬":3256,"ÙĬÙħØª":3257,"ĠØ¨Ø·ÙĪÙĦØ©":3258,"ĠÙĪÙģÙĤ":3259,"Ø±ÙĬØ¹Ø©":3260,"ĠØµÙĪØª":3261,"ĠÙģÙĬÙĦÙħ":3262,"ĠØ¹Ø§ÙĦÙĬØ©":3263,"ħØ¯Ùī":3264,"ĠÙĪØ§ÙĦÙħØŃ":3265,"Ø°Ø©":3266,"ØªÙĬØ§Øª":3267,"ĠÙħØªÙĨ":3268,"ĠÙĪØ§ÙĤ":3269,"ħÙĦ":3270,"Ø§Ø¬Ø¯":3271,"ol":3272,"ĠØ§ÙĦÙĨØ³Ø§Ø¡":3273,"ĠØ¹ÙĦØ§Ø¬":3274,"ĠØ¬Ø¯":3275,"ĠØ§ÙĦØ·ÙģÙĦ":3276,"ÙĥØ§ÙĦ":3277,"ĠØ§ÙĦØ·ÙĦØ§Ø¨":3278,"ĠØ§ÙĦØ§Ùģ":3279,"ĠØ§ÙĦÙģØ±ÙĨØ³ÙĬØ©":3280,"ĠØ§ÙĦÙħÙĤØ¨":3281,"ÙģÙĪ":3282,"ĠØ¹Ø¨Ø¯Ø§ÙĦØ¹Ø²ÙĬØ²":3283,"ØªÙĦØ§Ùģ":3284,"ĠØ¨ÙĬØ¹":3285,"ĬÙĦÙĬ":3286,"ĠØ§ÙĦØ£ÙħØ±ÙĬÙĥÙĬ":3287,"Ġ?":3288,"ĠÙĤÙĨØ§Ø©":3289,"ĠØ§ÙĦÙĦØ§Ø":3290,"ĠØ§ÙĦØ§ØªÙģØ§ÙĤ":3291,"ÙĬÙĪÙħØ§":3292,"ĠØ¨Ø§Ø¹":3293,"ĠØ§ÙĦØ¹ÙĦÙĬØ§":3294,"²ÙħØ©":3295,"Ø±ÙĬØ¨Ø©":3296,"ĠØ§ÙĦÙģØ¶":3297,"ĠØ§ÙĦØ´Ø±ÙĤÙĬØ©":3298,"ĠÙĥÙĦÙĬØ©":3299,"ĠÙħØªÙĪØ³Ø·":3300,"ĠØ¥Ø·Ø§Ø±":3301,"ĠØ§ÙĦØŃØ±ÙĥØ©":3302,"ÙĤØ±Ø§Ø±":3303,"ĠÙĬØ¶":3304,"ĠÙĦØ§Øª":3305,"ĠØ§ÙĦÙħØŃØª":3306,"ĠØ§ÙĦØµØŃÙĬØ©":3307,"ĠØ§ÙĦØ§Ø´ØªØ±Ø§Ùĥ":3308,"ÙĨØ¯ÙĪÙĤ":3309,"Ø³ÙħØ¨Ø±":3310,"ĠØªØ¹Ù":3311,"ĠÙĪØªÙĪ":3312,"ĠØ§ÙĦØªØ³Ø¬ÙĬÙĦ":3313,"ĠØ³Ùģ":3314,"ĠÙĬÙĤØ¯Ùħ":3315,"ĠØ¨Ø¯Ø£Øª":3316,"ĠØ§ÙĦØ£ÙĪØ±":3317,"ÙħØ§Ø¯Ø©":3318,"ĠÙĦØ§Ù":3319,"ĠØ¨Ø«":3320,"ĠØ§ÙĬØ¶Ø§":3321,"ĠØ¯Ø±Ø¬Ø©":3322,"ØµÙī":3323,"Ø§Ø¨Ùĩ":3324,"ĠÙħØ¯Ø±":3325,"ĬÙĪØ±":3326,"ĠØ®Ø¨Ø±":3327,"ĠØ§ÙĦØ£ÙħÙħ":3328,"ØŃÙĪ":3329,"ĠØ¨Ø§ÙĦØ¶":3330,"ĠÙĦÙĪØŃØ©":3331,"ĠØ¯ÙĬØ³ÙħØ¨Ø±":3332,"Ø§ÙĤØ§Øª":3333,"Ø±Ø¨Ø¹Ø©":3334,"ĠØŃØ±Ø¨":3335,"ĠÙħØ¤Ùĥ":3336,"Ġ$":3337,"ĠØ§ÙĦØ¨ÙĨ":3338,"ĠØ¨Ø¯Ø£":3339,"ÙĤÙĬØ¹":3340,"ĠØ¥Ø³Øª":3341,"ĠØ§ÙĦØ¹ÙĦÙħÙĬØ©":3342,"ÙģÙĬØ©":3343,"ĠÙħØ§Ø¯Ø©":3344,"Ø§Ø¨Ø§":3345,"ĠÙħÙĥØªØ¨":3346,"ÙħØ¯Ùī":3347,"ĠØ§ÙĦÙĨÙĬ":3348,"ĠØ§ÙĦÙģÙĦØ³Ø·ÙĬÙĨÙĬ":3349,"ĠØ´ÙħØ§ÙĦ":3350,"ĠÙħØ¯Ùī":3351,"ĠÙĦÙĦØ³ÙĨØ©":3352,"Ġ198":3353,"ĠÙĩØ¯Ùģ":3354,"ÙĬÙĬÙħ":3355,"Ø¨Ø§Ø·":3356,"ĠØ§ÙĦÙĨØ§Ø¦Ø¨":3357,"ÙĨØ¯ÙĬ":3358,"Ø³Ø¬ÙĬÙĦ":3359,"ĠØ±Ø¬ÙĦ":3360,"ad":3361,"ĠØ§ÙĦØ¥Ø³Ø±Ø§Ø¦ÙĬÙĦÙĬ":3362,"Ø§Ø¨Ø±":3363,"ĠÙħÙĨØ§Ø·ÙĤ":3364,"ot":3365,"ĠØ¯ÙĬÙĨØ§Ø±":3366,"ÙĤØ¨Ø§ÙĦ":3367,"ÙģÙĬÙģ":3368,"ĠÙĪØŃØªÙī":3369,"Ø¹Ø§Ø¯":3370,"ĠØ´Ø¨ÙĥØ©":3371,"ĠØ¨ÙĩØ¯Ùģ":3372,"ĠÙħØ§ÙĨ":3373,"ĠÙĦÙĤØ§Ø¡":3374,"ħÙĪØ±":3375,"ĠÙĦÙĦØº":3376,"ĠÙĤØ§Ø¦ÙħØ©":3377,"ĠÙĨÙħÙĪ":3378,"ĠØ¹Ø±ÙĪØ¶":3379,"Ø®Ùģ":3380,"ĠØ¯ÙĪØ±Ø©":3381,"ĠØ¨ÙĨÙģØ³":3382,"Ø¦ÙĬÙĨ":3383,"ĠØ§ÙĦØ´Ø®ØµÙĬØ©":3384,"ĬØ§Ø¡":3385,"ÙĬØ§Ø¨":3386,"ĠØ§ÙĨÙĩØ§":3387,"ĠØ§ÙĦÙĨÙģØ³":3388,"ĠØ±Ø³Ø§ÙĦØ©":3389,"ĠØ±Ø¬":3390,"ĠØ§ÙĦÙħØ®Ø±ÙĪØ·":3391,"Ġ~":3392,"ĠØ§ÙĦØ·Ø¨ÙĬØ©":3393,"ÙĦÙģØ§Øª":3394,"ĠØªÙħØ§ÙħØ§":3395,"ĠØ¨Ø§ÙĦØ§":3396,"ØŃÙĬØ·":3397,"ĠØ¨Ø§ÙĦØ·":3398,"ĠØ£ÙĩÙħÙĬØ©":3399,"ĠØ§ÙħØ³":3400,"ÙħØ§Ùħ":3401,"Ø¨ÙĬØ¯":3402,"ĠÙĪÙĥØ§ÙĦØ©":3403,"ĠÙħØ´Ø§ÙĩØ¯Ø©":3404,"Ø³Ø·Ø³":3405,"ÙģØ§Ø¸":3406,"ĠØªØ¹Ø±Ùģ":3407,"ĠÙĨØ²":3408,"Ø¬ÙĬØ©":3409,"ÙĬÙĪØ±":3410,"Ø²Ø§":3411,"ĠØ®ÙĬØ±":3412,"ĠØŃÙĬØ§Ø©":3413,"Ø§Ø±ÙĬØ±":3414,"Ø±ÙĬØŃØ§Øª":3415,"ĠØ§ÙĦØ·Ø§ÙĤØ©":3416,"ÙĨØ³Ø§ÙĨÙĬØ©":3417,"ĠØ§ÙĦÙĦÙĤØ§Ø¡":3418,"ĠØ§ÙĦØ¨Ø¯":3419,"ĠØ£ÙĦÙħ":3420,"ĠØ£Ø³Ø¹Ø§Ø±":3421,"Ø§Ø¦ÙĦØ§":3422,"Ø§ÙĤØ¨Ø©":3423,"ĠÙĥÙħ":3424,"ĠØªØªÙħ":3425,"ĠØ§ÙĦØ¥ÙĦÙĥØªØ±ÙĪÙĨÙĬ":3426,"ĠØ·Ø±":3427,"ĠØ§ÙĨØªÙĩ":3428,"²Ùħ":3429,"ĠÙĪÙģÙĤØ§":3430,"Ø°ÙĬØ©":3431,"ĠØ§ÙĦÙĨØ§Ø±":3432,"ÙĪÙĨØ§Øª":3433,"ĠØ§ÙĦØ§ÙħÙĬØ±":3434,"ĠØ³Ø¨ÙĬÙĦ":3435,"ÙĪÙĬÙĤ":3436,"ĠØ§ÙĦØµÙĬÙĨ":3437,"ĦÙĦØ§":3438,"ĠÙĪØ³Øª":3439,"ĠÙĥØ´Ùģ":3440,"ÙĪØ§ÙĬØ©":3441,"ÙĥØ±Ùī":3442,"Ù¡":3443,"ĠØ¹Ø´":3444,"ÙĦØ§Ø¨Ø³":3445,"ĠØ¶Ø±ÙĪØ±Ø©":3446,"ĠØ§ÙĤØªØµ":3447,"ĠØ£Ø³Ø§Ø³":3448,"ĠØ¥Ø±":3449,"Ø±Ø§Ø¦ÙĬ":3450,"ĠØ§ÙĦØ«ÙĪØ±Ø©":3451,"ĠØªØµÙħÙĬÙħ":3452,"ÙĬØ¬ÙĬØ©":3453,"ĠØ´Ø¹Ø±":3454,"ĠØ±Ø¬Ø§ÙĦ":3455,"Ø´Ø§Ø±Ø©":3456,"ĠÙħÙĪØ§Ø¶ÙĬØ¹":3457,"ĠØ§ÙĦÙħØŃÙĥÙħØ©":3458,"Ġ31":3459,"ÙĦÙĬØ¨":3460,"ĠÙĥÙĬ":3461,"ĠØ§ÙĦØ¥ÙĬØ±":3462,"ĠÙĪØ§Ø¬":3463,"ĠØ¬Ø¹":3464,"ĠØ´ÙĥÙĦ":3465,"ĠØ§ÙĦØºØ°":3466,"20":3467,"ĠØ§ÙĦØ®Ø¯ÙħØ©":3468,"ĠØ³ÙĦÙĬÙħØ§ÙĨ":3469,"ĠØ§ÙĦØ¬ÙĩØ§Ø²":3470,"ÙħØ§Ø¡":3471,"ØºØ§ÙĨ":3472,"ÙĦØ§Ø´":3473,"ĠØ§ÙĦØ¥ÙħØ§Ùħ":3474,"ĠØ§ÙĦÙĪØ²Ø§Ø±Ø©":3475,"ĠØ§ÙģØª":3476,"ĠØªØºÙĬÙĬØ±":3477,"ĠØ§ÙĦØ¯ÙĪØ±":3478,"ĠÙĦÙĥØ±Ø©":3479,"ĠØ§ÙĦØ§ÙĤØªØµØ§Ø¯":3480,"ÙĪØ¨ÙĬ":3481,"ÙĩÙĬÙĦ":3482,"ħÙģØª":3483,"ÙħÙĬØ±":3484,"Ø¯ÙĬÙħØ©":3485,"ĠÙģÙĩÙĬ":3486,"Ø§ÙĪÙĬØ©":3487,"ĠÙĥØ±Ø©":3488,"Ġ45":3489,"ĠØ´Ø¨ÙĥÙĬØ©":3490,"ÙĨØ§ÙĤ":3491,"ÙħÙĦÙĥ":3492,"Ġof":3493,"ĠØ§ÙĦÙģØ±ÙĨØ³ÙĬ":3494,"ĠÙĦØ§Ø¨":3495,"ĠØ¨Ùħ":3496,"Ø±ÙħÙĬÙĨ":3497,"Ø§ÙĦÙĤ":3498,"ĠØ§ÙĦÙĨØµ":3499,"ĠØ§ÙĦØºØ±Ø¨ÙĬØ©":3500,"ĠØªØ±ÙĬØ¯":3501,"ĠÙĬÙĨØª":3502,"ĠÙĨÙģØ³ÙĩØ§":3503,"ĠØ§ÙĦÙĨØ§Ø¯ÙĬ":3504,"ØªÙĬØ¨":3505,"Ø¬ÙĪØ¯Ø©":3506,"ĠØ¨ØŃØ«":3507,"ÙħÙģØª":3508,"ĠÙĥØ«ÙĬØ±Ø©":3509,"ĠÙĦÙĦØ§Ø³Øª":3510,"ÙĦÙĦØ§":3511,"ĠØ¹Ø±Ùģ":3512,"ÙĪÙĨØ§":3513,"ÙĨÙģ":3514,"Ø³Ø¯":3515,"ĠÙħÙģØª":3516,"Ø³ÙĦÙĪ":3517,"Ø°Ø§Ø±":3518,"ĠÙĪØ§ÙĦÙħÙĪ":3519,"ĠÙĤÙĪØ©":3520,"ĠÙĤØ·":3521,"ĠØ¨ØŃÙ":3522,"ĠÙĪØ¹Ø¯Ùħ":3523,"ĠÙħØ¹Ø±Ø¶":3524,"Ø¹Ùĩ":3525,"ĠØ§ÙĦØ´ÙħØ³":3526,"ĠØ¨ÙĩØ°Ùĩ":3527,"ÙĪØ§ØªÙģ":3528,"ĠØ¨Ø±ÙĪ":3529,"ĠØ§ÙĦØ¹Ø±Ø§ÙĤÙĬ":3530,"ĠØ§ÙĦÙģÙĨ":3531,"Ġ01":3532,"Ø¨ÙĬØª":3533,"ØªØ¯Ø§Ø¡":3534,"ĠØ§ÙĦÙģÙĨÙĬØ©":3535,"ĠØ§ÙĦØ¹Ø¶ÙĪ":3536,"ĠØ±Øº":3537,"ØªØ¨Ø§Ø·":3538,"ĠØ¯Ø®":3539,"ĠØ§ÙĦØ¹Ø²ÙĬØ²":3540,"ĠÙĦÙĦÙħØ´":3541,"ĠØ§ÙĦØ´Ø§Ø¹Ø±":3542,"ĠÙĬÙħÙĨ":3543,"ĠØ§ÙĦØªØŃÙĤÙĬÙĤ":3544,"ÙĥÙĬØ²":3545,"um":3546,"ÙĬÙħØ§ÙĨ":3547,"ÙħÙĪØ§ÙĦ":3548,"ØªØ²":3549,"ĠØ§ÙĦÙĬØ§Ø¨":3550,"ĬØ¯ÙĬ":3551,"ĠØ®ØµÙĪØµØ§":3552,"Ø§ÙģÙĤØ©":3553,"ĠØ§ÙĦØ®ÙĬØ±":3554,"Ø·Ø§ÙĨ":3555,"ĠØ£Ø¹ÙĦÙĨØª":3556,"ĠÙĤØªÙĦ":3557,"Ø¬ÙħØ§Øª":3558,"Ø®Ø§Ø°":3559,"ĠÙħØŃØª":3560,"ĠÙĪÙĬØ³":3561,"ĠØ²ÙĬØ§Ø±Ø©":3562,"ĠØ§Ø®ØªÙĬØ§Ø±":3563,"ĠØ§ÙĦØ£ÙħÙĬØ±ÙĥÙĬØ©":3564,"ĠØ§ÙĦØŃÙĦ":3565,"ĠØ±ØŃÙ":3566,"ĠØ¹ÙĬØ¯":3567,"ĠØ§ÙĦÙħØªÙĪØ§Ø¬":3568,"ĠÙĦÙĦØ§":3569,"ĠÙĥØ§Ùħ":3570,"ĠØ§ÙĦØ³Ø§Ø¨ÙĤØ©":3571,"ĠØ§ÙĦØ±ÙĬØ§Ø¶ÙĬØ©":3572,"ĠÙħØ´Ø§ÙĥÙĦ":3573,"ĠØ§Ø¨ÙĪ":3574,"ĠØ³Ùħ":3575,"ĠÙĤØ§ÙħØª":3576,"ĠØ¯Ø±Ø§Ø³Ø©":3577,"Ø´Ø·Ø©":3578,"ĠØ±ØŃ":3579,"Ġ2009":3580,"ĠØ§ÙĦÙħØ§Ø¯Ø©":3581,"ĠÙħÙĦÙĥ":3582,"ĠØ§ÙĦØªÙĨÙħÙĬØ©":3583,"ÙĦØ²":3584,"ĠØªØŃØ¯Ø«":3585,"Ùł":3586,"Ø³ÙĪÙĨ":3587,"Ø§ÙĪØ±":3588,"ĠØ§ÙĦØ´Ø¹Ø¨ÙĬØ©":3589,"ØªØ±Ø§Øª":3590,"ĠØ§ÙĦØ¨Ù":3591,"ĠÙħØ³ØªØ´ÙģÙī":3592,"ĠÙĪØªØ£":3593,"ĠÙĤÙĬÙħØ©":3594,"ħØ§Ø±Ø³Ø©":3595,"ont":3596,"ĠØ§ÙĦØŃÙĬÙĪ":3597,"Ø±ÙĬØ¶":3598,"Ø§Ø±ÙĥØ§Øª":3599,"ĠØ§ÙĦØ«ÙĤØ§ÙģØ©":3600,"ĠØ£ØºØ³Ø·Ø³":3601,"Ø§Ø±ÙĨØ©":3602,"ation":3603,"ĠÙĪØ§ÙĦÙĪ":3604,"ĠØ¨ÙĬØ±ÙĪØª":3605,"ÙĥØ°Ø§":3606,"Ø¶Ùī":3607,"ĠØ§ÙĦØµÙĦØ§Ø©":3608,"ĠØ§ÙĦÙĤØ±ÙĨ":3609,"ØªØ±Ø§":3610,"Ø·ÙģÙī":3611,"ĠØ¬ÙħØ¹ÙĬØ©":3612,"ĠØ®ÙĦÙĬ":3613,"ØªÙĨ":3614,"ĠØ§ÙĦØ³ÙĬØ§ØŃØ©":3615,"Ġ35":3616,"ĠØ§ÙĦØŃØ¯ÙĪØ¯":3617,"ĠØ§ÙĦØ§ÙĦÙĥØªØ±":3618,"ĠÙģØ±ÙĨØ³Ø§":3619,"ĠÙĬØªØŃ":3620,"ĠØ§ÙĦØ£ÙħÙĪØ±":3621,"ĠØ¥ØŃØ¯Ùī":3622,"Ø§ØŃÙĬ":3623,"ĠÙĪØ¥Ø°Ø§":3624,"ĠØ¹Ø§ÙħØ©":3625,"ĠÙħØŃØ§ÙģØ¸":3626,"ĠØ§ÙĦØ³ÙĦØ·Ø§Øª":3627,"ĠÙĪØ§ÙĦÙĬ":3628,"ĠØªØ¶":3629,"ĠØ³ÙĬØ§Ø±Ø§Øª":3630,"Ġre":3631,"ĠØ§ÙĦØ±ÙĬ":3632,"ĠØ§ÙĦÙħØ®Ø±ÙĪØ·ÙĬØ©":3633,"ĠÙĦØªÙĤ":3634,"ĠØ§ÙĦØ£Ø®Ø¨Ø§Ø±":3635,"ĠØ®ÙĦÙĤ":3636,"ĠØ¨ÙħØŃ":3637,"ÙĪØ¹ÙĬØ©":3638,"Ø§Ø¯ÙħØ©":3639,"Ø±Ø²":3640,"ĠÙĪØ£Ø®":3641,"ĠØ³ÙĪÙī":3642,"ĠØ¨ÙħØ¯":3643,"ĠØ´Ø±ÙĤ":3644,"el":3645,"ĠØ§ÙĦØµÙĪØ±Ø©":3646,"ĠØªØ¹ØªØ¨Ø±":3647,"ĠÙĦÙĬØ²":3648,"ÙĬÙĨÙĬÙĬÙĨ":3649,"Ø±ÙħÙĪ":3650,"ØªÙħØªØ¹":3651,"ĠØ§ÙĦÙĤÙĬ":3652,"Ø¨ÙĬÙĤØ§Øª":3653,"Ø®ØµÙĬØ§Øª":3654,"ĠØ¬ÙħØ§ÙĦ":3655,"ĠØ³ÙħØ¹":3656,"ĠØ¬Ø²Ø±":3657,"ĠÙģÙħÙĨ":3658,"ĠØ§ÙĦØ¯Ø¹Ùħ":3659,"ĠÙĨÙĪØ±":3660,"ĠØ£ÙĨÙĪØ§Ø¹":3661,"ĠÙĪÙĨØŃÙĨ":3662,"Ø«ÙĬÙĤ":3663,"Ø§Ø±Ùģ":3664,"Ø²Ø§Ø¨":3665,"ĠÙħÙĨØ¸ÙħØ©":3666,"ĠØ¯Ø®ÙĪÙĦ":3667,"ĠØ§ÙĦÙĨØ¨":3668,"ĠØ§ÙĦØ²ÙĪØ¬":3669,"Ġi":3670,"ĠØ¹ÙĦÙĬÙĨØ§":3671,"ĠØ§ÙĦÙħØ´Ø§ÙĩØ¯":3672,"ÙĪÙĨÙĩ":3673,"ĠÙħÙĪÙĤÙģ":3674,"ĠØ£Ø¨Ø±ÙĬÙĦ":3675,"Ø´Ø§Ø·":3676,"ĠØªØŃÙĥÙħ":3677,"ĠÙħÙĬØ²":3678,"ĠØ§ÙĦØ£Ø¨":3679,"ĠØ§ÙĦÙĪØŃÙĬØ¯":3680,"ĠØ§ÙĦÙħØ¤Ø³Ø³Ø§Øª":3681,"ri":3682,"Ø§Ø·Ø©":3683,"ÙĬØ§Ø¡":3684,"ĠØ«Ø§ÙĨÙĪÙĬ":3685,"ĠÙĬÙĪÙħØ§":3686,"ÙģÙĬØ§":3687,"ĠÙĪØ°ÙĥØ±":3688,"Ø¦ÙĦØ©":3689,"ĠØ§ÙĦØ§Ø³ØªØ«ÙħØ§Ø±":3690,"ĠØ§ÙĦÙĪØµÙĪÙĦ":3691,"Ø§ÙĪØ²":3692,"ÙģÙī":3693,"ĠØ¨Ø§ÙĦÙħÙĨ":3694,"ĠØªØ¹Ø¯ÙĬÙĦ":3695,"ħÙĦØ§Ù":3696,"as":3697,"ÙĤÙĪÙĦ":3698,"ĠØ§ÙĦÙħØ¬ÙħÙĪØ¹Ø©":3699,"ĠØ§ÙħØ§Ùħ":3700,"ĠÙĤÙĬØ§Ùħ":3701,"ÙĥÙĬÙĨ":3702,"ÙĪÙĬÙĩ":3703,"ĠÙĪØ£ÙĪØ¶ØŃ":3704,"ĠØ§ÙĦØ¬Ø§ÙĨØ¨":3705,"Ø§ÙĦØ¬Ø©":3706,"ĠØ¹Ø±Ø¨ÙĬØ©":3707,"ÙĨØ·ÙĨ":3708,"ĠÙĪØ§ÙĦØªØ¹ÙĦÙĬÙħ":3709,"Ø«ÙĬ":3710,"ĬÙĪØ¨":3711,"ĠØ§ÙĦØ²Ù":3712,"ĠØ¹ÙħØ§ÙĨ":3713,"ØŃÙĬØ§ÙĨ":3714,"ĠØ§ÙĦØ¯ÙĪØ±Ø©":3715,"ØªØ±Ùģ":3716,"ĠÙĤØ±ÙĬØ©":3717,"Ø¹ÙĪØ¯":3718,"Ø¸Ø§Ø±":3719,"ÙģØ§Ø¯Ø©":3720,"ĠØ§ÙĦÙħØ³ØªÙĤØ¨ÙĦ":3721,"ÙħÙĦØ§Ù":3722,"ĠÙĥÙģØ±":3723,"ĠØ¹Ø´Ø±Ø©":3724,"ĠÙħÙĦØ§Ù":3725,"Ø§Ø·ÙĨ":3726,"Ø¨Ø®":3727,"ĠÙĪÙĩØ°Ùĩ":3728,"ĠØ¨Ø¯Ø±":3729,"Ø·ÙĪØ±":3730,"oo":3731,"Ø§Ø¯Ùĩ":3732,"ĠØ§ÙĦÙħØ±Ø¶":3733,"Ġ196":3734,"ĬØ°ÙĥØ±":3735,"ĠØŃØ¬Ùħ":3736,"ĠØ§ÙĦÙĨÙĪØ§Ø¨":3737,"Ø§Ø¦Ø¹Ø©":3738,"ÙĬØ°ÙĥØ±":3739,"ĠÙĬØ°ÙĥØ±":3740,"ĠØ¨ØŃØ³Ø¨":3741,"ĠÙĪØ§ÙĦÙħØ´":3742,"ĠÙĦÙĦÙħØ³":3743,"ĠØ³Ø§ÙĨ":3744,"ħÙĦØ©":3745,"Ø§Ø¦Ø²":3746,"ĠØ³ÙħÙĪ":3747,"ĠØ§ÙĦØ§Ø³ÙĦØ§ÙħÙĬØ©":3748,"ĠØ§ÙĦØ£ÙĪØ³Ø·":3749,"ĠØ¥Ø·ÙĦØ§ÙĤ":3750,"Ø¸ÙĬÙģØ©":3751,"ĠÙħØ¹Ø¯":3752,"ĠÙĪÙĬÙħÙĥÙĨ":3753,"ĠØ¬Ø§ÙĨ":3754,"ĠØ§ÙĦÙĪØ³Ø·":3755,"ĬØ¨Ø©":3756,"ÙħÙĨÙī":3757,"ÙħØ±ÙĬ":3758,"Ø¨ÙĩØ©":3759,"Ø±Ø§Ùģ":3760,"Ġ197":3761,"ĠØ§ÙĦÙħØ¬Ø§ÙĦ":3762,"Ø§Ø¬Ùħ":3763,"ĠØ§ÙĦØ¨ØµØ±":3764,"ĠÙĥÙĬÙģÙĬØ©":3765,"ĠØ§ÙĦØ£Ø³ØªØ§Ø°":3766,"ÙĬÙĦÙĪ":3767,"ĠØªØ¹Ø±ÙĬÙģ":3768,"ĠØ·ÙĪÙĬÙĦØ©":3769,"ĠÙĪØŃØ¯Ø©":3770,"ĠØ³Ø¬":3771,"Ø§ÙĦÙĩØ§":3772,"ĠØ±Ø¨ÙħØ§":3773,"ĠØ§ÙĦØ±ÙĬØ§Ø¶Ø©":3774,"ÙĪÙĦÙĪÙĨ":3775,"ĠØ¥ÙĬØ¬":3776,"ĠÙĪØ¨Ø§ÙĦØªØ§ÙĦÙĬ":3777,"ĠØ¨ÙħÙĤ":3778,"ÙĪØ³ÙĬØ©":3779,"ĠØªØ±Ø§ÙħØ¨":3780,"ĠÙħØ±ØŃÙĦØ©":3781,"Ø¯Ø±Ø§Øª":3782,"ĠÙĪØ¶":3783,"ĠØªØ¹ÙĦÙħ":3784,"ĠÙĨØµÙģ":3785,"ĠÙĪÙĬØ±":3786,"ĠØ§ÙĦØ¨ÙĬ":3787,"ĠØ³ÙĬØªÙħ":3788,"ĠØ¹Ø¶":3789,"ĠØ§ÙĦÙĤØ¶Ø§Ø¡":3790,"Ø§ÙĤÙģ":3791,"ĠÙĪØ§ÙĦØªØ±":3792,"Ø¨ÙĦÙĪÙħ":3793,"ĠØ¨ÙħØ±":3794,"ĠØ³Ø¨Ø¨":3795,"ĠØ£ÙĨÙĩÙħ":3796,"ÙĦØ³ÙĦØ©":3797,"ÙĥÙĬØ¨":3798,"ħÙĩÙħØ©":3799,"ĠÙĬØŃØ¯Ø«":3800,"ĠØ¨Ø³ÙĬ":3801,"ĠÙħÙĤØ±":3802,"ĠØ§ÙĦÙħÙĤØ¨ÙĦØ©":3803,"ĠØ§ÙĦØ§ÙĪÙĦÙī":3804,"ĠØ£ÙĪÙĦØ§":3805,"ĠÙħØ³Ø§Ø¹Ø¯":3806,"Ø¹ÙĬÙĨ":3807,"ĠØ§ÙĦØŃÙĥÙĪÙħÙĬØ©":3808,"ÙĬØ¯Ø©":3809,"ĠØ§ÙĦØ±Ø§Ø¨Ø¹Ø©":3810,"ÙĥÙĬØ±":3811,"ĠØ§ÙĦÙĤØ¶ÙĬØ©":3812,"ĠØ¯Ø§Ø¹Ø´":3813,"Ø§ÙĨÙĪÙĬØ©":3814,"ĠÙĦÙĬØ¨ÙĬØ§":3815,"ĠÙĦØªÙĨ":3816,"ĠÙħÙĥØ§ÙģØŃØ©":3817,"ĠÙħØ¨Ø§Ø´Ø±":3818,"ÙħÙĪÙĨ":3819,"em":3820,"ĠÙĥØ¨ÙĬØ±Ø§":3821,"ÙĪØ³Ø¹":3822,"Ø«ÙħØ±":3823,"ĠÙĪØ±Ø§Ø¡":3824,"ĠØ§ÙĦØ¥Ø³Øª":3825,"ĠØ¹Ø±":3826,"ÙħÙĩÙħØ©":3827,"ĠÙħØŃØ§Ùħ":3828,"ĠÙħÙĩÙħØ©":3829,"ĠÙĬØ²ÙĬØ¯":3830,"Ø®Ø±Ø§":3831,"ĠÙĪØ¸Ø§Ø¦Ùģ":3832,"ÙħÙĩÙĪØ±":3833,"ÙħÙĨØ©":3834,"ĠØ¨ÙĦØ§":3835,"ĠÙĪÙħÙĤ":3836,"ĠØŃÙħØ§ÙĬØ©":3837,"ÙĪØ§Ùĩ":3838,"ÙĨØ¯ÙĤ":3839,"ĠÙģØ¥ÙĨÙĩ":3840,"ĠØ§Ø°":3841,"Ø¬ÙĬØ¨":3842,"ĠØ£ÙĤÙĦ":3843,"ĠÙĦØ¶":3844,"ĠÙĤØ§Ø¦ÙĦØ§":3845,"ÙĨØ¬":3846,"ĠØ§ÙĦÙĦØŃ":3847,"ĠØ·Ø±Ùģ":3848,"ĠØªÙĪÙĨØ³":3849,"ĠØ£Ùī":3850,"Ø£ÙĦØ©":3851,"ĠØ§ÙĦØ£Ø®ÙĬØ±":3852,"ĠØ§ÙĦØ£ÙħÙĨÙĬØ©":3853,"ĠØ¨Ø¯Ø¡":3854,"ĠØ§ØŃØª":3855,"ĠØ³ÙĬØ§Ø³ÙĬØ©":3856,"ĠØ¢ÙĦØ§Ùģ":3857,"ĠØªÙħØ«ÙĦ":3858,"ĠÙĪÙĬØ¬":3859,"Ø¯ÙĤ":3860,"ĠÙĪØ±Ø¯":3861,"ĠØ§ÙĦÙģÙĬØ¯ÙĬÙĪ":3862,"Ø¯Ø§Ø¡":3863,"ÙĦÙħÙ":3864,"ĠØ§ÙĦØ¥ÙĨØªØ±ÙĨØª":3865,"ĠÙħØ¤ÙĥØ¯Ø§":3866,"ĠØ§ÙĦÙĪØ§ØŃ":3867,"us":3868,"ĠØ§ÙĦØ¹ÙĦÙħÙ":3869,"Ø§Ø±Ø¨Ø©":3870,"ĠØ§ÙĦØ¬ÙĨÙĪØ¨ÙĬØ©":3871,"ØªÙħÙĦ":3872,"ĠØ§ÙĦÙĥØªØ¨":3873,"ĠØ§ÙĦØ±Ø³ÙħÙĬ":3874,"ĠØ¨Ø´Ø±":3875,"ĠØ§ÙĦØ±Ø§Ø¨Ø¹":3876,"ÙħÙĪØ¹":3877,"Ø´Ø§Ùģ":3878,"Ø³Ø³":3879,"ĠØ¨Ø¹Ø¯ÙħØ§":3880,"ĠÙĬØº":3881,"ĠØ¹Øµ":3882,"Ġ00":3883,"ÙħØ§Øª":3884,"ĠØ£ÙĪØ±ÙĪØ¨Ø§":3885,"ĠØ§ÙĦØ¯Ø±Ø§Ø³Ø©":3886,"ĠØ§ÙĦØ¹ÙĦÙħÙĬ":3887,"ĠØ§ÙĦÙħØ¹Ø¯":3888,"ĠØ§ÙĦØ·Ø±ÙĤ":3889,"ĠÙĪÙĬØ´":3890,"ĠÙĦÙĦÙħ":3891,"ĠØ¯ÙĬÙĪØ§ÙĨ":3892,"ØªØ±ÙĥØ©":3893,"Ø£ÙħÙĬÙĨ":3894,"ĠØ§ÙĦØ§ÙĤØªØµØ§Ø¯ÙĬ":3895,"Ø§ØªÙĩÙħ":3896,"ĠØ§ÙĦØ±ØŃÙħÙĨ":3897,"Ø¯ÙĬÙĤ":3898,"ĠØ§ÙĦØ¨ØŃ":3899,"ĠØ§ÙĦØ±ÙĤ":3900,"ĠÙħØ¯Ø±Ø³Ø©":3901,"ĠØ¯ÙħØ´ÙĤ":3902,"ĠØ´ÙĬØ¦Ø§":3903,"ĠØ¹ÙĦØ§ÙĤØ©":3904,"ÙĩÙĪÙĦØ©":3905,"ĠØ§ÙĦØ£ÙĪØ±ÙĪØ¨ÙĬ":3906,"ÙĪØ±Ùī":3907,"ĠØ§ÙĦÙĤÙĦØ¨":3908,"ĠØ§ÙĦØ´ÙħØ§ÙĦÙĬØ©":3909,"ĠÙħØ¨Ø§Ø±Ùĥ":3910,"ĠØ§ÙĦÙĥØ¨Ø±Ùī":3911,"ĠÙħÙĨØ²":3912,"ÙĬØ¨Ø©":3913,"ĠØ§ÙĦØ¹Ø³ÙĥØ±ÙĬ":3914,"ĠØ§Ø®Ø±Ùī":3915,"ĠØ§ÙĦÙħØ³ØªØ®Ø¯Ùħ":3916,"Ø§ÙĦØ£":3917,"ÙĪØ§ØµÙĦ":3918,"Ø§Ø´Ù":3919,"ĠÙĪØ§ÙĦØ§ÙĨ":3920,"ÙĥØ§Ø¯":3921,"ĠØ§Ø²":3922,"ĬØ§Ùĩ":3923,"ĠØ¨ÙĬÙĨÙĩÙħ":3924,"ĠØ³Ùĥ":3925,"ĠØŃÙĪØ§ÙĦÙĬ":3926,"ÙģØªØŃ":3927,"ĠÙĦÙĥÙĨÙĩ":3928,"ĠØµØŃØ©":3929,"Ø¹ÙĬÙħ":3930,"ĠØ£Ø¨ÙĨØ§Ø¡":3931,"ÙĦØ§Øº":3932,"ĠØ§ÙĨØ§":3933,"ĠØµØ¯Ø±":3934,"ĠÙħÙħÙĬØ²":3935,"ĠÙĦØªØ¹":3936,"Ø§Ø²Ø§Øª":3937,"ĠØ§ÙĦÙĪØ²ÙĬØ±":3938,"ĠØ§ÙĦÙĤÙĪÙī":3939,"ĠÙĥØ§ØªØ¨":3940,"ĠÙħØ¬ØªÙħØ¹":3941,"ĠØªØ£Ø«ÙĬØ±":3942,"ĠÙģØ±ØµØ©":3943,"ĠÙħØ´ÙĥÙĦØ©":3944,"ÙĪØ§Ùħ":3945,"ĠÙĤÙĦÙĬ":3946,"ĠØ§ÙĦØ±ØºÙħ":3947,"Ø±ÙĬØ±ÙĬ":3948,"ĠÙĦÙĥÙĬ":3949,"ĠØ±ÙĪØŃ":3950,"ĠØ§ÙĦØ±Ø³ÙħÙĬØ©":3951,"ØªØ±Ø¶":3952,"ĠØ§ÙĦØ³ÙģØ±":3953,"Ø§Ø´Ø©":3954,"Ø¦ÙĬØ©":3955,"Ø®ØµÙĪØµ":3956,"ĠÙĪØ§ÙĦØ§Ø¬":3957,"ĠØ¯ÙĦÙĬÙĦ":3958,"ĠØ£ÙĦØ§":3959,"ĠÙĪØ§ÙĦØ²":3960,"ĠÙĦÙĦÙħÙĨØªØ¯Ùī":3961,"Ø·Ø·":3962,"ĠÙħØ§ÙĦÙĬ":3963,"ĠÙĪØªØ¬":3964,"ØºØ§ÙĦ":3965,"Ø§Ø±Ø§":3966,"ĠØ§ÙĦÙħØ¹Ø§Ø±Ø¶Ø©":3967,"ter":3968,"ĠØ³ÙĬØ§Ø±Ø©":3969,"Ø§Ø¨ÙĤØ§Øª":3970,"ĠØ§ÙĦØªÙģØ§ØµÙĬÙĦ":3971,"Ø«ÙħØ§ÙĨ":3972,"ĠØ±Ø¶ÙĬ":3973,"ĠÙħØŃØ§ÙĪÙĦØ©":3974,"ħØ§Ø³":3975,"ĠÙħÙĪØ³":3976,"ÙĦÙĬÙĤØ§Øª":3977,"ĠØ¯ÙĪØ±ÙĬ":3978,"ĠØ¨ØŃÙĬØ«":3979,"ÙĦØ§ØŃØ¸":3980,"ĠØ¨ÙĪØ§Ø³":3981,"ĠØªØŃÙħÙĦ":3982,"Ġh":3983,"ow":3984,"ĠØ·Ø±ØŃ":3985,"Ø±ÙģØ¹":3986,"ĠÙĦØ¯ÙĬÙĨØ§":3987,"ĠØ§ÙĦØ£ÙĬØ§Ùħ":3988,"Ø¬Ø§ÙĪØ²":3989,"Ø¶ÙĬØ±":3990,"ĠØ§ÙĦÙĥØª":3991,"ÙĨÙħ":3992,"ĠÙĬØ³ØªØ·ÙĬØ¹":3993,"ĠÙĬØ£ØªÙĬ":3994,"ĠØ§ÙĦÙģÙĥØ±":3995,"ÙĨÙĬØ§Øª":3996,"ĠØ§ÙĦÙħÙĥØ§ÙĨ":3997,"Ø§Ø³Ø¨Ø§Øª":3998,"ĠØ§ÙĦÙĪÙĤ":3999,"ĠØ¬ÙħÙĩÙĪØ±ÙĬØ©":4000,"ĠÙĨÙĬÙĪ":4001,"ĬØ¨Ø¯ÙĪ":4002,"ĠÙħÙĪØ§Ø¬ÙĩØ©":4003,"ĠØ§ÙĦØ§ØªØµØ§ÙĦ":4004,"ØªØ±Ø§Ùħ":4005,"ĠÙĦØ§Ø¹Ø¨":4006,"ĠØ§ÙĦØ¬Ø³Ùħ":4007,"Ø±ÙĥÙĬØ©":4008,"Ø±ÙĤØ§Ø¡":4009,"ĠØ¥Ø¬":4010,"Ø¹ÙħÙĦ":4011,"Ø·ØŃ":4012,"ĠØ´Ø¨Ø§Ø¨":4013,"ĠÙĪØµÙĦ":4014,"ĠØ§ÙĦØ¨ÙĨÙĥ":4015,"ÙĥÙĨÙĪÙĦÙĪØ¬ÙĬØ§":4016,"Ø¦ÙĬØ³ÙĬ":4017,"ĠØ³Ø§Ùħ":4018,"ĠØ§ÙĦØªØ¹Ø§ÙħÙĦ":4019,"ĠÙĦÙħØ¬":4020,"ĠÙĪÙĦÙĨ":4021,"ĠÙĪØ§ÙĦØªØŃ":4022,"ÙħÙĬÙĦØ©":4023,"ĠÙĪØ§Ø´ÙĨØ·ÙĨ":4024,"ÙĨÙĬØ³":4025,"ĠØ§ÙĦØ¨ØŃØ±ÙĬÙĨ":4026,"ÙĬØ¨Ø¯ÙĪ":4027,"ØªØ±Ø§Ùģ":4028,"ĠÙĬØ¨Ø¯ÙĪ":4029,"ÙĥØ±Ø§":4030,"ÙĦÙħØ§ÙĨÙĬ":4031,"ÙĦÙħÙĬ":4032,"ub":4033,"ĠØ§ÙĦØ£Øº":4034,"Ġco":4035,"ÙħØ¹ÙĬØ©":4036,"ĬÙĪÙħÙ":4037,"ØµØ¯Ø§Ø±":4038,"ĠØªÙĪÙģÙĬØ±":4039,"ÙĬÙĪÙħÙ":4040,"ĠÙĦØ³ÙĨØ©":4041,"ĠØ£ÙĩØ¯Ø§Ùģ":4042,"ĠÙĬÙĪÙħÙ":4043,"ÙħØ§ÙĩÙĬØ±":4044,"ĠÙĦØ°Ø§":4045,"Ø·Ø±Ø§Ùģ":4046,"ħØ§Ø°Ø§":4047,"ĠØªØµÙĦ":4048,"ØŃÙĬØ§Ø¡":4049,"ĠÙĦÙħØ§Ø°Ø§":4050,"ĠØ§ÙħØ§":4051,"ĠØŃØ¯ÙĪØ¯":4052,"ĠØ¥ÙĨÙĩØ§":4053,"ĠØ§ÙĦØ£Ø¬":4054,"Ø´ÙĨ":4055,"ĠØ§ÙĦÙħÙĤØ¯":4056,"ĠØ§ÙĦØ§ÙħÙĨ":4057,"un":4058,"ĠÙĪØ§ÙĦØ¢":4059,"ĠÙĦÙħØ³":4060,"ĠØ§ÙĦØ£Ø²":4061,"ĠØ£Ø³Ø±":4062,"ĠØ§ÙĦØªÙĤÙĨÙĬØ©":4063,"ĠØ¨ØªØŃ":4064,"Ø¸ÙħØ§Øª":4065,"ĠØ£Ùĩ":4066,"ĠØ§Ø®ØªØ±":4067,"ĠØ§ÙĦØµÙĪ":4068,"ĠØ§ÙĦØ°Ø§Øª":4069,"Ø¹Ø¯Ø¯Ø©":4070,"ÙĬÙĬ":4071,"Ø«Ùħ":4072,"Ġ=":4073,"ĠØ£Ø·":4074,"ĠØªÙĥÙĦÙģØ©":4075,"ĠØ³ÙĦÙħØ§ÙĨ":4076,"ÙĨØ§Ø¦ÙĬØ©":4077,"ÙĦØ¨Ø©":4078,"ĠØ§ÙĦÙħØ¯Ø±Ø³Ø©":4079,"ĠÙħÙĪÙĨ":4080,"ĠØ§ØªØŃØ§Ø¯":4081,"ĠØ§ÙĦÙĨÙĤÙĦ":4082,"Ø±ÙĪØŃ":4083,"ĠÙĪØ§ÙĦÙĦÙĩ":4084,"ĠÙħØ¹ÙĩØ§":4085,"ĠØ£Ø¹ÙĦÙī":4086,"ĠØ§ÙĦÙĥØ±Ø©":4087,"ĠØ§ÙĦÙħØŃØ§ÙģØ¸Ø©":4088,"ĠØ§ÙĦÙħÙĨØ²ÙĦ":4089,"ĠØµÙĨØ¹":4090,"ĠØ§ÙĦØ³ÙĬØ§Ø³Ø©":4091,"ĠØ§Ø®Ø±":4092,"ĠØ¹Ø¨Ø§Ø³":4093,"ĠØ¹ÙĪ":4094,"ĠÙĤØ·Ø¹":4095,"ĠÙĪØ§ÙĦÙħØ¬":4096,"Ø±ÙģÙĬÙĨ":4097,"ĠÙĦØ§Ø³":4098,"ÙĤÙĦØ©":4099,"ÙĤØ§ÙĦ":4100,"ĠÙĪÙħÙ":4101,"ĠØ§Ø³ØªÙĩ":4102,"ÙĦÙĬÙħÙĬ":4103,"ĠØªØ¬Ø§Ùĩ":4104,"ĠØŃÙģØ¸":4105,"ÙĥÙĨØ¯Ø±":4106,"Ø¨ÙĬØ¶":4107,"ĠØ§ÙĨÙĤ":4108,"ĠØ§ÙĦØ£Ø³Ø±Ø©":4109,"ĠØ§ÙĦØ±Ø£ÙĬ":4110,"ĠØ§ÙĦØ¨Ø¯Ø§ÙĬØ©":4111,"ĠØ§ÙĦØŃÙĪÙĦ":4112,"ÙĤØ§Ùħ":4113,"Ġ60":4114,"ĠØ¨Ø²ÙĬ":4115,"ĠØ§ÙĦØ£ÙħÙĬØ±ÙĥÙĬ":4116,"ĠØ§ÙĦØªØ§Ø¨Ø¹Ø©":4117,"Ø§ÙĪÙĦØ§Øª":4118,"ĠØ£ÙĨÙĥ":4119,"and":4120,"Ġin":4121,"ĠÙħØ§Øª":4122,"ĠØ¨ÙĬØ§ÙĨØ§Øª":4123,"Ø¢Øª":4124,"ĠÙħØ·Ø§ÙĦØ¨":4125,"ĠÙģØ±Ø¶":4126,"Ø¹Ø±Ø§Ø¶":4127,"ÙħÙĬØ§Øª":4128,"ĠØ§ÙĦØªØ¬Ø§Ø±Ø©":4129,"ĠØªØªØŃ":4130,"ĠÙĦØ¹Ø¨Ø©":4131,"ĠØ§ÙĦØªØ¹ÙĦÙĬÙħÙĬØ©":4132,"ov":4133,"Ù¢":4134,"ĠØµÙģØŃØ©":4135,"ÙĬØ±Ùĩ":4136,"ĠÙĪØ§Ø¨":4137,"ĠØ§ÙĦØ¬ÙĩØ§Øª":4138,"Ġv":4139,"Ø·Ø§ÙĦ":4140,"ĠÙģØŃ":4141,"Ø§ÙĩØ§":4142,"ĠØ§ÙĦØ¹Ø±Ø§ÙĤÙĬØ©":4143,"ĠÙħÙĨØŃ":4144,"ĠÙĪØ§ÙĦØªÙĤ":4145,"ĠØ§ÙĦÙħØµØ¯Ø±":4146,"ĠÙħÙĪØ§Ø¯":4147,"ĠÙĪÙĩÙĨØ§Ùĥ":4148,"Ø§ÙħÙĬÙħ":4149,"Ø±ÙħØ©":4150,"ĠÙĪÙħØ¬":4151,"ĠÙħØµØ·ÙģÙī":4152,"ĠØŃÙħÙĦØ©":4153,"Ø¨ÙĪØ¹":4154,"ĠØ¨ÙħØ´":4155,"ÙĨØ§ÙĬØ©":4156,"ĠÙģØ¶ÙĦØ§":4157,"ĠÙĥØ§ÙħÙĦØ©":4158,"ĠØµØºÙĬØ±Ø©":4159,"ÙĬÙħÙĬØ©":4160,"ĠÙĪØ§ÙĦØ§Ø³":4161,"ħÙħÙĨ":4162,"ÙĨØ§Ùģ":4163,"Ø¹ÙĪÙĨ":4164,"ĠØ§ÙĦÙĩØ¯Ùģ":4165,"ĠÙħØ§Ø¡":4166,"ÙĤÙĬÙĤÙĬØ©":4167,"ĠØ§ÙĦØ¹Ø¯Ø¯":4168,"ĠØ·ÙĦØ¨Ø§Øª":4169,"ĠØŃØµÙĦ":4170,"ÙħÙħÙĨ":4171,"ĠÙħÙħÙĨ":4172,"ĠØ§ÙĦØ£Ø·":4173,"ĠØ§ÙĦØ±ÙĪØŃ":4174,"ĠØ§ÙĦÙħØ¤Ø³Ø³Ø©":4175,"ĬØµÙĦ":4176,"ĠØ¨ÙĤÙĬ":4177,"ĠÙĬØŃØªØ§Ø¬":4178,"ĠÙĦÙĦØªØ¹":4179,"ĠÙĨØ¬Ø§ØŃ":4180,"ĠØ§ÙĦÙĤÙĬØ§Ùħ":4181,"ÙĬØ«":4182,"ÙĬØµÙĦ":4183,"ĠØ§ÙĦÙĨØª":4184,"Ø§Ø±Ùĩ":4185,"ĠØŃÙħØ¯":4186,"ĠÙĦØªØµ":4187,"ØŃÙģ":4188,"ĠØ¹ÙĤØ¨":4189,"ĠØ£Ø±Ø´ÙĬÙģ":4190,"ĠØ±ÙĬØ§Ø¶":4191,"ĠÙħØ±Ø¶":4192,"ĠÙĪØªØµ":4193,"Ġ05":4194,"ĠÙħØŃØ¯":4195,"Ø¶Ø¨":4196,"ĠØ®Øµ":4197,"ĠØ§ÙĦÙħØ³ÙĦØŃØ©":4198,"ÙĥÙĦØ§Øª":4199,"ĠØ¨Ø§Ø³ØªØ®Ø¯Ø§Ùħ":4200,"ĠØ®ÙĦØ§ÙĦÙĩØ§":4201,"ĠØ¨Ø£Ù":4202,"Ġ32":4203,"ĠÙĬØµÙĦ":4204,"ĠØ¯ÙĥØªÙĪØ±":4205,"ĠØ³ÙĬØ§Ø³Ø©":4206,"ĠØ¨ÙĨØª":4207,"Ø§Ø¨ÙĦØ©":4208,"ĠÙģÙĩÙħ":4209,"ĠÙĨØ³Øª":4210,"ĠØ³Ø§Ø¹Ø§Øª":4211,"ĠÙĩÙ":4212,"ĠØ¹ÙĦÙĬÙĥÙħ":4213,"ĠØ£Ø®Ø°":4214,"ĠØ´Ø®ØµÙĬØ©":4215,"ĠØ§ÙĦØ£Ø³Ø¯":4216,"ĠÙħØ¤Ø®Ø±Ø§":4217,"ĠÙħÙħÙĥÙĨ":4218,"ĠØªÙĤÙĪÙĦ":4219,"ĠØ§ÙĦÙģØµÙĦ":4220,"ÙĬÙĬÙĨ":4221,"ĠØ§ÙĦØ§ÙħØ±":4222,"ÙģØ§Ùģ":4223,"ĠØ§ÙĦØ¨Ø±ÙĦÙħØ§ÙĨ":4224,"ĠØ§ÙĦØŃØ¯ÙĬØ«Ø©":4225,"ĠØ§ÙĦØ®Ø§ÙħØ³":4226,"ĠÙħÙĪØ³Ùī":4227,"ØŃØ§Ø¡":4228,"ĠØ§ÙĦØ¨Ø´Ø±ÙĬØ©":4229,"ĠØ§ÙĦØ£ÙĥØ«Ø±":4230,"ĠØ¨ÙĪØ§Ø³Ø·Ø©":4231,"ĠÙĥØ´":4232,"ĠØ¨ØºØ¯Ø§Ø¯":4233,"ÙĪØ±Øª":4234,"ĠØ§ÙĦØ£Ø²ÙħØ©":4235,"ĠØ¨Ø³Ø±":4236,"ĠØ¨ÙĩÙħ":4237,"ÙĬÙħÙĪ":4238,"ĠØ§Ø¬ÙĩØ²Ø©":4239,"ĠØ¨ØªÙĤ":4240,"ĠÙģØ¥Ø°Ø§":4241,"ĠÙĪØªØª":4242,"ĠØ§ÙĦÙĥØ¨ÙĬØ±Ø©":4243,"ĠØ¥ÙĨØ´Ø§Ø¡":4244,"ĠÙħÙĪØ¹Ø¯":4245,"ĠØ§ÙĦÙħØŃÙĦÙĬ":4246,"ĠØŃØ²":4247,"ĠØ§Ø³Ø±":4248,"ØªÙĬØ§Ø¬Ø§Øª":4249,"ÙĬØªÙĩ":4250,"ÙĩØ§ÙĦÙĬ":4251,"ÙĥØ¨":4252,"ĠØ¨ÙħÙĨØ§Ø³Ø¨Ø©":4253,"ĠØªÙģØ³ÙĬØ±":4254,"Ø³Ø§Ø¨":4255,"Ø·ÙĬØ·":4256,"Ø§Ø²ÙĨ":4257,"ĠØ§ÙĦØ§Ø³Ø±Ø§Ø¦ÙĬ":4258,"ĠØ§ÙĦØ±Ø¬":4259,"ĠØ´Ø±Ø§Ø¡":4260,"ĠØ§ÙĦØ¯ÙĨÙĬØ§":4261,"ØªØ¨Ø©":4262,"ĠØ¨ÙĨØ§Øª":4263,"ĠÙĪØ§ÙĦÙħØª":4264,"ĠÙĨØ¨":4265,"ĠØ¹ÙĩØ¯":4266,"ĠØ§ÙĦÙĦØ§Ø¹Ø¨":4267,"ĠØªÙĪØ²":4268,"ĠØ¬ÙħÙĬØ¹Ø§":4269,"Ġ2008":4270,"Ø¹Ø¨Ø©":4271,"ĠØ§ÙĦØŃÙĤÙĬÙĤØ©":4272,"ĠØ§ÙĦØ¥Ø³Ø±Ø§Ø¦ÙĬÙĦÙĬØ©":4273,"ĠØ¬ÙĬ":4274,"ĠÙĩØ¯":4275,"ĠØ¬Ø§Ùħ":4276,"ĠØ§ÙĦØ¹ÙĪ":4277,"ĠÙģÙĪØ²":4278,"ĠØ³ÙĥØ§ÙĨ":4279,"ĠÙĪØ¬Ø¯":4280,"Ø§Ø¬Ø±":4281,"ØªÙĬÙĥ":4282,"ĠÙĬØ¤Ø¯ÙĬ":4283,"ÙĦØªÙĩØ§":4284,"Ø¸Ø§Ùĩ":4285,"ĠÙħØ«ÙĦØ§":4286,"Ġ75":4287,"ÙħÙĬØ§":4288,"ĠØ§ÙĦØ¯Ø±Ø§Ø³Ø§Øª":4289,"ĠØ±Ø´":4290,"ĠØ§ÙĦÙģØ¹":4291,"ĠØ§ÙĦÙħØ³ÙĬØŃ":4292,"Ø§ÙĬÙħ":4293,"ĠØ§ÙĦØ§ÙĨØªØ±ÙĨØª":4294,"ĠØ§ÙĦØ¯ÙĬÙĨÙĬØ©":4295,"ĠÙĨØ´Ø§Ø·":4296,"Ø¬ÙĨØ¨ÙĬØ©":4297,"ĠØ§ÙĦØ´Ø±Ø¹ÙĬØ©":4298,"ĠÙħÙĨØ¹":4299,"ÙĦØ§Øµ":4300,"ÙĦÙĬØ³":4301,"ĠÙĦÙĦØŃØµÙĪÙĦ":4302,"ĠØªØ³ØªØ·ÙĬØ¹":4303,"ĠØ§ÙĦØ¨Ø§ØŃØ«":4304,"ÙĦØ³ÙĦØ§Øª":4305,"ĠØ¹ÙĨØ§ØµØ±":4306,"ĠØ¨ÙĨÙĥ":4307,"ÙĤÙĬÙĤÙĬ":4308,"ĠØªØŃØªØ§Ø¬":4309,"ĠØ§ÙĦØ¬Ø§Ø±ÙĬ":4310,"ĠØ¯ÙĤÙĬÙĤØ©":4311,"ĠØ§ÙĤØª":4312,"ĠØªØ³Ø¬ÙĬÙĦ":4313,"ĠØ§Ø¬Ù":4314,"ÙĦØ§ÙĦØ©":4315,"Ø£ÙĦ":4316,"ĠÙģÙĩØ¯":4317,"ĠØ¹Ø±Ø¨ÙĬ":4318,"ÙĦÙĬÙĥ":4319,"ĠÙħØ´Ø§Ø±ÙĬØ¹":4320,"ĠÙĪÙĤØ¹":4321,"ĠØ§ÙĦÙĦÙĩÙ":4322,"ĠÙħÙĨØ§Ùģ":4323,"Ø±Ø³Ø§ÙĦ":4324,"ĠÙĪÙĤÙģ":4325,"ĠØ£Ø·ÙĦÙĤ":4326,"ĠØ§ÙĦØªÙĪÙĨ":4327,"ĠØµÙĪ":4328,"ØªÙħØ§Ø¹ÙĬØ©":4329,"ĠÙħÙĬØ¯":4330,"ĠØ¨Ø§ÙĦØº":4331,"ĠØ§ÙĦØ£ÙĪ":4332,"ĠØ§ÙĪÙĨ":4333,"ØµØŃ":4334,"ĠØ§ÙĦØ¹ÙħÙĦÙĬ":4335,"ĠÙĦØ§ÙģØª":4336,"ĠØ§ÙĦÙĨØ¸":4337,"ĠØ§ÙĦØ³Ø§Ø¨Ø¹":4338,"ĠÙĤØ¶Ø§ÙĬØ§":4339,"ĠØ§ÙĦØ²ÙħÙĨ":4340,"ÙĪÙĬØ¶":4341,"ĠØ§ÙĦØµØŃÙĬØŃ":4342,"Ø¹Ø±Ø¶":4343,"ĠÙħÙĤØªÙĦ":4344,"ħÙĦØŃ":4345,"ĠÙĥÙĦØ§Ùħ":4346,"ĠØ§ÙĦØ¹ÙĦØ§ÙĤØ©":4347,"Ġn":4348,"Ø°ÙĨ":4349,"ÙĥØªØ¨":4350,"ĠØ±ÙĥÙĨ":4351,"ĠØ§ÙĦÙĥÙĪÙĨ":4352,"ĠÙħØ¨Ø§Ø±ÙĬØ§Øª":4353,"Ø§Ø¶Ùī":4354,"ĠØ§ÙĦØ¨Ø·ÙĪÙĦØ©":4355,"ĠØ®Ø·Ø©":4356,"ĠØ§ÙĨØ³":4357,"Ø§Ø³Ø¹Ø©":4358,"Ø§Ø¯Ø¦":4359,"ĠØ´Ø£ÙĨ":4360,"ÙħÙĪØ¹Ø§Øª":4361,"ÙĪÙĦÙĩØ§":4362,"ĠØ§ÙĦÙĦÙĩÙħ":4363,"ĠÙģÙħØ§":4364,"ĠØ¥ÙĨØªØ§Ø¬":4365,"ĠØ¨ÙħØ¬":4366,"ĠØ®Ø±Ø¬":4367,"Ø¨ØºÙĬ":4368,"ĠØ§ÙĦØ¨ÙĬØ§ÙĨØ§Øª":4369,"ØŃØ§":4370,"ĠÙĤÙĨÙĪØ§Øª":4371,"ĠØºØ§ÙĦØ¨":4372,"ÙĦÙĥÙ":4373,"ÙħÙĦØŃ":4374,"ĠÙĬØ¹ÙĪØ¯":4375,"ĠØ§ÙĦØ¹ÙĦÙħØ§Ø¡":4376,"Ø®Ùħ":4377,"Ġ36":4378,"ĠÙģØ¹ÙĦ":4379,"Ø¨ÙĬÙĦØ©":4380,"ĠÙĪØ§ÙĦÙħØ¤":4381,"ĠØ£Ø±Ø¯":4382,"Ø§ØµÙĦØ©":4383,"Ø´Ø§Ø±Ø§Øª":4384,"ĠØ§Ø¯Ø§Ø±Ø©":4385,"ĠÙħÙĪØ¸":4386,"Ø³Ø§":4387,"ĠØ§ÙĦÙĦØ§Ø¹Ø¨ÙĬÙĨ":4388,"ĠØ§ÙĪÙĦ":4389,"ĠØ§ÙĦÙħØ¯Ø§Ø±Ø³":4390,"ÙĤÙĬØ§Øª":4391,"ĠØ®ÙħØ³Ø©":4392,"ĠØ§ÙĦØ£ÙħØ©":4393,"ĠØ§ÙĦØ£Ø¬ÙĩØ²Ø©":4394,"ĠÙĦØ¹Ù":4395,"ĠØ¹Ø·":4396,"ÙĤØ±Ø©":4397,"ĠØ§ÙĦØ£Ø±Ø¯ÙĨ":4398,"ĠØªØ´Ø±ÙĬÙĨ":4399,"Ø¬ÙĬØ±":4400,"ĠØ§ÙĦÙħØ¨ÙĦØº":4401,"ĠØ§ÙĦØ·Ø§ÙĦØ¨":4402,"Ø§ÙģÙĬØ§":4403,"ĠÙħÙĦØŃ":4404,"ĠÙĪØ±Ø¨":4405,"ĠØ§ÙĦØ«Ø§ÙħÙĨ":4406,"ĬØªÙĩ":4407,"ĠJ":4408,"ÙĪØŃØ©":4409,"Ø±ÙĬØ¨ÙĬØ©":4410,"ĠØªØŃØ±ÙĬØ±":4411,"ĠÙĦØ¬ÙħÙĬØ¹":4412,"ĬØ±Ùī":4413,"ĠÙĪÙĦØ°":4414,"ĠØ§ÙĦÙħØªÙĪØ§Ø¬Ø¯ÙĪÙĨ":4415,"Ø³ÙĪÙħ":4416,"ĠØ§Ø³ØªÙħØ±Ø§Ø±":4417,"ĠÙģÙĥØ±Ø©":4418,"ÙģØ§ÙĪØ¶Ø§Øª":4419,"Ġg":4420,"ħØ§ÙĬ":4421,"ĠÙĤÙĬØ§Ø¯Ø©":4422,"Ø·Ø±ØŃ":4423,"ħÙĩÙħ":4424,"ĠØ§ÙĦØ³Ø¬":4425,"ĠÙĬØŃÙħÙĦ":4426,"ĠØ§ÙĦØ³Øª":4427,"ĠØ§ÙĦÙħÙĦØª":4428,"ĠØ¨Ø·Ø±ÙĬÙĤØ©":4429,"ĠØ§ÙĦÙĨÙħÙĪ":4430,"Ġ143":4431,"os":4432,"Ø³ÙĪ":4433,"ag":4434,"Ø§Ø¦ÙĩÙħ":4435,"ĠØ§ÙĦØªÙĩ":4436,"ĠØ§ÙĦØ§ÙĨØªØ®":4437,"ĠØªÙĪÙģØ±":4438,"ĠØ§ÙĦØ¨ÙĬØ¦Ø©":4439,"ĠÙħØªØ§Ø¨Ø¹Ø©":4440,"ĠØ¨Ø±ÙĬØ·":4441,"ĠÙģÙĦÙħ":4442,"ØªÙħÙĬØ²Ø©":4443,"ħÙĩÙħØ§":4444,"ÙĪÙħØ§ÙĨ":4445,"ĠØ¬Ø¹ÙĦ":4446,"ĠØ§ÙĦÙĤØ¯ÙĬÙħØ©":4447,"ĠÙħÙĨØªØ®Ø¨":4448,"ĠÙĬÙĪÙħÙĬØ§":4449,"ĠØ§ÙĦØŃØ¶":4450,"ĠØ§ÙĦÙħÙĪØ§Ø·ÙĨ":4451,"ĠØ§ÙĦÙħÙĤØ§ÙĪÙħØ©":4452,"ÙĨØ§Ø¹":4453,"ÙģØ³Ø§Ø±Ø§Øª":4454,"ĠÙĬØ¹ÙĬØ´":4455,"Ø¨ÙĪÙĦ":4456,"ĠØ§ÙĦÙħØ¤ÙħÙĨ":4457,"Ø¬Ø§Ø¬":4458,"ÙĥÙĨØ¯Ø±ÙĬØ©":4459,"ĠØ£Ø¨Ø±Ø²":4460,"Ø§Ø¦Ø±Ø§Øª":4461,"ĠÙĨØ¹Ùħ":4462,"ĠØ§ÙĦØ¬ÙĨÙĪØ¨":4463,"Ø§Ø´Ø§Øª":4464,"ĠØªÙģØ§ØµÙĬÙĦ":4465,"ĠØ§Ø®Øª":4466,"ĠØ§ÙĦØ²Ø±ÙĤØ§Ø¡":4467,"ĠØªØ¬Ø§ÙĪØ²":4468,"ĠÙĦÙĬÙĨ":4469,"Ø§ÙĨÙĬØ§Øª":4470,"ĠØ§ÙĦØ§ÙĦØª":4471,"ĠÙĨØ·":4472,"ĠØ¨ØªÙĨ":4473,"ĠØ§ÙĦØ±Ø¤":4474,"ĠØ§ÙĦÙĤØ§ÙĨÙĪÙĨÙĬØ©":4475,"ĠØ¨ÙħØ³":4476,"ĬÙĦØª":4477,"ÙĦÙĪÙĥ":4478,"ĠØ§ÙĬØ±":4479,"ĠØ§ÙĦØ¬ÙĪÙĬØ©":4480,"ÙĦÙħÙĪÙĨ":4481,"ĠØ¥Ø¬Ø±Ø§Ø¡":4482,"ĠÙĦÙĦÙħØŃ":4483,"ĠØ¨Ø±ÙĬ":4484,"ĠØ§ÙĦØªÙĤØ±ÙĬØ±":4485,"ÙģØ¹ÙĬÙĦ":4486,"ave":4487,"ĠØ§ÙĦØ³ÙģÙĬØ±":4488,"ĠØ§ÙĦØŃØ±ÙĬØ±ÙĬ":4489,"ÙĬØ±Ùī":4490,"ÙĪÙĬØªÙĬ":4491,"ÙħØ§Ø°Ø§":4492,"ĠØºØ±Ø¨":4493,"ĠØªØ¹Ø²ÙĬØ²":4494,"ĠÙħØ§Ø°Ø§":4495,"ĠÙĦÙĦÙħØ¹":4496,"ÙĥÙĪÙħØ©":4497,"ĠØ§ÙĦØ·Ø¨ÙĬØ¹ÙĬØ©":4498,"ĠÙĪØ¥ÙĨÙħØ§":4499,"ØŃÙĬØ¨":4500,"ĠÙĦØ£ÙĨÙĩØ§":4501,"ĠØ²ÙħÙĨ":4502,"Ø§Ø¦ÙĬØ§Øª":4503,"Ø§Ø¦Ø±ÙĬ":4504,"ĠØ§ÙĦØ£Ø³Ø§Ø³ÙĬØ©":4505,"ĠØ§ÙĦØ¢Ø®Ø±ÙĬÙĨ":4506,"ĠØ¯Ø±ÙĪØ³":4507,"ĠØªÙĨØ§ÙĪÙĦ":4508,"ÙħÙĬÙ":4509,"ĠØ§ÙĦØ¯ÙĬÙħÙĤØ±Ø§Ø·ÙĬØ©":4510,"ĠØ§ÙĦÙħØ±ÙĥØ²ÙĬ":4511,"ĠØªØ´ÙĥÙĬÙĦ":4512,"ĠØ´Ø§ÙĩØ¯":4513,"Ġ33":4514,"ĠØ§ÙĦØ´Ø¹Ø¨ÙĬ":4515,"Ø¨ÙĤ":4516,"ĠØ³Ø§Ø¨":4517,"ÙħÙĩÙħØ§":4518,"ĠØ§ÙĦÙĦÙĪØ§Ø¡":4519,"ĠØ§ÙĦØ³ÙĨÙĪØ§Øª":4520,"ĠØ§ÙĦÙĤÙĬØ§Ø¯Ø©":4521,"ĠÙĨØµØ±":4522,"ÙħØ§ÙĬ":4523,"ħÙĩØ±Ø¬Ø§ÙĨ":4524,"ĠÙĪÙĥÙĬÙģ":4525,"ÙĦÙģØª":4526,"ĠÙĨÙĤØµ":4527,"ĬØ¡":4528,"ĠØªØ¬Ø±Ø¨Ø©":4529,"ĠØ§ÙĦØ³ÙĬØ§Ø±Ø©":4530,"ĠØ§ÙĦØ¹Ø±Ø¶":4531,"ĠØºØ±ÙģØ©":4532,"Ø¨Ø¯Ø§":4533,"ĠÙĤØµØ©":4534,"ĠØ§ÙĦÙħÙĩÙĨØ¯Ø³":4535,"ÙħÙĩØ±Ø¬Ø§ÙĨ":4536,"ĠØ¥ÙħÙĥ":4537,"ĠØ¥Ùģ":4538,"ĠØ§ÙĦØ¯Ø³ØªÙĪØ±":4539,"ØµÙĬÙĦ":4540,"Ø¬ØŃ":4541,"ĠØªØ³ØªØ®Ø¯Ùħ":4542,"ĠÙħÙĩÙħØ§":4543,"ĠØ¹Ø¨Ø§Ø±Ø©":4544,"ÙĤØ¹":4545,"ÙĤÙĬØ¨":4546,"ĠÙħÙĩØ±Ø¬Ø§ÙĨ":4547,"ĠØ§ÙĦØ®Ù":4548,"ĠØ§ÙĦØ§Ø´ØªØ±Ø§ÙĥØ§Øª":4549,"ĠØ§ÙĦØ§ØªØµØ§ÙĦØ§Øª":4550,"ĠÙĦØ§ÙĬÙĨ":4551,"ĠØ¬ÙĪØ±":4552,"ĠÙĪÙħØ¯":4553,"ĠÙħØ§ÙĬ":4554,"ĠØ§ÙĦÙĤØ·":4555,"ĠÙĤØª":4556,"ĠØ¬ÙĩÙĪØ¯":4557,"ĠØ§ÙĦØªÙĨØ¸ÙĬÙħ":4558,"ĠØ§ÙĦÙħØ´Ø§Ø±ÙĬØ¹":4559,"ĠØ§ÙĦÙħÙĨØ¸ÙħØ©":4560,"ĠØ³Ø¹ÙĪØ¯":4561,"Ø§Ø¬Ø¹Ø©":4562,"ÙħÙĩÙħ":4563,"ÙĪØ³ÙĬ":4564,"ĠØ¹ÙĬ":4565,"ĠØ¶Ø¨Ø·":4566,"ĠÙĬØ³ØªØ®Ø¯Ùħ":4567,"ĠØ§ÙĦØªØ±ÙĥÙĬ":4568,"ÙĨÙĪØ§ÙĨ":4569,"Ø§Ø±Ø¶":4570,"ch":4571,"ÙĤØµ":4572,"ÙĩØ§Ø±":4573,"ĠØ§Ø¶Ø§ÙģØ©":4574,"ĠØ§ÙĦØªÙħ":4575,"ĠÙĦØŃÙ":4576,"ĠØ§ÙĦØ¨Ø±ÙĬØ·Ø§ÙĨÙĬØ©":4577,"ĠØ¯Ø§Ø®":4578,"ĠØ§ÙĦØŃØ§ÙĦÙĬØ©":4579,"ĠØ§ÙĦØ¹ÙĩØ¯":4580,"Ø±Øµ":4581,"Ø±Ø¨ÙĬÙĨ":4582,"ĠØ§ÙĦÙģÙĪØ²":4583,"ÙĨÙĬÙĬÙĨ":4584,"ĠÙħØ¬Ø§ÙĦØ§Øª":4585,"ĠØ§ÙĦØ¬Ø²ÙĬØ±Ø©":4586,"ĠØ³Ø¨ÙĤ":4587,"ĠØ£ØµØ¨ØŃØª":4588,"ÙĤÙĪØ·":4589,"ĠÙħÙħØ«":4590,"ĠØºØ±":4591,"ĠØ§ÙĦÙħØµØ±Ùī":4592,"ĠØ¨ÙĪØª":4593,"ĠØ§Ø¬ÙĦ":4594,"Ø®ÙĬØµ":4595,"ĠØ§ÙĦØªØŃØ±ÙĬØ±":4596,"Ø§ÙĤÙĬØ©":4597,"ĠØ§ÙĦØ£Ø¹ÙĦÙī":4598,"ĠØ¨ÙĨØ§":4599,"Ø¸Ø¨ÙĬ":4600,"ĠØ§ÙĦÙĬÙĪÙĨ":4601,"ĠØ§ÙĦØ±Ø¬Ø§ÙĦ":4602,"Ø³ÙĬÙĤÙī":4603,"ĠØ£Ø³Ø¨Ø§Ø¨":4604,"ĠØ§ÙĦÙħØ¦Ø©":4605,"ĠØ¨ÙĦØºØª":4606,"ĠØ¨ØµÙĪØ±Ø©":4607,"ir":4608,"ÙĪØ±Ùĥ":4609,"ĠØ§ÙĦØ¶ØºØ·":4610,"ĠÙĨÙĤØ§Ø·":4611,"ĠØ§ÙĦØŃØ§ÙĦØ©":4612,"ĠÙħØ¹Ø§":4613,"ĠØ§ÙĦØŃØ³ÙĬÙĨ":4614,"ĠØ§ÙĦØ¥ÙĦÙĥØªØ±ÙĪÙĨÙĬØ©":4615,"Ø®ÙģØ§Ø¶":4616,"ĠØ·Ø±ÙĤ":4617,"ĠØ¨ØªØ¹":4618,"ĠØ§ÙĦØ¹ÙĪØ¯Ø©":4619,"ĠØ§ÙĦÙĪÙģ":4620,"ĠØµØ§Ø±":4621,"ĠØ§ÙĦÙħØŃØ¯":4622,"Ø¯Ø±ÙĪÙĬØ¯":4623,"ĠÙĪÙĦÙĩ":4624,"ĠØ§ÙĦØ¹ÙĨÙģ":4625,"Ø³Ø§Ø±Ø©":4626,"Ġ70":4627,"Ø¹ÙħØ©":4628,"ĠØ§ÙĦØ±ÙĤÙħ":4629,"ĠØ¹Ø¨Ø¯Ø§ÙĦØ±":4630,"ĠØ§ÙĦÙĨØ²":4631,"ĠØ±Ø¤ÙĬØ©":4632,"ĠÙĪØ¬ÙĩØ©":4633,"ĠØ¨Ø§ÙĦØ°":4634,"ĠÙĨØ¸Ø±Ø§":4635,"ĠØ§ÙĦÙħØ¹Ø±ÙģØ©":4636,"ĠÙĦÙĦØªØŃ":4637,"ĠØ±Ø´Ø¯":4638,"Ø¯ÙĬÙĨØ©":4639,"ĠÙĤÙĬ":4640,"Ø§ÙĨÙĬÙĬÙĨ":4641,"ĠÙĬØ§Ø³":4642,"ĠØ¨ÙĬÙĨÙĩØ§":4643,"ĠÙħÙĦØ§ÙĬÙĬÙĨ":4644,"ĠÙĪÙģØ±":4645,"ĠØ§ÙĦØ¥ÙĨØ³Ø§ÙĨÙĬØ©":4646,"ĠÙĪØ£Ø¹":4647,"Ø§ÙħØª":4648,"ĠØ§ÙĦØªØ±ÙĥÙĬØ©":4649,"ĠØ§ÙĦØ¥Ø®ÙĪØ§ÙĨ":4650,"Ø§Ø±ÙĤØ©":4651,"ĠØ³ØªÙĥÙĪÙĨ":4652,"ĠØ§ÙĦØ³ÙħÙĪ":4653,"ĠØ§ÙĦØ³Ø§Ø¯Ø³":4654,"ĠØ§ÙĦÙģØ³Ø§Ø¯":4655,"im":4656,"ĠØ§ÙĦØ´Ù":4657,"ĠØ³Ø§ÙĦÙħ":4658,"ĠØ§ÙĦØµÙĪØª":4659,"ĠØ§ÙĦØ²ÙĪØ§Ø¬":4660,"Ø§ÙħØ§Øª":4661,"Ø±Ø§ÙĩÙĬÙħ":4662,"ĠØ§ÙĦØ£ÙĩÙĦÙĬ":4663,"ĠØ§ÙĦÙĤØ§Ø¯ÙħØ©":4664,"ĠÙĪØ³Ù":4665,"ig":4666,"ĠÙĪØªØ¯":4667,"Ø±Ø¨Ø§Øª":4668,"Ø§ÙĤØ¨":4669,"ĠØ§ÙĦØµØºÙĬØ±Ø©":4670,"ĠØ§ÙĦØ¥Ø¯Ø§Ø±ÙĬØ©":4671,"ÙĦØ«":4672,"ĠØŃØ¶ÙĪØ±":4673,"ĠÙĪØ®Ø§ØµØ©":4674,"ÙĪÙĨÙĩØ§":4675,"ĠÙĪØ§ÙĦØ§Ø¹":4676,"Ø¸ÙĦ":4677,"ÙĪØ´ÙĪØ¨":4678,"Ø°Ùģ":4679,"ÙĨÙĬØ³Ø©":4680,"ĠØŃÙħØ§Ø³":4681,"ĠØ³ÙĦØ³ÙĦØ©":4682,"ĠÙħÙĩÙħ":4683,"ĠØ³ØªØ§Ø±":4684,"ĠØ§ÙĦÙħØ´Ø§ÙĩØ¯Ø§Øª":4685,"Ø§Ø¦ÙĨ":4686,"ĠØ§ÙĦÙħÙĦÙĥÙ":4687,"ĠØ§ÙĦÙħÙĦÙĥÙĬ":4688,"Ø§Ø¦ÙĬØ§":4689,"ĠØ§ÙĦØµØŃÙģÙĬ":4690,"ĠØ§ÙĦØŃØ¨ÙĬØ¨":4691,"ÙĬØ¯ÙĬ":4692,"ĠØ¬Ø¨":4693,"ÙĨØªÙĬÙĨ":4694,"ĠØ§ÙĦÙħØ¶":4695,"ĠÙģÙĥØ§ÙĨ":4696,"Ø§ÙĤØ´Ø©":4697,"ĠØ§ÙĦÙħØªÙĨ":4698,"Ø±ÙħØ¬":4699,"ĠÙĪÙħØ³Øª":4700,"ĠØ£Ø±Ø¨Ø¹Ø©":4701,"ĠÙĬÙħØ«ÙĦ":4702,"Ø´Ø±Ø§Ùģ":4703,"ĠÙĪØ¬Ø§Ø¡":4704,"ĠØµÙĨØ§Ø¹Ø©":4705,"Ø§Ø´Ø¯":4706,"ĠØ§ÙĦÙħØŃØ§ÙģØ¸":4707,"ĠØ§ÙĦØªØµÙħÙĬÙħ":4708,"ĠØ´Ø±Ùĥ":4709,"ĠØ³Ø¨ØŃ":4710,"ĠØ¥Ø¹ÙĦØ§ÙĨ":4711,"ĠØªØµØ±ÙĬØŃØ§Øª":4712,"Ø±Ùĩ":4713,"ÙĤØ³":4714,"ÙĦÙĤÙī":4715,"ĠØ´Ø±ØŃ":4716,"ĠØ¨Ø±Ø¦Ø§Ø³Ø©":4717,"ÙĪØ¶Ø§Ø¹":4718,"ĠØ§ÙĦØ±ÙĬØ§Ø¶Ù":4719,"ĠØ§ÙĦØ±ÙĬØ§Ø¶ÙĬ":4720,"ĠÙĬØ±Ùī":4721,"ÙĥØ§ÙĦØ©":4722,"ĠZ":4723,"Ø§Ø´ÙĤ":4724,"ĠØ¯Ø±ÙĩÙħ":4725,"ØªØ¨Ø·":4726,"ĠØ¯ÙĬÙĥ":4727,"Ø¬ÙĪ":4728,"ĠØ´Ø±ÙĪØ·":4729,"fr":4730,"ĠÙĬØ¤ÙĥØ¯":4731,"ÙĪØ§Ø±Ø¹":4732,"ĠØ§ÙĦÙħÙģØª":4733,"ĠØªØ¸ÙĩØ±":4734,"ĠÙģØ³":4735,"ĠÙĩØ§Ùħ":4736,"ĠØ§ÙĦØ¨ÙĨØ§Ø¡":4737,"ÙĩÙĪØ¯":4738,"ĠØ´Ø§Ø±Ùĥ":4739,"ĠØ±Ø£ÙĬ":4740,"Ø²Ø¹":4741,"ĠØ§ÙĦÙħØªØ¹ÙĦÙĤØ©":4742,"ĠØ§ÙĦÙħØ´ÙĥÙĦØ©":4743,"ÙħØ§ÙĦÙĥ":4744,"ĠÙħØ¬Ø±Ø¯":4745,"ĠÙħØªØ±Ø¬Ùħ":4746,"ĠØ§ÙĦØ·Ø¹Ø§Ùħ":4747,"ĠØ¨Ø¯ÙĦØ§":4748,"ĠÙħØ¹ÙĨØ§":4749,"per":4750,"ĠÙħÙĥØ©":4751,"ĠØ§ÙĦØ±ÙĪØ³ÙĬ":4752,"ĠÙħÙĤØ§Ø±ÙĨØ©":4753,"Ø¯ÙħÙĬ":4754,"ĠØ§ÙĦÙħØ§ÙĦÙĬ":4755,"ĠØ¨ÙĥØ±":4756,"ĠÙĪØ§ÙĦØ§Øª":4757,"ĠØ§ÙĦØ±Ø³ÙĪÙĦ":4758,"ĠØ£ÙĨÙģØ³":4759,"Ġwave":4760,"Ø²ÙĨ":4761,"ÙĪØªÙĪØ´ÙĪØ¨":4762,"ÙĦØ¹Ø©":4763,"ĠØ§ÙĦÙħØ¬Ø§ÙĨÙĬ":4764,"ÙĦÙĪÙĨ":4765,"ĠØ§ÙĦØ£Ø¨ÙĬØ¶":4766,"ĠØ§ÙĦÙħØ¯ÙĨÙĬØ©":4767,"ĠØ§ÙĦÙĤØ§Ø¯Ùħ":4768,"ĠÙĩÙī":4769,"ĠÙĪØªØ¨":4770,"ĠØ§ÙĦÙĪØŃØ¯Ø©":4771,"ĠØ§ÙĦØ£ÙħÙĬÙĨ":4772,"Ø±ÙħØ§ÙĨ":4773,"Ø§Ø¹ÙĬÙĦ":4774,"ĠÙĤØ±Ø¨":4775,"ĠØ§ÙĦÙĦØ§Ø²ÙħØ©":4776,"ĠØ§ÙĦØ£Ø´Ø®Ø§Øµ":4777,"ĠØ¨ÙħØ¯ÙĬÙĨØ©":4778,"ĠØªÙĤÙĬÙĬÙħ":4779,"ĠØŃÙģÙĦ":4780,"ÙĬÙĦØª":4781,"ĠØ§ÙĦØ§Ø²":4782,"ÙĩÙĪÙħ":4783,"ĠØ£ÙģØ±ÙĬÙĤÙĬØ§":4784,"ÙĬØ²Ù":4785,"ĠÙħØŃÙĥÙħØ©":4786,"Ø¹ÙħØ§Ø±":4787,"ØªØ§Ø¬":4788,"Ø·ÙĤ":4789,"ĠÙħØ´Ø¨Ø§Øª":4790,"ĠÙħØ¹Ø±ÙģØ©":4791,"ĠØ§ÙĦØµÙĨØ§Ø¹ÙĬØ©":4792,"Ø§ÙĬÙĬØ±":4793,"Ø§Ø´Ø±Ø©":4794,"ĠÙĤØ§Ø¦Ø¯":4795,"ĠØ£ÙģØ±Ø§Ø¯":4796,"ĠÙħØ³ØªÙħØ±":4797,"Ø§Ø·ÙĬ":4798,"ĠØ§ÙĦØ³Ø¨Ø¨":4799,"ÙĤØ§Ø·":4800,"ĠÙĬØ¬Ø¹ÙĦ":4801,"ĠØ§ÙĦØ«ÙĤØ§ÙģÙĬØ©":4802,"ÙĦØ®":4803,"ĠÙĪÙĬØ¨":4804,"ØªØ§":4805,"ĠØ§ÙĦÙħØªØ¨":4806,"ĠÙĥØ§Ø±":4807,"ÙĦØ§Ø¹Ø¨":4808,"Ø¯Ø¯Ø§":4809,"Ø®Ø±Ø§Ø¬":4810,"ĠØ§ÙĦÙħØªÙĩÙħ":4811,"ĠÙĥÙĦÙĩØ§":4812,"ĠØ§ÙĦÙĥÙĦØ§Ùħ":4813,"ĠÙĦØªØŃÙĤÙĬÙĤ":4814,"ĠÙĪÙĦØ§ÙĬØ©":4815,"ĠØ§ÙĦÙĤØ¶Ø§ÙĬØ§":4816,"ĠØ§ÙĦÙħØ¯ÙĨ":4817,"ĠØ§ÙĦÙĨÙĤØ¯":4818,"ĠØŃÙĤÙĬÙĤØ©":4819,"ĠÙĪØªØ®":4820,"Ø¨Ø¨":4821,"ĠØ®Ø·Ø±":4822,"Ø§Ø¦Ùī":4823,"Ø§Ø¨Ø·Ø©":4824,"ĠØ¨ØŃÙĤ":4825,"ÙĤØ§Ø°":4826,"Ø°Ø¬":4827,"ĠÙħØ¬ÙĦØ©":4828,"ĠØ§ÙĦÙĩØ§ØªÙģ":4829,"Ġ2019":4830,"ĠØ§ÙĦÙħÙħÙĬØ²":4831,"ÙĩØ±Ø§ÙĨ":4832,"ĠÙģØ±Øµ":4833,"ĠØ§ÙĦØªØŃØ§ÙĦÙģ":4834,"Ø§Ø¦Ø·":4835,"ĠÙģÙĥ":4836,"ĠØŃØ§ÙĦØ§Øª":4837,"ĠÙĪØ£ÙĨØ§":4838,"ĠÙĬØ«":4839,"ÙģØ§Ø¹Ù":4840,"ĠÙĨØ§ØµØ±":4841,"ĠÙĪÙģÙī":4842,"ĠÙĪØ£Ø³":4843,"ĠØ§ÙĦØ§Ø®Ø¨Ø§Ø±":4844,"Ø§ÙģØ§Øª":4845,"ĠÙĤÙĪÙĬØ©":4846,"ĠÙĪØ±Ø¦ÙĬØ³":4847,"ØªÙĪ":4848,"ĠØ§ÙĦØ§ÙĨØ³Ø§ÙĨ":4849,"ĠØªØ¬Ø¯":4850,"ĠØ¬ÙĬØ¯Ø§":4851,"ÙĪÙĬØ¬":4852,"ĬØªÙĩØ§":4853,"ĠØ·ÙĦØ§Ø¨":4854,"ØµØ±ÙĬ":4855,"ĠÙħØ³Ø¤ÙĪÙĦÙĬØ©":4856,"ĠØ¹ÙħØ§":4857,"10":4858,"Ø±Ø§Ø¡Ø§Øª":4859,"Ø¬Ø§Ø¨":4860,"ĠØªÙħÙĥÙĨ":4861,"ĠÙĦÙĦÙħØ¬":4862,"ĠØ§ÙĦÙħÙĨØ²":4863,"ĠÙĦØ¯ÙĬÙĥ":4864,"ĠØ£Ø¯Ø§Ø¡":4865,"ØµÙĬØ¯":4866,"Ø³ÙĬÙģ":4867,"ĠØ§ÙĦÙħØªØŃØ¯Ø«":4868,"ĠÙħØ¯Ø±ÙĬØ¯":4869,"ĠØ§ÙĦÙģØ±ÙĤ":4870,"Ø¹ÙĬØ´":4871,"ĠØªÙĤØ±ÙĬØ¨Ø§":4872,"ĠÙģÙĪØ±":4873,"ĠØ§ÙĦØ¨Ø±ÙĬØ¯":4874,"ĠØ§ÙĦØŃØ±ÙĬØ©":4875,"ĠÙħØ¯Ø©":4876,"Ġ34":4877,"ĠÙĪØ§":4878,"ĠÙĤØµØµ":4879,"ia":4880,"Ø§ÙĦØµ":4881,"ĠØ³ÙĪ":4882,"ĠØ³Ø£":4883,"Ø§ÙĤØ´":4884,"ĠØ§ÙĨØªØ®Ø§Ø¨Ø§Øª":4885,"Ġ02":4886,"Ø±ÙģØ¶":4887,"ÙģØ´":4888,"ĠØ¹ÙĦÙĪÙħ":4889,"ÙĩØ§Øª":4890,"ĠØªÙĪØ²ÙĬØ¹":4891,"Ġfor":4892,"Ø±ÙĪØ©":4893,"ĠØ³Ø¤Ø§ÙĦ":4894,"ĠÙĦØ£Ù":4895,"Ø§ÙĤØ¯":4896,"ĠØ§ÙĦØŃØ³ÙĨ":4897,"ĠØ³ÙĦÙĪ":4898,"ĠÙĦØ¯ÙĬÙĩ":4899,"ØŃØ§ÙĨØ§Øª":4900,"ĠØ§ÙĦÙĨÙĪØ¹":4901,"Ø®Ø¨Ø§Ø±":4902,"ÙħØ§ÙĥÙĨ":4903,"ĠÙĦØºØ©":4904,"ĠÙĦÙħØ´":4905,"ĠØ§ÙĦÙĬØ¯":4906,"ĠØ§Ø¹ØªÙĤ":4907,"ĠØ¹Ø§Ø¯":4908,"Ø£ÙĨÙĩ":4909,"ĠØ§ÙĦØ±ÙĪØ³ÙĬØ©":4910,"ĠÙĪÙħØµ":4911,"ħØ¸":4912,"Ø·Ø±Ø©":4913,"ĠØ§Ø¨Ø±Ø§ÙĩÙĬÙħ":4914,"ĠØ¨Ø¹ÙĨÙĪØ§ÙĨ":4915,"ĠØ§ÙĦØ§Ø¨ØªØ¯":4916,"ĠØ§ÙĦØŃÙĤÙĪÙĤ":4917,"ĠY":4918,"Ø§ÙĨØ¹":4919,"Ø·ÙĦ":4920,"ĠÙĪØ§ÙĦØ¶":4921,"Ø§ÙĦØ§Ø":4922,"ĠØ³ÙĬØª":4923,"ĠÙĥÙģØ§Ø±":4924,"ĠÙĪØ§ÙĦØ«ÙĤ":4925,"ĠØ§ÙĦÙĤÙĪØ©":4926,"ĠØ³ÙĦÙħ":4927,"ĠÙģØ±ÙĪØ¶":4928,"ĠØ§ÙĦÙħØ´ØªØ±Ùĥ":4929,"ÙĦØ¨Ù":4930,"ĠØ¹Ø¯Ø¯Ø§":4931,"ÙĦØ§Ø·":4932,"ĠØ§ÙĦÙģÙĪØ±":4933,"ÙħØ¸":4934,"ĠØ§ÙĦØ¬Ø²Ø¡":4935,"ÙĪØ³Ø·Ø©":4936,"ÙĦÙĬØ¯":4937,"ĠØ§ÙĦØªØ¨":4938,"ĠÙĪØ§Øµ":4939,"ĠÙħØ¸":4940,"ĠÙĪØ§ÙĦØ¹Ø§ÙĦÙħ":4941,"ÙĦÙĬÙħÙĬØ©":4942,"ĠØ¨ØªØ§Ø±ÙĬØ®":4943,"ĠØ£ÙĦÙħØ§ÙĨÙĬØ§":4944,"ĠÙĪØ¹ÙĦØ§Ø¬Ùĩ":4945,"Ġ80":4946,"ĠÙĪØ§ÙĦÙħØ³Øª":4947,"ĠØ¨ÙĬØ²":4948,"ĠØ¨Ø§Ùĥ":4949,"Ø³ÙĦÙĪØ¨":4950,"ĠØ£ÙħØ±ÙĬÙĥØ§":4951,"ĠØ§ÙĦÙħÙĪØ¬ÙĪØ¯Ø©":4952,"ĠØ§ÙĦÙģÙĦØ³Ø·ÙĬÙĨÙĬÙĬÙĨ":4953,"ĠØ§ÙĦÙĨØªØ§Ø¦Ø¬":4954,"ĠØµÙĦØ§Ø©":4955,"ĠÙĪÙĥÙĬÙĦ":4956,"ÙģÙĪØ±":4957,"ĠØ¨Ø§ÙĦØ¹ÙĬÙĨ":4958,"ÙĪÙģØ±":4959,"ĠÙĬÙĦØª":4960,"Ø²ÙĤ":4961,"ĠØªØ«":4962,"ĠØ§ÙĦÙĦÙĬÙĦ":4963,"Ø§Ø¨ÙĬÙĨ":4964,"Ø§Ø±Ùī":4965,"ĠØ§ÙĦÙĤØ§Ø¦ÙħØ©":4966,"ĠØªÙĦ":4967,"ĠØ£Ø¯Ùī":4968,"ĠØªØ¨Ø¯Ø£":4969,"ĠØ§ÙĦØ®Ø§ÙħØ³Ø©":4970,"ĠÙĬÙħØª":4971,"ĠØ§ÙĦÙģÙĬÙĦÙħ":4972,"Ġ03":4973,"ĠØ§ÙĦÙħØ´Ø§Ø±Ùĥ":4974,"ĠØ¥Ø¨":4975,"ĠØ³Ø§Ø¨ÙĤ":4976,"Ġ\\":4977,"ĠØ¸ÙĩÙĪØ±":4978,"ĠÙħÙħØª":4979,"ĠÙĪÙĬØ³Øª":4980,"ĠÙħÙĨØ§":4981,"ĠØ§ÙĦØªØ±Ø¨":4982,"ħØ¶ÙĬÙģ":4983,"ÙħØ¶ÙĬÙģ":4984,"ĠÙħØ¶ÙĬÙģ":4985,"ÙĦØºØ§Ø¡":4986,"ĠÙĥÙĦÙĩ":4987,"ĠÙħØ®Ø§ÙĦÙģ":4988,"ĠØºÙĬØ§Ø¨":4989,"ĠÙģØ¹Ø§ÙĦÙĬØ§Øª":4990,"ĠØ§ÙĦØ±Ø¦ÙĬØ³ÙĬ":4991,"ĠÙĪØ§Ùģ":4992,"Ø§Ø±ÙĬØ§":4993,"ĠØ³Ø¬ÙĦ":4994,"Ø¬ÙĬÙĨ":4995,"ĠÙĨÙĬÙĥ":4996,"ÙĪÙĩØ§":4997,"ĠØ§ÙĦÙħØºØ±Ø¨ÙĬ":4998,"ĠÙĥÙĦØ§":4999,"ĠØ§ÙĦØ£ØŃÙħØ±":5000,"Ø®ÙĬ":5001,"ÙĩÙĦØ©":5002,"ĠØ§ÙĦØ§Ø±ØªØ¨Ø§Ø·":5003,"ĠØ¨Ø£ÙĬ":5004,"ĠØ¹ÙĪØ¯Ø©":5005,"ĠØ´ÙĬØ®":5006,"ĠÙĪØ§ÙĦØªØ¬":5007,"ÙħØ§Ø³":5008,"ĠØ§ÙĦÙĤÙĪÙĦ":5009,"ÙĨØ§Ø¹Ø©":5010,"ĠØ§ÙĦØ£ÙĤØ³Ø§Ùħ":5011,"ÙĤØ±Ø£":5012,"ĠØ§ÙĦÙħØ³Ø¬Ø¯":5013,"ĠØ·Ùģ":5014,"ĠØ·Ø¨Ø±":5015,"ĠÙĪØµÙĦØª":5016,"ĠÙħÙĤØ§ÙĦØ§Øª":5017,"ĠÙĥÙĦÙħ":5018,"ĠØŃÙģ":5019,"ĦÙĦØ§Øª":5020,"ĠØ§ÙĦØ°Ùĩ":5021,"Ø¯ÙħÙĪ":5022,"ĠØ§ÙĦÙħØªÙĪØ³Ø·":5023,"ĠØ£ØµØ¯Ø±":5024,"ĠØ§ÙĦØªØ¯Ø±ÙĬØ¨":5025,"ØŃÙħØ©":5026,"ĠØªÙĪÙĤØ¹":5027,"Ø±ÙĬØ´":5028,"ĠØ§ÙĦÙħÙĪØª":5029,"ĦÙĪØ¯":5030,"ĠX":5031,"ÙĦØ§Ø¬Ø¦ÙĬÙĨ":5032,"ĠØ§ÙĦØŃØ±ÙħÙĬÙĨ":5033,"ĠØ§ÙĦØ£ÙĦØ¹Ø§Ø¨":5034,"Ø§Ø®Ø±":5035,"ÙĦØ¦":5036,"ØŃØ¯Ø§Ø«":5037,"ĠÙĤÙĪÙĦ":5038,"ĠØ£Ø«Ø±":5039,"Ø·Ùī":5040,"Ø¯ÙĬÙĤØ©":5041,"ĠÙ¢":5042,"ĠÙĬÙĨØ¨ØºÙĬ":5043,"ħØ§Ø±Ùĥ":5044,"ĠÙĪØ¨ØŃ":5045,"ÙĦÙĦØ§Øª":5046,"ĠØ¨ÙĬØ¯":5047,"ĠØ¥ÙĨÙħØ§":5048,"Ġ2007":5049,"ĠØ§ÙĦÙħÙĪØ¸":5050,"ĠØ¬Ø§Ø¡Øª":5051,"ĠØ£ÙĨÙĨØ§":5052,"ĠØ¬ÙħØ§Ø¹Ø©":5053,"ĠÙĨÙĨ":5054,"ØªÙĬÙĪØ¨":5055,"ÙĬÙħÙ":5056,"ĠØ§ÙĦØ¹Ø§ÙĦÙĬ":5057,"ĠÙħØ±Øª":5058,"ĠØ¨ØŃØ¶ÙĪØ±":5059,"ÙħØ±Ø©":5060,"ÙĬÙĨÙħØ§":5061,"ĠPM":5062,"Ø³ÙĬÙĪ":5063,"ĠÙħØ¹ÙĩÙħ":5064,"Ġ37":5065,"ĠØ¯Ø®ÙĦ":5066,"ĠØ¨Ø£ÙĨÙĩØ§":5067,"ĠØ§Ø³Ø±Ø§Ø¦ÙĬÙĦ":5068,"ĠØ¯Ø§Ø¦Ø±Ø©":5069,"ĠØ¹Ø¨Ø¯Ø§ÙĦØ±ØŃ":5070,"ĠØªØºÙĬØ±":5071,"ĠØ£Ø¶":5072,"ĠØ§ÙĦØ£ÙĤÙĦ":5073,"ĠØ§ÙĦØ¯ÙĤÙĬÙĤØ©":5074,"ĠØ§ÙĦÙĤÙĨØ§Ø©":5075,"ĠØ³ÙĥØ³":5076,"Ġ2006":5077,"ĠÙħØ³Ø¤ÙĪÙĦ":5078,"ÙĨØ¯Ø§":5079,"ĠØ§ÙĦØªØ§ÙĦÙĬ":5080,"ĠØ¨ÙĦØ¯ÙĬØ©":5081,"Ø«ÙĨØ§Ø¡":5082,"ĠÙĪØ§ÙĤØ¹":5083,"ĠÙĪÙĦÙĦØ":5084,"ĠØ§ÙĦÙĥÙĩØ±Ø¨Ø§Ø¡":5085,"ĠØ§ÙĦÙĦØ¹":5086,"Ġrem":5087,"ÙĪØ®":5088,"Ø´Ùĩ":5089,"ĠÙĪØ¹Ø¯Ø¯":5090,"ĠØŃØ§Ø¯Ø«":5091,"ĠØ§ÙĦÙħÙĩÙħ":5092,"ĠØªØ¹Ø¨Ø±":5093,"Ø§Ø·Ø¹":5094,"ĠØ´ÙĩØ§Ø¯Ø©":5095,"Ø¬Ùī":5096,"ĠØ§ÙĦØ«Ø§ÙĨÙĪÙĬØ©":5097,"ĠÙĨØ¬Ø¯":5098,"ĠØ£Ø³Øª":5099,"ĠØŃØ¶":5100,"ĠÙĦÙĦØ§Øª":5101,"ĠØ§ÙĦØ¥ÙĨØªØ§Ø¬":5102,"ĠØ£ØŃØ¯Ø«":5103,"ĠØ§Ø¹ØªØ¨Ø±":5104,"ĠØ§ØªØ®Ø§Ø°":5105,"ÙĦÙĤÙ":5106,"ÙĪØ±ÙĩØ§":5107,"Ù¡Ù":5108,"ĠØ§ÙĦØ«ÙĤØ§ÙģÙĬ":5109,"ĠÙĪØ¨Ø¹Ø¶":5110,"ĠØ£Ø±Ø¨Ø¹":5111,"ÙĩØ§Ø¡":5112,"ĠØ§ÙĦÙħÙĨØ§Ùģ":5113,"ĠÙĤÙĦØª":5114,"ÙĦÙĦÙ":5115,"Ø¬ÙĦØ©":5116,"ĠÙħÙħÙĦÙĥØ©":5117,"Ø±ÙģÙĬØ©":5118,"ĠØ¨Ø§Ø¹ØªØ¨Ø§Ø±":5119,"ĠØ§ÙĦÙĪØ³":5120,"ĠØ§ÙĤØªØ±":5121,"ĠØ§ÙĦØ³ÙĪÙĬØ³":5122,"ÙĬÙĬØ¯":5123,"ĠØ¨Ø§Ø±ÙĬØ³":5124,"ĠØ§ÙĦØ£Ø³Ø¨Ø§Ø¨":5125,"Ġ38":5126,"ĠØ§ÙĦØ£ØŃØ¯Ø§Ø«":5127,"ĠÙħØ±Ø§Øª":5128,"ĠÙĪØªØ·":5129,"ÙħÙĬÙĩ":5130,"ĠÙĪØ·Ø§ÙĦØ¨":5131,"ĠØ§ÙĦØªÙĦÙģØ²ÙĬÙĪÙĨ":5132,"ÙĦØ§ÙĨØ¯":5133,"ĠÙĥÙĦÙħØ§Øª":5134,"ĠØ§ÙĦØ·Ø±ÙĬÙĤØ©":5135,"ĠØ§Ø³ØªÙĤ":5136,"ĠÙĪØªÙģ":5137,"ĬÙĩÙħ":5138,"ÙĬØ¹Ø©":5139,"ĠÙĪØªØ§Ø¨Ø¹":5140,"ĠÙĪÙħÙĨÙĩØ§":5141,"ĠÙħØ§ÙĦÙĬØ©":5142,"ĠØ§ÙĦÙĩÙĦØ§ÙĦ":5143,"Ø§ÙĩÙħØ©":5144,"Ġ09":5145,"Ø±ÙĬÙĤÙĬ":5146,"ÙĬÙĨØ§Øª":5147,"ĠÙĬØ¨ÙĦØº":5148,"ĠØ§ÙĦÙħÙĨØ§Ø³Ø¨Ø©":5149,"est":5150,"ĠØ§ÙĦÙħÙĨÙĪØ±Ø©":5151,"ĠØ§ÙĦØŃØ§ÙĦ":5152,"ĠØ§ÙĦØ¹ÙħØ§ÙĦ":5153,"ĠØ§ØŃØªØ¬":5154,"ĠÙĦÙĬÙĦØ©":5155,"ĠÙĦÙĬØ²Ùĥ":5156,"Ġ07":5157,"ĬØ¸ÙĩØ±":5158,"front":5159,"ÙģØ°":5160,"ĠØ¹ØµØ±":5161,"ĠØ¥Ø²":5162,"ĠÙĩÙĨØ¯":5163,"ÙĦØ¨ÙĬ":5164,"ÙĬØ¸ÙĩØ±":5165,"Ø§Ø¬ÙĬ":5166,"ĠÙĬØ¸ÙĩØ±":5167,"Ø§ÙĥÙħØ©":5168,"ĠØ§ÙĦØ¨Ø´":5169,"ĠÙĪØ§Ø³Ø¹Ø©":5170,"Ġwavefront":5171,"Ø§ÙĦÙĬØ¯":5172,"Ø§Ø²Ø©":5173,"ĠØ§ÙĦØ±Ø¦":5174,"ĠØ¶ØŃ":5175,"ĠØ£Ø²ÙħØ©":5176,"Ø§Ø¯Ø§":5177,"ĠØ§ÙĦÙħÙĥØªØ¨":5178,"ĠØ§ÙĦØºØ±Ø¨":5179,"ĠØ¹ÙħØ±ÙĪ":5180,"ØªØ³":5181,"Ø·ÙĦØ§Ø¹":5182,"ĠØ£Ø²":5183,"ĠØ§ÙĦØ§Ø¹Ø¶Ø§Ø¡":5184,"ĠØ§ÙĦØ¹Ø§ÙħÙĦÙĬÙĨ":5185,"ĠØ£Ø¨ÙĪØ¸Ø¨ÙĬ":5186,"ul":5187,"ĠØ§ÙĦØ®Ø±":5188,"ĠØ§ÙĦØ¹Ø¯ÙĦ":5189,"ĠØ§ÙĦØªØ§ÙĦÙĬØ©":5190,"ĠØ¬ÙĪÙĨ":5191,"ĠØ§ÙĦØ¹ÙħÙĦÙĬØ§Øª":5192,"ÙģÙĨ":5193,"Ø§Ø·Ø¦":5194,"ĠSt":5195,"ĠØ§ÙĦÙĨØ´Ø§Ø·":5196,"ĠØ¬Ø¯Ø©":5197,"ĠØ§Ø¹ØªØ¨Ø§Ø±":5198,"ĠÙĪÙĨÙĤ":5199,"ĠÙħÙĬØ§Ùĩ":5200,"ÙĩÙĬØ²":5201,"ĠÙĪØ§ÙĦØ¨Ø±":5202,"ÙħÙĬÙĤ":5203,"ab":5204,"ĠØ§ÙĦØ¨Ø§Ø¨":5205,"Ġ04":5206,"ĠØ¹Ø§ÙħÙ":5207,"ĠØ£ØµÙĦ":5208,"ĠØ§ÙĦØµÙĬÙģ":5209,"ĠÙĪÙĬÙĪ":5210,"ħØ¦":5211,"ĠØ³ÙģØ±":5212,"ĠØ§ÙĦØ´Ø¤ÙĪÙĨ":5213,"Ø³ÙħØ©":5214,"ĠØ·ÙĨ":5215,"ĠÙĦØ¯ÙĬÙĩØ§":5216,"ĠÙĨØ³Ø¨":5217,"ĠØªØ¯Ø®ÙĦ":5218,"Ø¦ÙĬØ§Øª":5219,"ĠÙĪØ¨Ø¯":5220,"Ø§Ø±Ø¯Ø©":5221,"ĠØªÙĤØ§Ø±ÙĬØ±":5222,"ĠØºØ¯Ø§":5223,"ĠØ§ÙĦØ£ÙĪØ±ÙĪØ¨ÙĬØ©":5224,"ĠÙĦÙĥÙĨÙĩØ§":5225,"ĠÙģÙģÙĬ":5226,"ĠÙĪØ´Ø±":5227,"Ø§ÙĦØŃØ©":5228,"ĠØŃØ§Ø¬Ø©":5229,"ĠØ·Ø¨Ø±Ø¬ÙĦ":5230,"ÙĦØºØ©":5231,"ĠÙĬØ³Ø§Ø¹Ø¯":5232,"ÙĦÙĪØ§":5233,"ĠØ³ÙĪØ¯":5234,"ĠØ§ÙĦÙĤØª":5235,"ĠØ§ÙĦØŃÙħÙĦ":5236,"ÙĦØ£":5237,"ĠØ§ÙĦØ¥ÙĬØ·":5238,"ĠØ£ÙħÙĬÙĨ":5239,"ĠØªØ³Ø§Ø¹Ø¯":5240,"ÙĥÙħØ§ÙĦ":5241,"ÙģÙĬØª":5242,"ĠØªÙĪØ¬Ùĩ":5243,"ĠØ³ÙĦØ·Ø§ÙĨ":5244,"ĠØªØµØ±ÙĬØŃ":5245,"ĠØªÙĪØ¬Ø¯":5246,"ĠØµØ¨Ø§ØŃØ§":5247,"ĠÙĪÙħØ¤":5248,"ĠØ§ÙĦØ¬Ø¨":5249,"ĠÙĪØ¨Ù":5250,"Ø§Ø¨ÙĦØ³":5251,"ĠØ¥Ùħ":5252,"ĠÙģØ¬":5253,"ut":5254,"ÙĦÙĪÙħ":5255,"ĠÙħØ¹ÙĬÙĨØ©":5256,"ĠØ§ÙĦØªØºÙĬÙĬØ±":5257,"ĠÙĦØ£ÙĬ":5258,"ĠÙģØ¨":5259,"ĠØ§ÙĦØŃÙĬ":5260,"ØªÙĬØŃ":5261,"ĠØªÙħÙĦÙĥ":5262,"ĠØ§ÙĦÙħØ³Ø¤ÙĪÙĦÙĬÙĨ":5263,"ÙĦØ§ÙĬØ©":5264,"ĠØ§ÙĦÙħØ³ÙĬ":5265,"ĠØºØ±Ùģ":5266,"Ġ195":5267,"ĠØ¹Ø¯ÙĬØ¯Ø©":5268,"ĠÙħØ±Ø§ÙĥØ²":5269,"Ø¯ÙĬÙĦØ§Øª":5270,"ØµÙĬØµ":5271,"ĠØ´Ø§Ø±Ø¹":5272,"ĠØ§ÙĦÙĪØ§ØŃØ¯":5273,"ÙĦÙĤÙĬ":5274,"ĠØ¹Ø§Ø¯ÙĦ":5275,"Ġ48":5276,"Ġ06":5277,"ĠÙĥØ¨Ø§Ø±":5278,"ĠØ¨Ø§ÙĦØªØ¹Ø§ÙĪÙĨ":5279,"ĠØ§ÙĦØ³Ùħ":5280,"ĠØ¹Ø«ÙħØ§ÙĨ":5281,"ĬØ±ÙĬ":5282,"ĠØ§ÙĦØ°ÙĩØ¨":5283,"ĠØŃÙĪØ§Ø±":5284,"ĠÙĤØ±Ø§Ø¡Ø©":5285,"ĠØ«Ø§ÙĨÙĬØ©":5286,"ØºØ·ÙĬØ©":5287,"ĠØ®Ø§Ø¯Ùħ":5288,"ĠØ§ÙĦÙĨÙĬØ§Ø¨Ø©":5289,"ĠØ´Ø¤ÙĪÙĨ":5290,"ĠØ¨Ø±Ø¬":5291,"ĠÙģØ§Ø³":5292,"ĠÙĩØ§":5293,"ĠØ§ÙĦÙħØ´Ø§ÙĥÙĦ":5294,"ĠÙģØ±ÙĤ":5295,"ĠØ¨Ø¹Ø¯ÙĩØ§":5296,"ĠØ§ÙĦØ§Øº":5297,"ĠØ´Ø±Ø·Ø©":5298,"AR":5299,"ĠØ§ÙĦÙĪØ¬Ùĩ":5300,"ĠÙħØ¬Ø§ÙĨÙĬ":5301,"ĠØ³ÙĬÙħØ§":5302,"ĠÙĬØ²Ø§ÙĦ":5303,"ĠØ¨Ø¹ÙĬØ¯Ø§":5304,"ĠØ§ÙĦØ®ÙħØ³":5305,"ĠØ§ÙĦØ·Ø¨ÙĬØ¹Ù":5306,"ĠØ§ÙĦØ·Ø¨ÙĬØ¹ÙĬ":5307,"ĠÙĬØ¬ÙĪØ²":5308,"Ø¨ØŃØ«":5309,"ĠÙĦÙĦØ¹ÙħÙĦ":5310,"ÙģØ²":5311,"ĠÙħØ¯Ø§Ø±":5312,"ÙĦÙħÙĨ":5313,"ĠØ´Ø®ØµØ§":5314,"ÙĪØ²ÙĬØ¹":5315,"ĠÙĦÙħØŃ":5316,"ĠØ«Ø§ÙĦØ«":5317,"ĠÙĦÙĦÙħØ³Øª":5318,"ai":5319,"ÙĥÙĪÙĬÙĨ":5320,"Ø§Ø¶Ø±":5321,"ĠÙĬÙĪÙħÙĬÙĨ":5322,"Ø·ÙĬØ¨":5323,"ĠÙĪÙĬÙĤÙĪÙĦ":5324,"ĠØ¨ØªØ±":5325,"ĠØ§ÙĦØ¬Ø§ÙħØ¹Ø§Øª":5326,"ĠØ£ÙĪØ¨":5327,"ĠÙĪØ¹ÙĨØ¯ÙħØ§":5328,"ĠÙħØ¯Ø±Ø¨":5329,"ĠØ§ÙĦØ´Ø§Ø±Ø¹":5330,"ĠØ§ÙĦØ¬ÙĪÙĦØ©":5331,"ĠØ§Ø³ØªØ¹Ø¯Ø§Ø¯":5332,"ĠØ§ÙĦØºØ°Ø§Ø¦ÙĬØ©":5333,"ÙĦØ§ÙĬØ§":5334,"ĠÙĥÙĨØ§":5335,"ĠØ¬ÙĦØ³Ø©":5336,"ĠØ§ÙĦÙħØªØ±":5337,"Ø³ÙĬÙħ":5338,"ĠØ¨Ø§ÙĦØµÙĪØ±":5339,"Ø±ÙĬÙĤÙĬØ©":5340,"ĠÙĦÙĨØ¯ÙĨ":5341,"ĠÙĦØªØ³":5342,"ĠÙħØ³Ø¦":5343,"ĠØ°Ø§ØªÙĩ":5344,"ĠØ§Ùĥ":5345,"ĠÙĪÙĪØ¶Ø¹":5346,"ĠØ¨Ø§ÙĦÙĦÙĩ":5347,"Ø«Ø±Ø©":5348,"ĠØ§ÙĦÙĥÙĪÙĬØªÙĬ":5349,"ÙĬÙĩÙħ":5350,"ĠØªÙĤØ¹":5351,"ĠØ²ÙĬØ§Ø±":5352,"Ø«ÙħØ§Ø±Ø§Øª":5353,"ĠØ§ÙĦØµØŃØ§ÙģØ©":5354,"ØŃÙĬØ§ÙĨØ§":5355,"ĠØŃÙĦÙĪÙĦ":5356,"ĠØ¨Ø³Ø±Ø¹Ø©":5357,"ĠØ§ÙģÙĦØ§Ùħ":5358,"ĠØ§ÙĦÙħÙħØª":5359,"ĠØŃØ¶Ø±":5360,"Ø±Ø¯ÙĬØ©":5361,"ĠØ§ÙĦØµØ¨Ø§ØŃ":5362,"ØŃÙĬØ§Øª":5363,"ĠÙĤØ§Ø¹Ø¯Ø©":5364,"ĠØ§ÙĦØ£Ø¯Ø¨":5365,"Ø§Ø¯Ø±Ø§Øª":5366,"ĠÙĪØ§ÙĨØª":5367,"ĠØ£ØŃØ¯Ø§Ø«":5368,"Ø±Ø¹":5369,"ĠØ¬ÙĬØ¯Ø©":5370,"ĠØ¶ØºØ·":5371,"ĠØ¬Ø§Ø¦Ø²Ø©":5372,"Ġ08":5373,"ĠØ§ÙĦØ¹Øµ":5374,"ĠØ§ÙĦØ³ÙĥØ±ÙĬ":5375,"ĠØ§ÙĦØ¨ÙĦØ¯ÙĬÙĨ":5376,"ĠØ³Ø§Øª":5377,"ĠØ§ÙĦØªØ±Ø§Ø«":5378,"ÙĪØ°":5379,"ĠØ§ÙĦØ¬ÙĪØ¯Ø©":5380,"Ø³Ø§Ø³":5381,"ĠØ¹Ø§Ø´":5382,"ÙĪÙĦØª":5383,"Ø§Ø±Ø¦":5384,"ĠØ§Ø³ØªÙħØ±":5385,"ĠØ§ÙĦØªÙĤÙĦÙĬ":5386,"oc":5387,"ĠØ²ÙĬÙĨ":5388,"ØºØ±Ø¨":5389,"ÙĬÙī":5390,"ĠØ¨Ø±ÙĬØ·Ø§ÙĨÙĬØ§":5391,"ĠÙĪØ§ÙĦØ¹ÙħÙĦ":5392,"Ø®Ø±Ø©":5393,"Ø§ÙħÙĦØ§Øª":5394,"ĠØ¹ÙĦÙħØ§":5395,"Ø¨Ø¯Ø§Ø¹":5396,"ĠØ¹Ø³ÙĥØ±ÙĬØ©":5397,"ĠØ§ÙĦÙħØµØ§Ø¯Ø±":5398,"Ø´ÙĦÙĪÙĨØ©":5399,"ĠØªÙĪØ§Ø¬Ùĩ":5400,"Ġand":5401,"ĠØ§ÙĦØ¹ÙħÙĦØ§Øª":5402,"ĠØ¨ÙĬØ²ÙĪ":5403,"ĠØ§ÙĦØ¹Ø¶":5404,"ĠØ§ÙĦØ¸Ø±ÙĪÙģ":5405,"ĠØ§ÙĦØ¯Ø¹ÙĪØ©":5406,"ĠÙĪÙħÙĥ":5407,"Ø¹ÙĦØ§Ùħ":5408,"ÙħÙĪØ±":5409,"Ø§ÙĥØ©":5410,"ħÙĪÙĦ":5411,"Ø§Ø¹Ùħ":5412,"ĠØ§ÙħØ±Ø£Ø©":5413,"ĠØ§ÙĦÙħÙĬØ¯":5414,"ĠÙĥÙĪØ±ÙĬØ§":5415,"Ø´Ø§Ø¯":5416,"ÙĦØ§Ø¯Ø©":5417,"ĠÙĦÙĦØ¹Ø§Ùħ":5418,"ĠÙĪØ§Ùĥ":5419,"ĠØªØ¹ÙĪØ¯":5420,"ĠØªÙħÙĨ":5421,"ĠÙĤØ¯ÙħØª":5422,"ĠØ£ÙħØ±Ø§Ø¶":5423,"Ġthe":5424,"ĠØ§ÙĪØ±":5425,"Ø§ÙĬÙ":5426,"ĠØ§ÙĦØ³ÙĪ":5427,"ĠØ§ÙĦÙĩÙ":5428,"ĠØ§ÙĨØ·ÙĦØ§ÙĤ":5429,"ĠØ¨Ø§ÙĦÙħØ´":5430,"ĠØ§ÙĦØ±Ø¨":5431,"ĠØ±ØŃÙħÙĩ":5432,"ĠØ¨ØªÙĪ":5433,"ĠØ§ÙĦØµØŃÙĬ":5434,"Ø±ÙĪØª":5435,"ÙĦØ·Ø©":5436,"ØºÙĪ":5437,"Ø§ÙħØ±":5438,"Ø§Ø±ÙĥØª":5439,"ĠÙħØ³ÙĦÙħ":5440,"ÙĩÙħÙĬØ©":5441,"ĠÙĪØ£ÙĨÙĩ":5442,"ÙĦÙĪØ§ÙĨ":5443,"ĠØ§ÙĦÙħØ³Ø§Ø¹Ø¯":5444,"ÙĩÙĦÙĥ":5445,"ĠØ¥Ø³Ùħ":5446,"ĠÙĪØ§Ø¶Ø§Ùģ":5447,"ĠÙĦØ¹Ø§Ùħ":5448,"ħØŃÙĦ":5449,"ĠÙĪØ§ÙĦØªÙĨ":5450,"ĠØ§ÙĦØ£Ø±Ø§Ø¶ÙĬ":5451,"ĠØªØ±Ø§Ø¬Ø¹":5452,"ĠØªØ£ØªÙĬ":5453,"Ø§Ø¨ÙĬØ¹":5454,"ĠØ§ÙĦØ³ÙĦØ¹":5455,"Ġ42":5456,"Ø§ÙĪÙī":5457,"ĠØ§ÙĦÙĨÙĩØ§Ø¦ÙĬ":5458,"ĠØ§ÙĦÙħØ´ØªØ±ÙĥØ©":5459,"ĠØ«ÙĪØ±Ø©":5460,"ĠØ§ÙĦØ³ÙĬØ±":5461,"ĠØ¹Ø§Ø¯Ø©":5462,"Ø§Ø±ÙĬÙĪ":5463,"ĠØ§ÙĦÙĨØ¬Ø§ØŃ":5464,"ĠØ±Ø¹Ø§ÙĬØ©":5465,"ĠØ§ÙĦØµØ¯":5466,"ÙĪØ§Ø¹Ø¯":5467,"ĠØªÙĤØ¯ÙĬØ±":5468,"ĠØ§ÙĦØ·ÙĬØ±Ø§ÙĨ":5469,"ĠØµÙĨØ¯ÙĪÙĤ":5470,"ÙħØŃÙĦ":5471,"Ø°ÙĦ":5472,"ĠÙħØ±ÙĪØ±":5473,"ĠØ§ÙĦÙĥØ´Ùģ":5474,"ĠØ§ÙĦØ¥Ø¬Ø±Ø§Ø¡Ø§Øª":5475,"Ø¦ÙĪÙĨ":5476,"Ø±ÙĬÙĩ":5477,"ĠØ§ÙĦÙĨØµØ±":5478,"ĠØ¹Ø¨Ø¯Ø§ÙĦØ±ØŃÙħÙĨ":5479,"ĠØ´ÙĪ":5480,"ĠØ§ÙĦØ¬ÙĨØ³ÙĬØ©":5481,"ĠÙĪÙĦØ°ÙĦÙĥ":5482,"Ġcost":5483,"ĠÙħØŃÙĦ":5484,"ox":5485,"ĠØ§ÙĦÙħÙĪÙĤÙģ":5486,"ĠØ§ÙĦØºØ§Ø²":5487,"ÙĦØ°":5488,"ĠØ§ÙĩØªÙħØ§Ùħ":5489,"ĠØ´Ø§Ø¡":5490,"Ø§ÙĦÙĬÙ":5491,"Ø¯Ø§Ø¨":5492,"Ġpro":5493,"ĬØ³ÙħØŃ":5494,"ĠÙģÙĬØµÙĦ":5495,"ĠØ´ÙĨ":5496,"ĠØ¥ÙĬ":5497,"ĠØ¨ÙĪØ§Ø¨Ø©":5498,"ĠØ§ÙĦØªØ·Ø¨ÙĬÙĤ":5499,"ĠÙĪÙĬØ¯":5500,"ĠØªÙĪØ±":5501,"Ġ55":5502,"Ø³ØªØ§ÙĨÙĬ":5503,"Ø§ÙĨØª":5504,"ÙĬØ²Ø©":5505,"Ø¬ÙĬØ¹":5506,"Ø¶Ø§Ø¹":5507,"ĠÙĬØŃØµÙĦ":5508,"Ġis":5509,"ØµØ§Øµ":5510,"ĠÙĨØ³Ø®Ø©":5511,"ĠØ§ÙĦØ§Ø³ÙĦØ§ÙħÙĬ":5512,"Ø±Ø§Ø¦Ø¨":5513,"ÙģÙĬØ¶":5514,"Ø±ÙĪØ§Øª":5515,"ÙĨÙĬØ¹":5516,"ĠÙĬØ¹ÙĦÙħ":5517,"ĠØªØ±Ùī":5518,"Ø´ÙģÙĬØ§Øª":5519,"ĠØªØ¹ÙĦÙĬÙĤ":5520,"ħØ§Ø²":5521,"ØµÙģØŃ":5522,"ĠÙĪÙĦÙĥÙĨÙĩ":5523,"ĠÙĤÙħ":5524,"ĠØ£ÙĨØŃØ§Ø¡":5525,"Ø³Ø§Ø¦Ø±":5526,"Ø±Ø£":5527,"ÙĬØ³ÙħØŃ":5528,"ĠØ§ÙĦÙĬØ³":5529,"ĠÙĦØ¹Ùħ":5530,"ÙĪØ¬ÙĪØ¯":5531,"Ø¨ÙĩØ§":5532,"Ø¯ÙħØ±":5533,"Ø§ÙĬÙĨØ©":5534,"ÙĪÙĩØ§Øª":5535,"ÙĦÙĬÙģØ§Øª":5536,"Ø®ÙģØ¶":5537,"ĠØ§ÙģØªØªØ§ØŃ":5538,"Ø§Ø·ÙĨÙĬÙĨ":5539,"ĠØ§ÙĦÙħØ¬Ø§ÙĦØ§Øª":5540,"Ø¯ÙĪ":5541,"ĠØ§ÙĦÙĤØ§Ø¹Ø¯Ø©":5542,"ĠÙĪÙģØ§Ø©":5543,"ĠÙĦØŃÙĤÙĪÙĤ":5544,"ÙĪÙĬØªØ±":5545,"ĠØ§ÙĦØ±Ø£Ø³":5546,"ĠØ§ÙĦÙħÙĩÙħØ©":5547,"ØªÙĬÙĦ":5548,"Ø§ÙĦÙĨ":5549,"ĠØ¯Ø¹ÙĪØ©":5550,"ĠØªØ´ÙĩØ¯":5551,"ÙĥÙĨÙĬØ©":5552,"ĠÙĤØ§Ø¯Ø±":5553,"ĠØ§ÙĦÙħØ°Ùĥ":5554,"ĠØ§ÙĦØªØ¹ÙĦÙĬÙĤØ§Øª":5555,"ĠØ§ÙĦØ¨ÙĦØ¯ÙĬØ©":5556,"ĠØ§ÙĦØ¥Ø¹ÙĦØ§ÙĨ":5557,"ĠØ¥ÙĤØ§ÙħØ©":5558,"ĠÙĪØ§ÙĦÙħÙĤ":5559,"ÙĬÙĦÙĬ":5560,"Ø±Ø§ÙĤ":5561,"ĠÙħÙĨØ´":5562,"ĠÙģØ±Ø¹":5563,"Ø¶ÙħØ§Ùħ":5564,"ĠØ²Ø±Ø§Ø¹Ø©":5565,"Ø§ÙĦØªÙĩ":5566,"ĠØ§ÙĦØ´ØŃÙĨ":5567,"ÙĦØ§Ùĩ":5568,"ÙĩØ¯Ø§Ø¡":5569,"ĠÙĤØµØ±":5570,"ØªÙĬØ©":5571,"ĠØ§ÙĦØ·Ø§Ø¦Ùģ":5572,"ĠÙħØ³Ø§ØŃØ©":5573,"ÙģØ±Ø¯":5574,"ĠØ¨Ø°":5575,"Ġl":5576,"ĠØ§ÙĦÙĤØ¯ÙĬÙħ":5577,"ĠØ§ÙĦÙħØ³Ø¤ÙĪÙĦÙĬØ©":5578,"ĠØ´ÙĤÙĤ":5579,"ĠÙĬÙħÙĦÙĥ":5580,"ĠØŃØ§ÙĪÙĦ":5581,"ĠÙĦÙĦÙħÙĤ":5582,"Ø§ÙĦÙĩÙ":5583,"ĠØµÙĦØ§ØŃÙĬØ©":5584,"ĠØªØŃØ§ÙĪÙĦ":5585,"ĠØ«ÙĤØ§ÙģØ©":5586,"ÙĬØ§Ø¯":5587,"ØªÙĬØ§ÙĦ":5588,"ĠØ§ÙĦØ¯Ø±Ø¬Ø©":5589,"ĠØ§ÙĨØªÙĤ":5590,"ĠØ¨ÙĦØ§Ø¯Ùĩ":5591,"ĠÙĦÙģØª":5592,"ĠÙĬØ´ÙĥÙĦ":5593,"ĠØ¹Ø²ÙĬØ²":5594,"Ø¹Ø§Ø¡":5595,"ØºÙĦØ§ÙĤ":5596,"ĠØ§ÙĦÙĤØ¯Ø±Ø©":5597,"Ġ500":5598,"Ø§ÙĦÙĩÙħ":5599,"Ø±ÙĤØ§Ùħ":5600,"ħÙĦØ¹Ø¨":5601,"ĠØ§ÙĦØ£Ø³ÙĪØ§ÙĤ":5602,"ĠØ§ÙĦØµÙĩÙĬ":5603,"ĠÙĦØªØ´":5604,"ÙĬØªÙĩØ§":5605,"ÙħÙĦØ¹Ø¨":5606,"ĠÙĪØ§ÙĦØªÙī":5607,"ĠØ±Ø§Ùħ":5608,"ħØ°":5609,"ĠØ§ÙĦØªØ¬Ø§Ø±ÙĬ":5610,"ĠÙĬØ¬Ø±ÙĬ":5611,"ĠÙħÙĦØ¹Ø¨":5612,"ĠØªØ´ÙĥÙĦ":5613,"ĠÙħØ§Ø³":5614,"ĠØ°Ùĩ":5615,"ĠØµÙĬØ¯":5616,"Ø³ÙĬØ±":5617,"ĠØ¯Ø¹Ø§":5618,"ĠØ£Ø³ÙħØ§Ø¡":5619,"ĠÙĤÙĬØ§Ø³":5620,"ĠÙĦÙĦÙĪØµÙĪÙĦ":5621,"ĠÙĪØ´Ø±ÙĪØŃØ§Øª":5622,"ĠØ§ÙĨØªÙĩØ§Ø¡":5623,"ĠÙħÙĨØ¸":5624,"ĠØ§ÙĦØªØº":5625,"ĠÙĪØ§ÙĦØ³ÙĬØ§Ø³":5626,"Ġ90":5627,"ĠÙĦØ²":5628,"ĠÙħØªØ¹Ø¯Ø¯Ø©":5629,"ĠÙģØ§Ø²":5630,"ĠØ§ÙĦØªÙĨÙģÙĬØ°Ù":5631,"ĠØ§ÙĦØªÙĨÙģÙĬØ°ÙĬ":5632,"ĠÙĪØ§ÙĦØªØµ":5633,"ĠØ§ÙĦØŃØ§Ø¯Ø«":5634,"ĠØ·ÙĪØ§ÙĦ":5635,"ĠØ§ÙĦØ¥Ùģ":5636,"ĠØ§ÙĦØ¯Ø§Ø®ÙĦÙĬ":5637,"ÙĦØ±":5638,"ĠØ§ÙĦØ«ÙĦØ§Ø«Ø©":5639,"Ø¬ÙĬØ§Øª":5640,"ĠØ§ÙĦÙħØ§ÙĦÙĥ":5641,"ĠØ§ÙĦØ³ÙĬØ§ØŃÙĬØ©":5642,"ÙĩØ¯Ø¯":5643,"ØµÙħ":5644,"ĠØ¨Ø·Ø§ÙĤØ©":5645,"ĠØ§ÙĦØ§ØŃØ¯":5646,"ĬØ§ÙĦ":5647,"ĠÙĨØ®":5648,"ĠØ§ÙĦØ±Ø¯ÙĪØ¯":5649,"Ø§Ø¬ÙĦ":5650,"ĠØ§ÙĦÙħØ±Ø´ØŃ":5651,"ĠÙħØ³ØªÙĪÙĬØ§Øª":5652,"ÙĨØªØ®Ø§Ø¨Ø§Øª":5653,"ĠØ§ÙĦÙħØ³ØªØ´Ø§Ø±":5654,"ĠÙĦØ¯Ø®ÙĪÙĦ":5655,"Ø§Ø´Ø§":5656,"ÙĪØ¹Ø§Øª":5657,"ĠÙĬØ³ÙħØŃ":5658,"ĠØ§ÙĦØ®ØµÙĪØµ":5659,"ĠÙĪØ±Ø¨ÙħØ§":5660,"ĠØ§ÙĦØŃÙģØ§Ø¸":5661,"ĠØ¥Ø´":5662,"ĠÙĪØ§ÙĦØ§ÙĤØªØµ":5663,"ħØ£":5664,"Ø¤ÙĥØ¯":5665,"Ġremov":5666,"ĠØ§ÙĦØªØ¹Ø±ÙĬÙģ":5667,"ĠØŃØ¯ÙĪØ«":5668,"Ø¬ÙĬØ¯":5669,"ĠÙģÙĩØ°Ø§":5670,"ĠØ§ÙĦÙħÙĨØªØ¬Ø§Øª":5671,"ĠØ§ÙĦØ¹Ø§ÙħÙĦØ©":5672,"ÙĪÙĬÙģ":5673,"ĠÙĪØ§Ø¶ØŃØ©":5674,"ÙĪØ²Ø§Ø±Ø©":5675,"ĠØ¬Ø±Ø§Ø¡":5676,"ĠØ§ÙĦØŃØ§ÙĦØ§Øª":5677,"ĠØ§ÙĦÙħØ³Ø±ØŃ":5678,"ĠØ§ÙĦØ¥Ø«":5679,"ĠÙħÙĨØµÙĪØ±":5680,"ĠÙģÙĥØ±":5681,"ÙĤÙĬÙĩ":5682,"Ø¯Ø®ÙĦ":5683,"ĬØ¨Ø¯Ø£":5684,"ĦÙĪÙĬ":5685,"ĠØ¨ØµÙģ":5686,"ÙĬØ¨Ø¯Ø£":5687,"ĠÙĬØ¨Ø¯Ø£":5688,"ĠÙħØ·Ø§Ø±":5689,"ew":5690,"ÙĤØ§ÙħØ©":5691,"ÙĬØ§Ø©":5692,"ĠØ§ÙĦØ¹ÙħÙĪÙħÙĬØ©":5693,"ĠØ³ÙĬØ§Ø³Ù":5694,"ĠØ³ÙĬØ§Ø³ÙĬ":5695,"Ø²ÙĬÙĦ":5696,"Ø§ØµØ±Ø©":5697,"ĠØ§ÙĦØ¬ÙĪØ§ÙĦ":5698,"ĠØ¹Ø§Ø¦ÙĦØ©":5699,"ĠÙĪÙģØ¯":5700,"ĠÙĦØ§Ø¨Ø¯":5701,"og":5702,"ĠØ§ÙĦÙħØ³ØªÙħØ±":5703,"ĠØ¢Ø³ÙĬØ§":5704,"ĠØ§ÙĦØ¹Ø¸ÙĬÙħ":5705,"ĠØªØ±Ø¨":5706,"ĠØ§ÙĦØ®Ø¶":5707,"ØŃØ§ÙĨ":5708,"ĠØ§ÙĦÙĬÙĪÙħÙĬØ©":5709,"30":5710,"ÙĨÙĪØ¨":5711,"ĠØ°ÙĪÙĬ":5712,"ØªØ§ÙĨ":5713,"ĠØ§ÙĦØµØ±Ø§Ø¹":5714,"ĠÙģØ§Ø±":5715,"ĠØ§ÙĦØµØŃÙĬÙģØ©":5716,"ĠØªÙĤÙĨÙĬØ©":5717,"ĠØ§ÙĦØµØŃÙģ":5718,"ĠØ§ÙĦØ§ÙĩØªÙħØ§Ùħ":5719,"ĠØ´Ø¨Ùĩ":5720,"ĠØµØ±":5721,"ĠÙĪÙĦØ£":5722,"ĠØªØŃØªÙĪÙĬ":5723,"ÙĦØ§ÙħØ§Øª":5724,"ĠØªØ²Ø§ÙĦ":5725,"ĠØªØ¯Ø±ÙĬ":5726,"ĠØ§Ø¹ÙħØ§ÙĦ":5727,"ĠÙĦØµØ§ÙĦØŃ":5728,"ĠØ£ÙĬØ©":5729,"ĠÙħØ¬Ø§ÙĨØ§":5730,"ÙĬÙĨÙĬØ§":5731,"ØŃÙĩ":5732,"ĠØ³ØªØ©":5733,"ĠØ§ÙĦØ§ÙħØ±ÙĬ":5734,"Ø¯ÙĬØ§ÙĨ":5735,"ĠØ§ÙĦØ£ÙĦÙħØ§ÙĨÙĬØ©":5736,"ÙħØ¦":5737,"Ø§ÙĦØ·":5738,"ÙħØ§Ø²":5739,"ĠØ³Ø§Ø¨ÙĤØ§":5740,"ĠØ§ÙĦÙħÙħÙĥÙĨ":5741,"Ø²ÙĬØ§Ø¡":5742,"ĠØ§ÙĦØªØ¶":5743,"ĠØªÙħØ±":5744,"Ø§ÙħÙĩ":5745,"ĠØ§ÙĦÙĤØ¨Ø¶":5746,"ĠØµÙģÙĪÙģ":5747,"nd":5748,"ĠØ§ÙĦÙħØªÙħÙĬØ²Ø©":5749,"ĠÙĦØ£ØŃØ¯":5750,"ĠØŃØ±Øµ":5751,"ĠØ¥Ø¹Ø¯Ø§Ø¯":5752,"Ø³ÙĬØ·":5753,"ĠÙħØ§ÙĦÙĥ":5754,"ĠØ®Ø²":5755,"ĠØ§ÙĦØ£Ø³Ø±":5756,"ĠØŃÙĤÙĤ":5757,"ĠØ§ÙĦØŃØ§Ø¬Ø©":5758,"ĠÙħØ¤Ø³Ø³Ø§Øª":5759,"ĠØ¬Ø§Ùĩ":5760,"ĠØŃÙĬØ§ØªÙĩ":5761,"ĠØ³Ø§ØŃØ©":5762,"ĠØ§ÙĦØ¬Ø²Ø§Ø¦Ø±ÙĬ":5763,"ĠÙĪÙĦÙĤ":5764,"Ġ39":5765,"ĠØ®Ù":5766,"ØµØ§Ø¨":5767,"ÙħØ°":5768,"Ø¶ÙĬØŃ":5769,"ĠÙĪØ£Ùģ":5770,"ĠØ£Ø¹ÙħØ§":5771,"ÙĦØ§ÙĬÙĨ":5772,"ÙħØ§Ø±Ùĥ":5773,"ĠØ§ÙĦÙħÙĦÙģØ§Øª":5774,"ĠÙħØ°":5775,"Ø«ÙĪØ±":5776,"ĠØ§ÙĦØªØ§Ø±ÙĬØ®ÙĬØ©":5777,"ÙģØ§Ø¹ÙĦ":5778,"ĠÙĦØ§Ø¬":5779,"ĠØ§ÙĦØ§ÙĤØªØ±":5780,"ØºØ©":5781,"ĠØªØŃÙĤÙĤ":5782,"ĠØ§ÙĦØµÙĬØ¯":5783,"ĠØ§ÙĦØ¨Ø®":5784,"ĠÙĦØ¯ÙĬÙĩÙħ":5785,"Ø´ÙĬØŃ":5786,"Ġ44":5787,"ĠØ§ÙĦØ¹ØµØ±":5788,"ÙĦØªÙĬÙĨ":5789,"Ø±ÙĪÙģØ©":5790,"ĠØ§ÙĦÙħÙĬØ²":5791,"Ø²Ø±":5792,"Ø§Ø¯ÙĬØ«":5793,"ĠØ³ÙĬÙģ":5794,"Ø§Ø´ÙĤØ¬ÙĬ":5795,"ĠØ¬ÙĪØ¯Ø©":5796,"ĠØ§Ø³ØªØº":5797,"ĠØµØ±Ùģ":5798,"ĠØ§ÙĦÙħÙĨØ§Ø³Ø¨":5799,"ĠØµØºÙĬØ±":5800,"ĠÙĬÙĤØ¹":5801,"ÙħÙĪÙĬØ©":5802,"ĠØ¶ÙħØ§ÙĨ":5803,"ĠÙĩÙĥØ°Ø§":5804,"ÙħØ£":5805,"ÙģØ§Ø¡Ø©":5806,"ĠÙĨØ§ØŃÙĬØ©":5807,"ĠØ§ÙĦØ´Ø§Ø¨":5808,"ĠØ¨Ø§ÙĦÙħØ¦Ø©":5809,"ÙĦÙĤØ§Øª":5810,"ĠÙħÙĩÙĨØ¯":5811,"ĠØªÙĪØ¬ÙĬÙĩ":5812,"ĠÙĤØ±Ø±":5813,"ĠØ§ÙĦØªØ¬ÙħØ¹":5814,"ĠØ§ÙĦÙħÙĦÙģ":5815,"ÙħÙĥØ§ÙĨ":5816,"ĠØ¨Ø¹Ø¯Ùħ":5817,"ĠÙĤÙĪØ§Ø¹Ø¯":5818,"ÙĬÙĨÙĩ":5819,"ĠÙģØ§Øª":5820,"ĠØ§ÙĦÙħÙĤØ±Ø±":5821,"ĠØ¨Ø¹Ø¶ÙĩÙħ":5822,"Ġ2005":5823,"ĠÙħØ§Ø²":5824,"ĠØ£Ø´Ø®Ø§Øµ":5825,"ÙĪÙĬÙħ":5826,"ĠØªØ·Ø¨ÙĬÙĤØ§Øª":5827,"ĠÙĥÙĪØ±":5828,"Ø²ÙĪ":5829,"ĠØ¨Ø§ÙĦÙģØ¹ÙĦ":5830,"ĠØ§ÙĦØ£ÙħÙĪØ§ÙĦ":5831,"ĠFor":5832,"ĠÙħØµØ§ÙĦØŃ":5833,"ĠØ§ÙĦØ§ÙħØ§Ø±Ø§Øª":5834,"Ø¨ÙĬØ¹Ø§Øª":5835,"ĠØ§ÙĦØ³Ø¤Ø§ÙĦ":5836,"Ø§Ø¯ÙĦØ©":5837,"Ø¨ÙĪØ±":5838,"ĠÙĦÙĦØ²":5839,"ĠØ§ÙĦÙħØµØ±ÙĬÙĬÙĨ":5840,"Ø¹ÙħØ±":5841,"ĠØ§Ø±ØªÙģØ¹":5842,"ĠØ²ÙĬØ¯":5843,"ĠØ¬Ø¨ÙĦ":5844,"Ø±Ø¨Øª":5845,"ĠØªÙħÙĪ":5846,"ØµØ¯Ø±":5847,"ĠÙĪØ¹Ùħ":5848,"ĠThe":5849,"ĠØ§ÙĦÙħÙĬ":5850,"ÙĨØ§Ø¦ÙĬ":5851,"ĠØ§ÙĦØ§ÙħØª":5852,"ĠØ§ÙĦØŃØ¯ÙĬØ¯":5853,"ĠØ¢Ø«Ø§Ø±":5854,"ĠØ§ÙĦØ£ÙĥØ¨Ø±":5855,"Ø³Ùĩ":5856,"ĠÙħØµÙĦØŃØ©":5857,"ĠØ§ÙĦÙĥÙĦÙĬØ©":5858,"ĠØ£Ø¬Ø±":5859,"ĠØ´Ø¯ÙĬØ¯":5860,"ĠØ§ÙĦÙħØºØ±Ø¨ÙĬØ©":5861,"ĠÙĤØ±Ø§Ø±Ø§Øª":5862,"ĠØ¨Ø§ÙĦÙĩ":5863,"ĠØ§ÙĦØ§Ø¯Ø§Ø±Ø©":5864,"ĠØ¨ÙĬÙĨÙĩÙħØ§":5865,"ĠØ¢ÙĨ":5866,"ĠØ®Ø·ÙĪØ©":5867,"ĠØ§ÙĦØ´Ø±ÙĬÙģÙĬÙĨ":5868,"ĠÙħØŃØ·Ø©":5869,"ĠÙĦÙĦØºØ§ÙĬØ©":5870,"ĠØ§ÙĦØŃÙħØ¯":5871,"ĠØ§ÙĦØ·Ø¨ÙĬ":5872,"ØªØ§Ùħ":5873,"ĬÙĪÙħØ§ÙĥØ³":5874,"ĠØ§ÙĦØ£Ø³Ø¹Ø§Ø±":5875,"Ø§Ø³Ø¹":5876,"ĠØ§ÙĦØ§ÙĨÙĤ":5877,"ĠØ§ÙĨØ¯":5878,"ĠØ§ÙĦØµÙĬÙĨÙĬØ©":5879,"ĠØ¨Ø±Ø´ÙĦÙĪÙĨØ©":5880,"ĠÙħØªØ®ØµØµØ©":5881,"Ø§ÙħÙĨØ§":5882,"Ø·ÙĪØ±Ø©":5883,"ĠØ§ÙĦØ¨Ø¹":5884,"ĠØ§ÙĦØ±Ø³Ø§ÙĦØ©":5885,"ĠØ´ÙĩØ¯Øª":5886,"ØºÙĪØ·":5887,"ĠØ§ÙĦÙħØ±ÙĥØ²ÙĬØ©":5888,"ĠÙĬØµØ¨ØŃ":5889,"ĠÙĬØ¨ØŃØ«":5890,"ÙĪÙĦÙĪØ¬":5891,"Ø´Ø§Ø¨":5892,"ĠØ¥Ø¬Ø±Ø§Ø¡Ø§Øª":5893,"ĠØ§ÙĦØ±Ø¯":5894,"ĠÙĤØ¨ÙĬÙĦØ©":5895,"ĠØ³ÙĦØ§Ùħ":5896,"ĠØ§ÙĦØ¨ÙĪ":5897,"ĠØ±Ø³Ø§Ø¦ÙĦ":5898,"ĠÙĥØ§ÙĨÙĪÙĨ":5899,"ĠØ¹Ø³ÙĥØ±ÙĬ":5900,"ĠÙħØ·Ø¹Ùħ":5901,"ĠØ§ÙĦØ§Ø³ØªØ±":5902,"ĠØ§ÙĦÙĩÙĨØ¯Ø³Ø©":5903,"ĠØ§ÙĦÙħØªÙĤ":5904,"Ø§ØŃÙĩ":5905,"ĠÙħÙĨØªØ¬Ø§Øª":5906,"ĠØ§ÙĦØ´ÙĬÙĪ":5907,"Ø¶ÙĬØ©":5908,"ĠØ§Ø³Ø¹Ø§Ø±":5909,"ĠØ¨Ø£Ø³":5910,"ĠØªØ¶ÙħÙĨ":5911,"ĠØ£Ø¹Ø¯":5912,"Ġ194":5913,"ĠØ®ÙĦÙĬÙģØ©":5914,"ĠØ§ÙĦØ¬ÙĩÙĪØ¯":5915,"ĠÙħØ¹ÙĨÙī":5916,"op":5917,"ĠØ§ÙĦÙħØ¯Ø±Ø¨":5918,"ĠÙħØ¤Ø´Ø±":5919,"ĠÙģØµ":5920,"ĠØªØ³Ø¨Ø¨":5921,"ÙĦÙĤØª":5922,"ĠØ£ÙĬÙĨ":5923,"ĠØ§ÙĦØ¥Ø³Ø¨":5924,"ĠÙĤÙĨ":5925,"ĦÙĦØ§Ø¹":5926,"Ø¹ÙĬÙĬÙĨ":5927,"ĠÙĪØªØ·ÙĪÙĬØ±":5928,"ĠÙģØµÙĦ":5929,"ĠØ¬ÙĦØ¨":5930,"ĠÙĪÙĩÙĦ":5931,"ĠAM":5932,"ØªØµØ±":5933,"ĠØ§ÙĦØ¥ÙĬØ±Ø§ÙĨÙĬ":5934,"ĠØ¹Ø´Ø±Ø§Øª":5935,"Ø§ÙĬÙģ":5936,"ĠØ¨ÙħÙĨØ·ÙĤØ©":5937,"ĠØ³Ø±ÙĬ":5938,"Ġ43":5939,"ĬØ·Ø±Ø©":5940,"ĠÙĪÙĦØ¹":5941,"Ø²ÙĬØ§":5942,"ĠØ§ÙĦØ¬ÙħØ§Ø¹Ø©":5943,"ĠØ§ÙĦÙħØ«Ø§ÙĦ":5944,"ĠØ§Ø¹ØªÙħØ§Ø¯":5945,"Ġ46":5946,"Ø±ÙĥØ²":5947,"ĠØ§ÙĦØ£Ø³ÙĩÙħ":5948,"ĠØ§ÙĦØ£Ø¬ÙĨØ¨ÙĬØ©":5949,"ĠÙģÙĩÙĦ":5950,"ĠØ·ÙĪÙĦ":5951,"ĠØ§ÙĦØªÙĪÙĦÙĬÙģØ§Øª":5952,"ĠØªØ¯Ø§ÙĪÙĦ":5953,"ÙĦÙĦØ§Ø¹":5954,"ØªÙĪÙĨ":5955,"ĠÙĦÙħÙĪ":5956,"ĠÙĦÙĦØ§Ø¹":5957,"ĠÙĤÙĬÙħØª":5958,"ĠÙĦÙĪØ²":5959,"ĠØ§ÙĦØ¨Ø±ÙĬØ·Ø§ÙĨÙĬ":5960,"Ø§Ø§":5961,"ĠØ´Ø¹Ø§Ø±":5962,"ÙĪØ¯Ùĩ":5963,"ĠØ§ÙĦØ«ÙĤØ©":5964,"ĠØ§ÙĦØ®ÙĦÙģ":5965,"ĠØ§ÙĨØªØ´Ø§Ø±":5966,"ĠØ§ÙĦØŃÙĤÙĬÙĤÙĬ":5967,"ĠØ§ÙĦØ¨Ø§ÙĦØº":5968,"ĠÙĤØ±ÙĬØ¨Ø§":5969,"one":5970,"ĠØ¢Ø°Ø§Ø±":5971,"ĠØ§ÙĦØ´ÙħØ§ÙĦ":5972,"ÙĤØªÙĩØ§":5973,"Ø§ÙĥØ±Ø©":5974,"ĠØ§ÙĦÙĤÙĪØ§ÙĨÙĬÙĨ":5975,"ĠØ§ÙĦÙĩÙĪØ§Ø¡":5976,"ĠØ§ÙĦØ³ÙĬØ·Ø±Ø©":5977,"ĠØ¬Ø±ÙĬØ¯Ø©":5978,"ĠÙĨÙĤØ¯Ùħ":5979,"ĠÙħØ³Ø£ÙĦØ©":5980,"ÙĥÙī":5981,"ĠÙģØ®":5982,"Ø§ÙĦÙĬØ¨":5983,"ØªØ¹":5984,"Ø§Ø³ÙĦ":5985,"ÙĥØ±Ø±":5986,"ĠØ§ÙĦÙģÙĤ":5987,"ĠØ§ÙĦØ£ÙħØ±Ø§Ø¶":5988,"Ø¬Ø§Ø²Ø§Øª":5989,"ĠØ³ÙĪØ±Ø©":5990,"ĠÙĬÙĩÙħ":5991,"ĠØ®Ø§Ø´ÙĤØ¬ÙĬ":5992,"ĠØ¬Ø°":5993,"ĠÙĦÙĬØ±Ø©":5994,"ĠØ§ÙĦØ³ÙħØ§Ø¡":5995,"ĠÙĬØ¬Ø¯":5996,"ĠØ§ØŃØ¯Ø«":5997,"ĠØ´Ùģ":5998,"Ġ41":5999,"ÙĪÙħÙĩ":6000,"Ø§ØµÙĬ":6001,"ĠØ³ÙĤÙĪØ·":6002,"ĠÙĪØ±ÙĪ":6003,"ĠÙĦÙĪÙĨ":6004,"Ø§ÙĨØ¯":6005,"ĠØ§ÙĦÙĩØ¬ÙĪÙħ":6006,"ĠØ§ÙĦÙĬÙħÙĨÙ":6007,"ĠØ§ÙĦÙĬÙħÙĨÙĬ":6008,"ĠØ¨Ø²ÙĬØ§Ø±Ø©":6009,"ĠØ§ÙĦØªÙĤØ¯Ùħ":6010,"ĠØ®ÙĦØ§Ùģ":6011,"ĠÙĬØªØ±":6012,"ĠØ§ÙĦÙħÙĪØ§Ø±Ø¯":6013,"ĠÙħØªØ£":6014,"ĠÙģÙĦØ§Ø´":6015,"ĠÙĬØ´Ø§Ø±Ùĥ":6016,"ĠØ§ÙĦÙĪØ§ÙĤ":6017,"ĠØ§ÙĦØ¨ØŃØ±ÙĬØ©":6018,"ĠØ§ÙĦÙĨÙĩØ§ÙĬØ©":6019,"ĠØ§ÙĦØ±ÙĬØ§Ø¶ÙĬØ§Øª":6020,"ĠØ¹ÙĦØ§ÙĤØ§Øª":6021,"ÙħÙĦÙĥØ©":6022,"ĠØ§ÙĦØ§Ø¶":6023,"Ø·Ø±ÙĬØ©":6024,"Ø§Ø¯ØªÙĩ":6025,"ĠØªØ¶Ùħ":6026,"ĠØ§ÙĦØ·Ø¨ÙĬØ¨":6027,"ĠÙħØ¶ÙĬÙģØ§":6028,"Ø±ÙĪÙĤ":6029,"Ø°ÙĬØ¨":6030,"ÙĪÙģØ§":6031,"ĠØ±Ø£Ùī":6032,"ĠÙĥØ´ÙģØª":6033,"Ø¹ÙĪØ¨Ø©":6034,"ĠØ§ÙĦØ¶ÙĪØ¡":6035,"ĠØ·Ø§Ø±ÙĤ":6036,"ĠØ§ÙĦÙħÙĦÙĥÙĬØ©":6037,"ĠØ§ÙĦÙħØ§Ø¦Ø©":6038,"Ø§Ø¶Ø±Ø§Øª":6039,"ĠØŃØ§Ø¬":6040,"ĠØ§Ø³ØªØ·Ø§Ø¹":6041,"ĠÙĪØ¬ÙĦ":6042,"ĠØ§ÙĦØ¹Ø¯ÙĪ":6043,"ÙĥØ§Ø¯ÙĬÙħÙĬØ©":6044,"ĠÙĬØŃØ§ÙĪÙĦ":6045,"ĠØ·Ø¨ÙĬØ¨":6046,"ĠÙģØ§ÙĦÙħ":6047,"ÙĪÙĬÙĪØ±Ùĥ":6048,"ÙĬÙħÙĪÙĤØ±Ø§Ø·":6049,"ĠØ£Ø¨Ø¯Ø§":6050,"ĠØ§ÙĦØ¶ØŃ":6051,"ÙĪØ¯Ø§":6052,"ĠØ¯ÙĬÙ":6053,"ĠØ¢Ø®Ø±ÙĬÙĨ":6054,"ĠØ£ÙĥØ¯Øª":6055,"ÙĥÙĩ":6056,"Ġ65":6057,"ĠØ§ÙĦÙħØ³ØªØ´ÙģÙī":6058,"ĠØ§ÙĦÙĨÙĪÙħ":6059,"ĠÙģØ±Ø§ÙĨ":6060,"Ø®ØµÙĬ":6061,"ĠÙħØ¹Ø§ÙĦØ¬Ø©":6062,"ĠÙĨÙģØ³ÙĬ":6063,"ĠÙħÙĨØ²ÙĦ":6064,"ĠØªØŃØ³ÙĬÙĨ":6065,"ĠØ¨ÙĦØ¯Ø©":6066,"ĠØ²Ø§Ø¦Ø±":6067,"ĠØ§ØŃØªÙģ":6068,"ĠØ§ÙĦÙĦØ¹Ø¨Ø©":6069,"ĠÙħØ¹Ø§ÙĦÙĬ":6070,"ĠÙĨÙĬØ³":6071,"ĠØ§ÙĦØ´ÙĩÙĬØ¯":6072,"Ø±ÙĤÙĬØ©":6073,"ĠØ²Ø§ÙĬØ¯":6074,"ÙħØ±Ø§Ø¡":6075,"ĠÙĥÙĪÙħ":6076,"ĠØ§ÙĦØ²ÙĬØª":6077,"ĠØªØ¹ÙĦÙĨ":6078,"ĠØ§ÙĦØ¬ÙħÙĩÙĪØ±":6079,"ĠÙĪØ§ÙĦØ§ØŃ":6080,"Ø«ÙħØ±ÙĬÙĨ":6081,"ĠØ§ÙĦØ§Ø³Ø±Ø§Ø¦ÙĬÙĦÙĬ":6082,"ÙħØ¨Ø±":6083,"ĠØ¬Ø±Ùī":6084,"ĠØ§ÙĨÙĪØ§Ø¹":6085,"ĠØ¬ÙĦØ³":6086,"ĠØ¨Ø¶":6087,"ĠØ§ÙĥØ¨Ø±":6088,"ĠØ§ÙĦØ´Ø§Ùħ":6089,"ĠÙĬØ¯Ø®ÙĦ":6090,"ĠØ§ÙĦØ¥Ø¹ÙĦØ§ÙħÙĬ":6091,"ĠØ§ÙĦØ³ÙĦÙģ":6092,"ĠØ§ÙĦÙĦØ§Ø¬Ø¦ÙĬÙĨ":6093,"ÙĪÙĬØ´":6094,"ĠÙĦØªØ±":6095,"ĠØ¨ÙĤÙĦÙħ":6096,"ĠÙħØ§Ø±Ùĥ":6097,"ĠØ§ÙĦØŃÙħÙĦØ©":6098,"Ø³ÙĬØ¯":6099,"ĠØ§ÙĦÙĨÙĪØ±":6100,"ĠØªØ´ØºÙĬÙĦ":6101,"ĠÙĪØ§ÙĦØ±ÙĬØ§Ø¶":6102,"ĠØªÙĪØ¸ÙĬÙģ":6103,"ment":6104,"ĠØ¨ÙĤÙĬÙħØ©":6105,"ØŃÙĦÙĪÙĦ":6106,"Ø§ØªÙĦ":6107,"ĠØ§ÙĦÙĤÙĪÙħÙĬ":6108,"ĠØ°ÙĥØ±Øª":6109,"ÙģØªØ§Ø¡":6110,"Ø§Ùī":6111,"ĠØªÙĪÙĤÙĬØ¹":6112,"ÙĦÙĥÙħ":6113,"ĠØ§ÙĦÙħÙĪØ§ÙģÙĤ":6114,"ĠØ§ÙĦÙĥÙĩØ±Ø¨Ø§Ø¦ÙĬØ©":6115,"ĠØ¥ÙħÙĥØ§ÙĨÙĬØ©":6116,"ĠØ§ÙĦÙĤÙħØ±":6117,"ĠØ§ÙĦØºØ±Ø¨ÙĬ":6118,"ĠØ§ÙĦØ³ÙĦØ§ØŃ":6119,"ĠÙĦÙĦØ§Ø³":6120,"ĠØ§ÙĦØ§Ø®Ø±Ùī":6121,"ĠØ¨ØŃØ§Ø¬Ø©":6122,"ĠØ¹ÙĦÙħØ§Ø¡":6123,"ĠØ³ÙĬØ¹":6124,"Ġ47":6125,"ĠØ§ÙĦØ¥ØµÙĦØ§ØŃ":6126,"Ø·ÙĦØ¹":6127,"ĠØ§ÙĦÙģÙĤÙĩ":6128,"ĠØ§ÙĦØ±Ø¨ÙĬØ¹":6129,"ĠØ³Ø¨ØŃØ§ÙĨÙĩ":6130,"ĠØ§ÙĦÙĨØ´Ø±":6131,"ĠØ§ÙĦØ¨ÙĬØ¹":6132,"ĠØ¥Ø¶Ø§Ùģ":6133,"Ø´ÙĬØ§Ø¡":6134,"ĠØ§ÙĦØ³ÙĥØ§ÙĨ":6135,"ĠÙĦØ¥ÙĨ":6136,"ĠÙĪØ§Ø¶ØŃ":6137,"ĠØ§ÙĦÙħØ¤ÙħÙĨÙĬÙĨ":6138,"ĠÙĥÙĩØ±Ø¨":6139,"ĠØ§ÙĦÙħØ±Ø©":6140,"ÙħØ§Ùĥ":6141,"ĠØªØ¯Ø±ÙĬØ¨":6142,"ĠØ¶Ù":6143,"ĠØªØ´ÙħÙĦ":6144,"ĠØ§ÙĦØªØ¹Ø¨ÙĬØ±":6145,"ĠØ§ÙĦÙħØ®Øª":6146,"ĠØ¹ÙĨÙĩÙħ":6147,"ĠØªØµÙĪÙĬØ±":6148,"ħÙĦØ§Ø¨Ø³":6149,"ĠØ§ÙĦØ¬ÙĦØ³Ø©":6150,"ĠØ§ÙĨØ¹":6151,"Ø°ÙĬ":6152,"ØªØ¨Ø§Ùĥ":6153,"ĠØ§ÙĦØªØ³ÙĪÙĤ":6154,"ĠØ§ÙĦØ§ÙĨØªØ®Ø§Ø¨ÙĬØ©":6155,"ØªÙħØ§ÙĦ":6156,"ĠØ¨Ø§ÙĦÙĤØ±Ø¨":6157,"Ø®Ø§ÙĦ":6158,"ĠØªØ¨ÙĤÙī":6159,"ĠÙĪØ§ÙĦØ£Ø³":6160,"ĠØ°Ù":6161,"ĠÙĬØ¯ÙĬ":6162,"ĠØ£ÙĦØ¹Ø§Ø¨":6163,"Ø§Ø«Ø©":6164,"ĠØ¬ÙĬØ´":6165,"ÙĬÙħØ§Øª":6166,"Ø§Ø¯ÙĬØ§":6167,"ĠØ¨ÙĦÙĪ":6168,"ĠØ§ÙĦÙĪØ¸Ø§Ø¦Ùģ":6169,"ÙĦØ³ÙĬ":6170,"ĠQ":6171,"ĠÙĥØ§ÙģÙĬØ©":6172,"ĠØ§ÙĦÙĥÙĪ":6173,"ĠØ§Ø¹Øª":6174,"ĠØ§ÙĦØ¨ÙĨÙĪÙĥ":6175,"ĠÙħÙĨØªØµÙģ":6176,"ÙĤÙĬÙģ":6177,"ĠÙħÙħØ§Ø±Ø³Ø©":6178,"ĠÙħÙĬØ±":6179,"ĠÙħØªÙĨÙĪØ¹Ø©":6180,"ĠØ¨Ø¹Ø¶ÙĩØ§":6181,"ĠÙĤÙħØ©":6182,"ĠØ§ÙĦØ³ÙĥØ±":6183,"Ø®ØµØµÙĬ":6184,"ÙħÙĦØ§Ø¨Ø³":6185,"ĠØ³ÙĬÙĤ":6186,"ĠØªØªØ¹ÙĦÙĤ":6187,"ĠØ§ÙĨØªØ®":6188,"ĠØªØ£Ø³ÙĬØ³":6189,"ĠØ§ÙĦÙħØªÙĪÙĤØ¹":6190,"ĠÙĪÙĩÙī":6191,"ĠÙĪØ³ÙĪÙģ":6192,"ĠÙĬØŃØªÙĪÙĬ":6193,"ĠØ§Ø³ÙħÙĩ":6194,"ĠÙĥØ±ÙĬÙħ":6195,"ĠÙħØªÙĪ":6196,"ĠØ§ÙĦØ¯ÙĬÙĥ":6197,"ĠØ£ÙĪØ¶ØŃ":6198,"ĠØ§ÙĦÙĦÙĪÙĨ":6199,"ĠÙĪØ¬Ø¯Øª":6200,"ĠÙĩØ´":6201,"ĠØ§ÙĦØ¹Ø¯Ø§ÙĦØ©":6202,"ĠØªØŃÙĪÙĬÙĦ":6203,"ĠÙĪØ§Ø®ØªØ¨Ø§Ø±Ø§Øª":6204,"ĠØ±ØŃÙĦØ©":6205,"ĠØ§ÙĦØªØŃÙĥÙħ":6206,"ĠØ§ÙĦÙħÙĨØªØ¬":6207,"ĠØ¨ÙĤÙĪØ©":6208,"ers":6209,"ĠÙħØ¹ÙĬÙĨ":6210,"Ø®ÙĦØµ":6211,"ĠØ§ÙĦØŃØ±Ø§Ø±Ø©":6212,"ĠÙħÙĪØ¬ÙĪØ¯":6213,"Ø§ÙĦÙħØ§":6214,"ess":6215,"ØŃÙĬÙĦ":6216,"ĠØ§ÙĦØ²Ø±Ø§Ø¹Ø©":6217,"ĠØ§ÙĦØ±Ø§Ø¨Ø·":6218,"Ø±ÙħÙī":6219,"ĠØªØ¹ÙĬÙĬÙĨ":6220,"ĠØ´ØŃÙĨ":6221,"ĠØªØµØ¯Ø±":6222,"ĠØ¨Ø§ÙĦØªØ¹":6223,"ĠÙĪØ§Ø±":6224,"ĠØ¨Ø§ÙĤÙĬ":6225,"Ø§ÙĦØ¨Ø©":6226,"ĠÙĬØªØŃØ¯Ø«":6227,"ĠØ¹ÙĬØ³Ùī":6228,"ind":6229,"ÙĬÙĪØª":6230,"ĠØ·Ø¨ÙĬØ©":6231,"ÙĪØ§Ø¬ÙĩØ©":6232,"ĠØ§ÙĦØ¥ÙĨØ¬ÙĦÙĬØ²ÙĬØ©":6233,"ĠÙħÙĬØª":6234,"ĠØ§ÙĦÙħØ¹ÙĨÙĬØ©":6235,"ĠÙħÙĬÙĨ":6236,"ĠÙĬÙħÙĨØ¹":6237,"ĠÙĪØµÙĪÙĦ":6238,"ĠÙĥØ£":6239,"Ø¯Ø±ÙĬØ¨":6240,"ĠØªÙĪÙĬØªØ±":6241,"ÙĦÙĪØ¨Ø©":6242,"Ø§ÙĨÙĪ":6243,"ĠØ§ÙĦØ£Ø·Ø±Ø§Ùģ":6244,"ĠØªØ¤ÙĥØ¯":6245,"ØµÙĦØ©":6246,"ĠÙħÙĦØ§Ø¨Ø³":6247,"ĠØ±ØºØ¨Øª":6248,"ĠØŃÙĦÙħ":6249,"ER":6250,"ÙĦØ²Ùħ":6251,"pt":6252,"ĠÙĤÙĪÙī":6253,"ĠØ§ÙĦÙĨØ§Øª":6254,"ĠÙĬØ¹ØªÙĤØ¯":6255,"ĠØ¨ÙĤÙĬØ§Ø¯Ø©":6256,"ĠØ±Ø¦Ø§Ø³Ø©":6257,"ĠÙħÙĪØ§ÙĤÙģ":6258,"ĠØ§ÙĦÙĨØ§Ø´":6259,"ĠØ§ÙĦÙĤØµØµ":6260,"ĠÙĬØŃØ¨":6261,"ĠØ§ÙĦØªÙĥÙĨÙĪÙĦÙĪØ¬ÙĬØ§":6262,"ĠØªØ§Ø¨Ø¹":6263,"ĠØªØ±ØºØ¨":6264,"ĠØ¨Ø¹Ùħ":6265,"ĠØ¹Ø¬":6266,"ĠØ¶ÙĬÙģ":6267,"ĠØªÙĬ":6268,"ĠØ±Ùĥ":6269,"ĠØ§ÙĦØ·ÙĦØ¨Ø©":6270,"ĠØªØ®Ø±Ø¬":6271,"Ø§Ø±Ø¬ÙĬ":6272,"ĠØ¥Ø«Ø±":6273,"Ø§Ø±ÙĬÙĥ":6274,"ĠÙĦÙĦÙħØ´Ø§Ø±ÙĥØ©":6275,"ĠØ¨Ø§ÙĦÙĥØ§ÙħÙĦ":6276,"Ø·ÙĦØŃ":6277,"Ø«ÙĬÙĤØ©":6278,"ĠÙħØ±ÙĬ":6279,"ĠØ¹ÙħÙĦÙĩ":6280,"ĠØ±ÙĪØ§ÙĬØ©":6281,"ĠÙĬØ³ÙħÙī":6282,"ĠØ¶ÙĪØ¡":6283,"ĠØ§ÙĦÙĬÙĩÙĪØ¯":6284,"ĠØ§ÙĦØµØ§ÙĦØŃ":6285,"ĠØ§Ø®ØªØµ":6286,"ĠØºØ³":6287,"ĠØ§ÙĦØ¯Ùĩ":6288,"ĠØ¯ÙĬØ±":6289,"ĠÙĨØ·Ø§ÙĤ":6290,"ĠØ§ÙĦÙħØ¹Ø±Ø¶":6291,"ĠÙĪÙħØŃÙħØ¯":6292,"ÙĦØ§ÙĪØ©":6293,"ĠÙħÙĪØ¶ØŃ":6294,"Ø±ÙħØ¬Ø©":6295,"ĠØ§ÙĦØ·Ø§Ø¦Ø±Ø©":6296,"ĠÙĪØ·ÙĦØ¨":6297,"ħØ²ÙĬØ¯":6298,"ĠÙĪÙĪÙģ":6299,"ĠÙĪÙĬØªÙħ":6300,"ĠØ§ÙĦØ°ÙĥÙĬØ©":6301,"ÙĨÙĩØ§":6302,"ĠÙģØ§Ø¹":6303,"Ø£ØªÙĬ":6304,"Ø¸Ùī":6305,"ĠÙĦØ§ÙģØªØ§":6306,"ħØªÙĩ":6307,"ÙĩØ¬":6308,"ÙĬÙĨÙħ":6309,"ĠØºÙĬØ±Ùĩ":6310,"ĠÙģÙĨÙĬ":6311,"ĠØ§ÙĦØ¬ÙĨØ©":6312,"ĠÙĦÙĦÙħØ±Ø©":6313,"ĠÙĪØ£ØŃ":6314,"ĠÙģÙĨØ¯ÙĤ":6315,"ÙĪÙĤØ§Øª":6316,"ĠØ¨Ø§Ø®":6317,"ÙĦØ³ÙģØ©":6318,"ĠØ§ÙĦØ¬ÙĨØ³":6319,"ĠØ§ÙĦØªØ´Ø±ÙĬ":6320,"ĠØ£ÙĩÙĦØ§":6321,"ĠÙħÙħ":6322,"ĠÙħØ£":6323,"ĠØ§ÙĨØ®ÙģØ§Ø¶":6324,"Ø§Ø¦ÙĨØ§":6325,"ĠÙĪØ²Ø±Ø§Ø¡":6326,"ĠÙĪÙħØ®":6327,"ĠÙĬØ¨ÙĤÙī":6328,"ĠØ°ÙĩØ¨":6329,"ĠØ§ÙĦÙģØ±ØµØ©":6330,"ĠØ±Ùģ":6331,"ĠØ§ÙĦØ§Ø³Ù":6332,"ĠØ§ÙĦØ§ÙĨØ¬ÙĦÙĬØ²ÙĬØ©":6333,"ay":6334,"ĠØªØŃØ¶ÙĬØ±":6335,"ĠÙĪØ§ØŃØ¯Ø§":6336,"ĠØ§ÙĦÙħØ¹Ø±ÙĪÙģ":6337,"ĠØ§ÙĦØ¹ÙĤØ¯":6338,"ĠÙĩØ²":6339,"ĠØ§ÙĦÙħØ®Ø§ÙĦÙģ":6340,"ĠEn":6341,"Ø¯ÙħÙĬØ±":6342,"ĠØ§ÙĦÙħØ¨Ø§Ø±Ùĥ":6343,"ĠØ§ÙĦØ®ÙĦØ§Ùģ":6344,"ĠÙĥØªØ§Ø¨Ø©":6345,"ĠØ¸Ø§ÙĩØ±Ø©":6346,"ĠØ§ÙĦØ¬ÙĦØ¯":6347,"ĠØ§ÙĦØ§Ø³ØªÙģØ§Ø¯Ø©":6348,"ĠØ¬Ø²ÙĬØ±Ø©":6349,"ĠÙĦØŃØ¸Ø©":6350,"ĠÙħÙĪØ³Ùħ":6351,"ĠØŃØ±ÙĬØ©":6352,"ĠØ¯Ùĩ":6353,"ĠÙħØªØ¹":6354,"ĠÙĪØ§ÙĦØ§Ø®":6355,"ĠÙĪØ¹ÙĨØ¯":6356,"ĠØ´Ø§Ø¨":6357,"Ø§Ø·Ø¹Ø©":6358,"ĠØ§ÙĦØ§Ø³ØªÙĤ":6359,"ĠØªØ¨ÙĦØº":6360,"ĠØ´ÙĩØ±ÙĬÙĨ":6361,"ĠØ¯Ø§":6362,"Ø¹Ø¯Ø§Ùħ":6363,"ĠØ£ÙĤØ±Ø¨":6364,"ĠØ¨Ø±ÙĬØ¯":6365,"ĠØ§ÙĦØ®Ø²":6366,"ĠØªÙĪØ§ØµÙĦ":6367,"ĠØ§ÙĦØ³ÙĬØ¯Ø©":6368,"ĠÙħÙĨØ§Ø³Ø¨Ø©":6369,"ĠØ§ÙĦØ¯Ø±Ø§Ø³ÙĬ":6370,"ĠØ«Ø§Ø¨Øª":6371,"ĠØ§ÙĦØŃÙĬÙĪØ§ÙĨØ§Øª":6372,"ĠØ§ÙĦÙĤÙĨ":6373,"ĠÙħØ¨Ø±":6374,"ÙĬÙĬÙģ":6375,"ÙĤÙĪÙħ":6376,"ĬØ®Ø±Ø¬":6377,"Ø´ÙĬØ©":6378,"ĠØ§ÙĦÙĪÙģØ¯":6379,"ĠØ§ÙĦØ¹ÙħÙĦØ§Ø¡":6380,"ĠÙĪØ±ØºÙħ":6381,"ĠØ£ØŃÙĥØ§Ùħ":6382,"ĠØ§ÙĦØªØ®ØµØµÙĬ":6383,"ĠÙĪØ§ÙĦØ³ÙĦØ§Ùħ":6384,"Ø§ÙĥØ±":6385,"ÙģØ¹Ø§Øª":6386,"ĠØ³ÙĦØ§ÙħØ©":6387,"ĠÙĪØ§Ø¹ØªØ¨Ø±":6388,"ĠØ§ÙĦØ§ÙĬØ±":6389,"ĠØªØ±ÙĥÙĬØ¨":6390,"ÙĪØ§Ø·Ø±":6391,"12":6392,"ĠØ¨ÙĬÙĪ":6393,"ĠØ§ÙĦÙħØ·ÙĦÙĪØ¨":6394,"ĠØ«Ø§ÙĨÙĬ":6395,"ĠØ§ÙĦØ¯Ø§Ø®ÙĦ":6396,"ĠØ§ÙĦØ±Ø§Ùĩ":6397,"ĠÙĦÙħØµ":6398,"ĠØ¨ÙħØŃØ§ÙģØ¸Ø©":6399,"ĠØ¥ØµØ¯Ø§Ø±":6400,"Ø´ÙĪ":6401,"Ø¸Ø§ÙĩØ±":6402,"ĠØ§ÙĦÙĪØ«":6403,"ĠØ§ÙĦÙĨÙĪÙĪÙĬ":6404,"ĠÙĪØ£Ø¨":6405,"ÙħØ²ÙĬØ¯":6406,"ÙĪØ±ÙĬÙĨ":6407,"ÙĬØ®Ø±Ø¬":6408,"Ø·Ø§":6409,"ĠØ§ÙĬØ±Ø§ÙĨ":6410,"ĠÙĬØ®Ø±Ø¬":6411,"ĠØ§ÙĦØ±Ø´":6412,"ØªØ±ÙĬ":6413,"ÙĤÙĬØ¯Ø©":6414,"ĠØ§ÙĦÙħØ±ÙĬØ¶":6415,"ĠØ§ÙĦØ¨Ø§Ø±":6416,"ĠØªØ¹ÙĬØ´":6417,"ĠÙħØ³Ø±ØŃ":6418,"ĠØŃØ¬Ø±":6419,"ĠØ£Ø·ÙģØ§ÙĦ":6420,"ĠØ¬Ø§ÙĨØ¨Ùĩ":6421,"ÙĬØ¶Ø§":6422,"ĠÙħÙĬÙĥ":6423,"ĠØ§ÙĦÙĥÙĬÙħÙĬ":6424,"ĠÙĬÙĪØªÙĬÙĪØ¨":6425,"Ø´Ø§Øª":6426,"ĠØ§ÙĦØ¨ØªØ±":6427,"ĠØ§ØªÙģØ§ÙĤÙĬØ©":6428,"ĠÙĪØªÙĥ":6429,"ĠÙĬÙĤØ§ÙĦ":6430,"ÙģØ±Ø§Øª":6431,"ĠØ³ÙĨÙĪÙĬØ§":6432,"ÙĩØ²Ùĩ":6433,"Ø£ÙĥÙĬØ¯":6434,"ĠÙħØ³ÙĦØ³ÙĦØ§Øª":6435,"ĠÙĦØªØµØŃÙĬØŃ":6436,"ĠØ§ÙĦØ§Ø¹ÙĦØ§Ùħ":6437,"Ø¶Ø±ÙĪØ±Ø©":6438,"ĠÙģØ´":6439,"Ø±ÙħÙĬ":6440,"ĠØŃÙĦØ¨":6441,"ĠÙĦØ¨Ø¹Ø¶":6442,"ĠÙĤØ±Ø±Øª":6443,"Ø§ÙĩÙĦ":6444,"ĠÙħØ³Ø§Ø¨ÙĤØ©":6445,"ĠØµØ¨":6446,"Ġ49":6447,"ĠØ§ÙĦÙĤØ±Ø§Ø¡Ø©":6448,"ĠØªØªØ±":6449,"ĬØ¶Ø¹":6450,"ØªØ±Ø§ØªÙĬØ¬ÙĬØ©":6451,"ĠØ§ÙĦÙĤØµØ©":6452,"ĠÙĪØµÙ":6453,"ĠØ£Ø®Ø±":6454,"ÙĬØ¶Ø¹":6455,"ĠØ§ÙĦØ±ÙħØ¶":6456,"ĠÙĬØ¶Ø¹":6457,"ĠØ§ÙĦØ¥Ø¹ÙĦØ§ÙħÙĬØ©":6458,"ĠØ§ÙĦØ²ÙħØ§ÙĦÙĥ":6459,"ĠØ§ÙĦØŃØ´Ø±Ø§Øª":6460,"ĠØ°ÙĪ":6461,"ÙĥÙĬÙĩ":6462,"Ø¯Ø§Ùģ":6463,"Ø±Ø¹Ø©":6464,"ĠØ£ØŃÙĬØ§ÙĨØ§":6465,"ce":6466,"ĠØ§ÙĦØ¥Ø´":6467,"ĠØ§ÙĦØ¨ÙĦØ¯Ø§ÙĨ":6468,"Ø³ÙħÙĪ":6469,"ĠÙĦÙĦÙħØ¯":6470,"ĠÙħØ²ÙĬØ¯":6471,"ĠØ§ÙĦÙĬÙħ":6472,"ĠØ¹Ø§ÙĦÙħÙĬØ©":6473,"ĠØ§ÙĦÙħÙĩÙĨØ¯Ø³ÙĬÙĨ":6474,"ĠÙħÙĨØ³":6475,"ĠØ¯ÙĪÙĦÙĬØ©":6476,"ĠØ±Ø³ÙħÙĬØ§":6477,"ĠØ§ÙĦØ®Ø±ÙĪØ¬":6478,"ĠØ§ÙĦØ£Ø¯Ø¨ÙĬØ©":6479,"ĬÙĪØ±ÙĪ":6480,"ĠØ¨ÙĤÙĬØ©":6481,"ĠØªØ³Ø¹Ùī":6482,"Ġ][":6483,"ĠØªÙĪÙĤÙģ":6484,"ĠØ§Ø¹ØªÙĦØ§ÙĦ":6485,"ĠØ§ÙĦØªÙĬØ§Ø±":6486,"ĠÙĪØªØŃØ¯ÙĬØ¯":6487,"Ġ250":6488,"Ø°Ø§Ø¨":6489,"ØºØ§ÙĨØ³ØªØ§ÙĨ":6490,"Ø§Ø²ÙĨØ©":6491,"ĠØ¨ÙĪÙĥ":6492,"ĠÙħÙĨÙĥ":6493,"ĠÙħØ´Ø§Ø±ÙĥØ§Øª":6494,"ĠÙĨÙĬÙĪÙĬÙĪØ±Ùĥ":6495,"Ø²Ø²":6496,"ĠØ§ÙĦÙĨÙĩØ§Ø¦ÙĬØ©":6497,"ØµØ§Øª":6498,"ĠØ§ÙĦØ³Ø§ØŃØ©":6499,"ÙĬÙģØ©":6500,"ĠØ§ÙĦÙħÙĨØ´ÙĪØ±Ø©":6501,"ĠØ§ÙĦÙĤØ§Ø¶ÙĬ":6502,"ĠØ§ÙĦØªØ¯Ø§ÙĪÙĦ":6503,"ÙĨØ¯Ø§Øª":6504,"ĠØ§Ø¬ØªÙħØ§Ø¹ÙĬØ©":6505,"ĠÙĨØ¸Ùħ":6506,"ĠØ§ÙĦØ±Ø¦Ø§Ø³Ø©":6507,"ĠØ§ÙĦØ³ÙĪÙĬØ¯":6508,"Ø³Ø¨ÙĤ":6509,"ĠÙĪØ§ÙĦØªØ³":6510,"ÙĬÙħÙĬÙĨ":6511,"ĠÙĪØ²ÙĬ":6512,"ÙĪÙĨØ¬":6513,"ĠÙĪÙĩÙĥØ°Ø§":6514,"ĠÙĦÙĦØ«":6515,"ĠØ§ÙĦØ·ÙĤØ³":6516,"Ġ52":6517,"ĠØ¥Ø³ÙħØ§Ø¹ÙĬÙĦ":6518,"Ø¬Ø²Ø§Ø¡":6519,"ĠØ§ÙĦØ¹ÙĨØ§ÙĬØ©":6520,"ĠÙĤØ§ÙĨÙĪÙĨÙĬØ©":6521,"ĠØªØ±ØªÙĬØ¨":6522,"ĠÙĨÙģØ³Ùĥ":6523,"ĠÙĪØ£ÙĬØ¶Ø§":6524,"ĠØ§ÙĦØ¹ÙĤÙĪØ¨Ø§Øª":6525,"ĠØ§ÙĦÙħÙĦØªÙĤÙī":6526,"ĠÙħØ³Ø¨":6527,"ĠØ¸Ø±ÙĪÙģ":6528,"ĠØ§ÙĦØ¯ÙĬÙĨÙĬ":6529,"ĠØªÙĨÙħÙĬØ©":6530,"Ø²ÙĪØ¬":6531,"ÙĬÙĪØ±ÙĪ":6532,"ĠØ§ÙĦØ®Ø·Ø§Ø¨":6533,"ĠÙĪØ§ÙĦØ³Ù":6534,"ĠÙĬÙĪØ±ÙĪ":6535,"ĦÙĦØ§ÙĨ":6536,"ĠØ£Ø³Ø¨ÙĪØ¹ÙĬÙĨ":6537,"ĠÙĬØ¯Ø¹ÙĪ":6538,"ÙģÙĬØ¹":6539,"ist":6540,"ĠØ¨ÙģØ¶ÙĦ":6541,"Ø§ÙĬÙĪ":6542,"Ø·ÙĬÙĨ":6543,"¶Ø§ÙģØ©":6544,"ØŃÙĬÙĨ":6545,"ĠØ§ÙĦÙģØ¶Ø§Ø¦ÙĬØ©":6546,"ĠØ§ÙĦØ§ÙĦÙĥØªØ±ÙĪÙĨÙĬØ©":6547,"ØºØ§":6548,"Ø¹ÙĦØ§ÙĨ":6549,"ĠØ§ÙĦØ¹Ø¬":6550,"ĠÙĦØ¨ÙĨ":6551,"ĠÙĦØ¹Ø¨":6552,"Ø§ØµÙģØ§Øª":6553,"ĠØ§Ø±ØªÙĥ":6554,"ĠØ§ÙĦÙĥØ§ÙħÙĦØ©":6555,"ĠØ§ÙĦØ¹Ø§Ø¦":6556,"ĠÙħØ±Ø´ØŃ":6557,"ĠØ£ÙĨÙģØ³ÙĩÙħ":6558,"ĠÙĪØ°":6559,"ÙģÙĬØ³":6560,"ĠØ§ÙĦØ³Ø¹Ø±":6561,"ust":6562,"Ø·Ùĩ":6563,"ĠÙĪØ§ÙĦÙħØ®":6564,"ĠÙĬØ´Ø±Ùģ":6565,"ĠØ¥ÙĦÙĩ":6566,"ĠØ¥Ø«":6567,"ĠØ§ÙĦØ¹ÙĬØ¯":6568,"ĠØ§ÙĦÙĤØ±Ø§Ø±Ø§Øª":6569,"ob":6570,"ĠØªØ¹Ø§ÙĪÙĨ":6571,"ÙĬÙĥÙĬØ©":6572,"ĠØ§ÙĦÙĨÙĬÙĦ":6573,"ĠÙĪØ§Ùħ":6574,"ĠØ¢Ø¨":6575,"Ø¹ÙĪØ©":6576,"ĠØ±ÙĤ":6577,"ĠØ§ÙĦØŃØ§Ø¬":6578,"ÙĦÙĦØ§ÙĨ":6579,"ĠÙĦÙĦØ§ÙĨ":6580,"ĠÙĦØ¯Ø¹Ùħ":6581,"ĠØ·ÙĬØ¨":6582,"ÙĩØ±Ø©":6583,"ĠØ§ÙĦÙħÙĥØªØ¨Ø©":6584,"ĠÙħØ¬Ø§ÙĨÙĬØ©":6585,"ĠØ§ÙĦÙĨØ¬":6586,"ĠØ±ÙĪØ¨ÙĬØ©":6587,"ĠÙĪØ§ÙĦØ§Ø¨":6588,"ÙĤÙĪØ¨":6589,"ĠÙĤØ¯Ø±Ø©":6590,"Ø¨Ø¹Ø§Ø¯":6591,"ĠÙĪØ£Ø¶Ø§ÙģØª":6592,"ĠØ§ÙĦØŃØµ":6593,"ĠØ§ÙĦÙħÙĦÙĬ":6594,"ĠØ§ÙĦØªØ´ØºÙĬÙĦ":6595,"ÙĥØ§Ø¡":6596,"ĠØ£Ø±Ø§Ø¯":6597,"ĠØ§ÙĦØªÙģÙĥÙĬØ±":6598,"Ø´Ø¨":6599,"ÙĦÙĬÙĬÙĨ":6600,"ĠØ§ÙĦØªØ£ÙħÙĬÙĨ":6601,"ĠØ¬Ø²Ø¡Ø§":6602,"ĠØ¨Ø®ØµÙĪØµ":6603,"ÙħÙĪÙĦ":6604,"ĠØ¹Ø§ÙħÙĦ":6605,"Ø¬Ø§Ø¨Ø©":6606,"ĠØ®ÙĦØ§ÙĦÙĩ":6607,"Ø§ÙĨÙĬÙĩ":6608,"ĠØ§ÙĦÙħÙģØ§ÙĪØ¶Ø§Øª":6609,"Ø§ÙģØ§":6610,"Ġremoval":6611,"ĠØ£ØŃØ¨":6612,"ĠÙħØ¨ÙĦØº":6613,"ĠÙĦÙĬÙģ":6614,"ØªØ¨Ùĩ":6615,"ĠØ§ÙĦØŃÙħØ§ÙĬØ©":6616,"ÙĨØªÙĩ":6617,"ĠÙĬØ´Ø¹Ø±":6618,"Ø±ÙĥØ§ÙĨ":6619,"ĠÙħØŃØªÙĪÙī":6620,"ÙĩÙħÙ":6621,"ĠÙĪØ§Ø¯":6622,"iv":6623,"ĠØ§ÙĦØ¹Ø§Ø¦ÙĦØ©":6624,"ĠÙĬØ®Øµ":6625,"ĠØ§ÙĬØ¬":6626,"Ø±Ø¨Ø§ØŃ":6627,"ĠØ§ÙĦÙĪØ²ÙĨ":6628,"Ġ300":6629,"ĠØ¥ÙĦÙĥØªØ±":6630,"ĠÙĦÙĦØ¬ÙħÙĬØ¹":6631,"ĠØ§ÙĦÙĥÙĦÙħØ§Øª":6632,"ĠØ§Ø¶Ø·Ø±":6633,"ĠØªØŃÙĪÙĦ":6634,"Ø¦Ø±":6635,"ĠØ§ÙĦØ§Ø±Ø¨Ø¹":6636,"Ø®ÙħØ©":6637,"ĠØ§ÙĦØŃØ§ÙĥÙħ":6638,"ĠØ§ÙĦÙħÙĤØ¯ÙħØ©":6639,"Ø¹ÙĨ":6640,"ĠØ§ÙĦÙĪØ§ÙĤØ¹Ø©":6641,"ĠØ¨Ø¬Ø§ÙħØ¹Ø©":6642,"ĠÙĪØ¥ÙĦÙī":6643,"ĠÙĤÙĦÙĬÙĦ":6644,"ĠÙħØ³ØªÙĤØ¨ÙĦ":6645,"ĠØ§ÙĦØ§ÙĨÙģ":6646,"ĠÙĪÙĤØ¹Øª":6647,"ĠÙĬØ¹ØªÙħØ¯":6648,"ĠØ§ÙĦØªÙĪÙĨØ³ÙĬ":6649,"Ø§Ø¹Ùĩ":6650,"pp":6651,"ĠÙħØ³ÙĬØ±Ø©":6652,"ĠØµÙģØ±":6653,"ĠØ¨Ø§ÙĦÙħØ¹":6654,"Ø±ÙĬØŃØ©":6655,"ĠØ¬Ø³":6656,"ĠÙħØ¯Ø§Ø±Ø³":6657,"ĠØ§ÙĦØ³ÙĬØ§":6658,"ĠØ¨ØªØ³":6659,"ĠÙĪÙĨØª":6660,"Ġ;":6661,"ĠØªØ±Ø¯Ø¯":6662,"ĠØ§ÙĦØ£ØŃØ²Ø§Ø¨":6663,"ĠØ¨Ø§ÙĦÙħØ¯ÙĬÙĨØ©":6664,"ĠØµØ§ØŃ":6665,"ĠØ£Ø¨Ø·Ø§ÙĦ":6666,"ĠØ¨ÙĪØ³Ø¹":6667,"Ø±ÙĬØ¬":6668,"ĠÙĤÙĦÙĬÙĦØ©":6669,"Ø´Ùī":6670,"ĠØ§ÙĦØ§Ø®ÙĬØ±Ø©":6671,"ĠÙĦØªÙĤØ¯ÙĬÙħ":6672,"ĠØ¨ÙħØ³Øª":6673,"ĠØ°ÙĬ":6674,"ĠØ¹Ø¨ÙĬØ¯":6675,"Ø¬ÙĦÙĬØ²ÙĬ":6676,"ĠØ£ÙĪÙĦÙī":6677,"ĠØ§ÙĦØ²Ø±Ø§Ø¹ÙĬØ©":6678,"ĠÙħØ¹Ø¯ÙĦ":6679,"ÙĪÙģØ©":6680,"ĠØ¥Ø³Ø±Ø§Ø¦ÙĬ":6681,"Ø§Ø±ØªÙĩ":6682,"ÙħÙĬÙĬØ²":6683,"Ø¯Ø¨":6684,"ĠIn":6685,"ĠØ£ÙĪÙĨ":6686,"ĠÙĪØ¨Ø¯Ø£":6687,"Ø¨ÙĬØ§Ø¡":6688,"ĠØªØ¹ØªÙħØ¯":6689,"Ø§ÙĦØ¥":6690,"Ø§Ø´ÙĬ":6691,"ĠØ§ÙĦØ¹ÙĤÙĦ":6692,"ĠØªØ±Ùħ":6693,"ĠØ§ÙĦØ¬ÙħØ§ÙĩÙĬØ±":6694,"ĠØ§ÙĦØªØ§Ø¨Ø¹":6695,"Ø®ÙĬÙĨ":6696,"ĠÙĪÙĬÙģ":6697,"ĠØ¥Ø±Ø³Ø§ÙĦ":6698,"ĠØ§ÙĦÙħÙĪØ¬ÙĪØ¯":6699,"ħØªÙī":6700,"ĠÙĤÙĦÙĪØ¨":6701,"Ġ56":6702,"ĠØ§ÙĦØ³Ùĥ":6703,"ĠØ§ÙĦØ¹Ø±ÙĪØ¶":6704,"ÙĪÙĨØ¯":6705,"ĠÙģØ¹ÙĦØ§":6706,"ĠÙĬØ¯ÙģØ¹":6707,"ĠÙĦÙħÙĪØ§Ø¬ÙĩØ©":6708,"ĠØ§ÙĦÙħØ³Ø¤ÙĪÙĦ":6709,"Ø§ÙĥÙĨ":6710,"ĠØ®Ø¨Ø±Ø§Ø¡":6711,"ÙĦØ§Ø¦Ù":6712,"ĠØ®ÙĦÙģÙĬØ§Øª":6713,"ĠÙĪÙĦÙĥÙĨÙĩØ§":6714,"ĠâĢĻ":6715,"ĠÙĦØ§Ø¦":6716,"ĠØ§ØªØ¬Ø§Ùĩ":6717,"ĠØ§ÙĦÙĨÙĩØ§Ø±":6718,"Ø§ÙģÙĦØ©":6719,"ĠØ²ÙĬØª":6720,"ĠØŃØ§Ùħ":6721,"ĠÙĤØ§ÙĦÙĪØ§":6722,"ĠØ§ÙĦØ§ÙĨØªÙĤ":6723,"ĠØ§ÙĦØ£ÙģÙĦØ§Ùħ":6724,"ĠØ§ÙĦØªØµÙĪÙĬØ±":6725,"ĠØ³Ø·ØŃ":6726,"ĠØªØ´ÙĬØ±":6727,"ĠØ§ÙĦÙħØ¨Ø§Ø´Ø±":6728,"ĠØ¨Ø§ÙĦÙħØ§Ø¦Ø©":6729,"Ġ2004":6730,"ĠØ§ÙĦÙĬÙħÙĨÙĬØ©":6731,"ĠØ¹ÙĦÙħÙĬØ©":6732,"ĠØ§ÙĦÙħØ³Ø¦":6733,"Ø¯Ø§Ø¹":6734,"ĠØ§ÙĦØ£Ø«":6735,"ÙģÙĬØ±":6736,"ĠØ¬Ø¯ÙĬØ¯Ø§":6737,"ĠÙĦØ¹Ø¯Ùħ":6738,"ced":6739,"ĠØ£ÙģÙĦØ§Ùħ":6740,"ÙĨØ²":6741,"ØµØ±Ùģ":6742,"Ø¨ØŃØ§Ø«":6743,"Ø§ÙĩÙĬØ©":6744,"ĠØ§ÙĦØ«Ø§ÙĨÙī":6745,"ĠØ¯Ø±Ø¬Ø§Øª":6746,"ØªØ±Ø§Ø¶":6747,"ĠØ¨ØŃØ±":6748,"ØµØ±Ø©":6749,"ĠØ¨Ø§ÙĦÙĦØºØ©":6750,"ĠØ¹ÙĦØ§ÙħØ©":6751,"ĠÙĥØ³":6752,"Ø¯ÙĬÙĩ":6753,"ĠØ¶Ø±Ø¨":6754,"ĠØ§ÙĦÙħÙĩÙĨÙĬØ©":6755,"ĠØ¨ÙħÙĥ":6756,"ĠÙĥÙĬÙĦÙĪ":6757,"ĠØ³ÙĦØ§ØŃ":6758,"ÙĥÙĬÙħ":6759,"ÙĪØ§ÙĦÙī":6760,"ĠÙĦØ¯Ø±":6761,"ØªÙģØ§Ø¹":6762,"ĠØ¨Ø§ÙĦÙĬ":6763,"ĠÙħØ¹ÙĩØ¯":6764,"ĠÙĨØ¬Ùħ":6765,"ĠØ§ÙĦÙħØ´Ø§Ø±ÙĥÙĬÙĨ":6766,"ÙĪØªÙĪ":6767,"50":6768,"ĠØ§ÙĦØ´Ø±ÙĬØ¹Ø©":6769,"Ø·ÙĦØ¨Ø§Øª":6770,"ĠØ§ÙĦØ¯ÙĬÙħÙĪÙĤØ±Ø§Ø·":6771,"ĠØ§ÙĦÙħØ³Ø§Ø¹Ø¯Ø©":6772,"ĠÙĪÙĥØ£ÙĨ":6773,"ĠØ©":6774,"Ø¨Ø¹Ø©":6775,"ĠÙģØ§Ø·":6776,"ĠÙĪÙĦÙĬØ¯":6777,"ĠØ§ÙĦØªØ±ØŃÙĬØ¨":6778,"40":6779,"ØªÙĬÙģ":6780,"ĠØ§ÙĦÙĬØ§Ø¨Ø§ÙĨ":6781,"ÙĥÙĬØ§Ø¬":6782,"ĠÙĬÙĦÙĬ":6783,"§ÙĦØª":6784,"ĠØ¹ÙĤØ§Ø±Ø§Øª":6785,"ÙĩØ§Ø¨ÙĬØ©":6786,"ĠØªØ³ÙħØŃ":6787,"ĠØŃØ³Ø§Ø¨Ø§Øª":6788,"ĠÙħÙĪØ¶ØŃØ§":6789,"ĠØ¨Ø§ÙĦÙĪ":6790,"ĠÙħÙĬØ´":6791,"ĠÙĨØ§Ø±":6792,"ĠØ§ÙĦÙĤØ±ÙĬØ©":6793,"ĠØ§Ø®ØªØ¨Ø§Ø±":6794,"ĠØ£Ø´Ø§Ø±":6795,"ish":6796,"ĠØ¨Ø±Ø³":6797,"Ġ51":6798,"Ø£Ùī":6799,"Ø¸Ø§ÙĩØ±Ø§Øª":6800,"ħØªÙħÙĬØ²":6801,"ĠØ§ÙĦØ´Øª":6802,"ÙħØªÙħÙĬØ²":6803,"ĠÙħØªÙħÙĬØ²":6804,"Ø§ÙĬØ´":6805,"ĠØ´Ø±Ùģ":6806,"ĠÙĦÙĦÙħØ¤":6807,"od":6808,"ĠØ§ÙĦØ¯Ø¨ÙĦÙĪÙħ":6809,"Ø³ÙĬØ¹":6810,"ĠÙĦØ´Ø±ÙĥØ©":6811,"ĠÙħØªØ³":6812,"ĠÙĦØ¢":6813,"ĠØ·Ø±Ø§Ø¨ÙĦØ³":6814,"ĠÙħÙģØªÙĪØŃ":6815,"ĠÙģØ¦Ø©":6816,"ĠØ§ÙĦØµÙĪØªÙĬØ§Øª":6817,"ĠØªÙĤÙĦ":6818,"ĠØ§ÙĦØ§ÙħÙĬØ±ÙĥÙĬØ©":6819,"ĠØ±Ø§Ø¦Ø¹Ø©":6820,"ĠØ§ÙĦØ£Ø®Ø¶Ø±":6821,"Ø®ÙĬØ±":6822,"Ø³ØªÙĬØ±":6823,"ĠÙĥÙĦÙħØ§":6824,"ĠØ§ÙĦØ§Ø¬ÙĩØ²Ø©":6825,"ĠØ§ÙĦÙĥÙĪÙĬØªÙĬØ©":6826,"Ø§ÙģÙĦ":6827,"ĠØ¹ÙĤÙĪØ¯":6828,"ĠØ¬ÙħÙĬÙĦ":6829,"ĠØ´Ø¦":6830,"ĠØ£ØºÙĦØ¨":6831,"ĠØ±Ø¨ÙĬØ¹":6832,"Ø§Ø¶Ø©":6833,"ĠØ§ÙĦØ·Ùģ":6834,"Ġ57":6835,"ÙĬÙĤØ§Ùģ":6836,"ĠÙĨØ§Ø³":6837,"Ġpr":6838,"Ø¯ÙĬØ¹":6839,"ĠØªÙĩØ¯Ùģ":6840,"ÙħÙĨÙ":6841,"ħÙĦØ§ØŃ":6842,"ĠØ§ÙĦÙĤÙħØ©":6843,"ĠÙĦØ²Ù":6844,"ĠØªØ·ÙĪØ±":6845,"ĠØ¯Ùģ":6846,"ÙĪÙĤØ¹Ø©":6847,"Ø®ØµØ©":6848,"Ø§ÙĪØ±Ø©":6849,"ĠØ§ÙĦÙħÙĪØ¸ÙģÙĬÙĨ":6850,"ĠØ§ÙĦØ¥ØµØ§Ø¨Ø©":6851,"ĠØ§ÙĦØ³ÙĪØ¯Ø§ÙĨÙĬ":6852,"ĠÙħØ³Ø§Ø±":6853,"ĠØ³ÙĪØ¡":6854,"ĠØ§ØµØ¨ØŃ":6855,"ĠÙĪØ§Ø¬Ùĩ":6856,"ĠÙĥÙĬÙĪÙħØ§ÙĥØ³":6857,"ĠÙĪØ§ÙĦÙħØ¬ØªÙħØ¹":6858,"ĠØ§ÙĦØ±Ø¹Ø§ÙĬØ©":6859,"ĠÙħØ³Ø§Ø¹Ø¯Ø©":6860,"ĠÙģÙĦÙħØ§":6861,"ĠØ±Ø§Ø´Ø¯":6862,"ĠØªØ¨ÙĬÙĨ":6863,"ĠØŃÙĤÙĬÙĤÙĬØ©":6864,"ĠØ¨ØªÙĤØ¯ÙĬÙħ":6865,"ĠÙĪØªÙĤØ¯ÙĬÙħ":6866,"ĠØ³ÙĬÙĨØ§Ø¡":6867,"ĠØªØªØ¶ÙħÙĨ":6868,"ØŃØ§Ø«":6869,"ĠÙĪÙĬØ®":6870,"ĠØ§ÙĦÙĬÙĪ":6871,"ook":6872,"ĠÙĬÙĪØ§Ø¬Ùĩ":6873,"ĠÙĪØ§ÙĦÙħØµ":6874,"ĠØ§ÙĦÙħÙĩØ±Ø¬Ø§ÙĨ":6875,"ĠØ§ÙĦØ±ÙĪØ§ÙĬØ©":6876,"ØªØ¨Ø·Ø©":6877,"eb":6878,"ĠØ®ÙĬØ§Ø±":6879,"ĠØ§ØªØ®Ø°":6880,"ĠØ§ÙĦØ§Ø³Ùħ":6881,"ĠØ§ÙĤØ±Ø£":6882,"Ġ150":6883,"ĠÙĦÙĦÙħØª":6884,"Ø§ÙĦØ´":6885,"ĬØ¯ÙĬÙĪ":6886,"ĠØ§ÙĦÙħØ·ÙĦÙĪØ¨Ø©":6887,"ĠØ§ÙĦÙĤØ§Ø¦Ùħ":6888,"ĠØ¨ÙĥÙħ":6889,"Ø¹ÙĬØ§":6890,"ĠØ¨Ø§ÙĦÙħØ´Ø§Ø±ÙĥØ©":6891,"ĠØ§Ø³ØªØ±Ø§Øª":6892,"Ø¹Ø¯Ø©":6893,"ĠØ§ÙĦØ¬ÙĬÙĦ":6894,"ĠÙģÙĦÙĨ":6895,"Ø§Ø¶ÙĦ":6896,"ĠÙĪØ£ÙĥØ«Ø±":6897,"ON":6898,"ÙĬØ¯ÙĬÙĪ":6899,"ĠØªÙģØ¹ÙĬÙĦ":6900,"ĠØ±Ø¦ÙĬØ³Ø§":6901,"ÙĪÙĦÙĪØ¬ÙĬØ©":6902,"ĠØµØŃÙģÙĬ":6903,"ĠÙĬØŃÙĬÙī":6904,"ĠØ§ÙĦÙħØ³ÙĦÙħ":6905,"ĠØ¨ÙħØ«":6906,"ĠÙħØ¬Ø¯Ø¯Ø§":6907,"ĠÙĦØªÙĪ":6908,"ĠØ§ÙĦØ¹Ø¯ÙĪØ§ÙĨ":6909,"ÙĨÙĬØª":6910,"ĠØ³ÙĬØ¯ÙĬ":6911,"ĠØŃÙĪØ§Ø¡":6912,"ĠØ§ÙĦÙħÙĦØŃ":6913,"Ġcataracts":6914,"ĠÙĬØ±Ø¬Ùī":6915,"Ø§Ø¡Ø©":6916,"ĠÙĬØªØ¶ÙħÙĨ":6917,"ĠØ§ÙĦØªØ²Ø§Ùħ":6918,"ĠÙĪÙĬÙĥ":6919,"ÙħÙĦØ§ØŃ":6920,"ĠÙĩÙĨ":6921,"ÙĩÙĦÙĬ":6922,"ĠØ§ÙĦÙħÙĪØ¶ÙĪØ¹Ø§Øª":6923,"ĠØ§ÙĦÙĨØ¨Ø§Øª":6924,"ĠÙĪØ·ÙĨÙĬØ©":6925,"ÙĦÙĦÙĩ":6926,"ĠØ§ÙĦÙĦØºØ§Øª":6927,"ĠØ³ÙĦØ·Ø©":6928,"ĦÙĨØª":6929,"ĠÙĥÙħÙĬØ©":6930,"art":6931,"ĠÙĪØ§ÙĦØªÙĨÙħÙĬØ©":6932,"ĠØ§ÙĦØºÙĬØ±":6933,"ĠØ£Ø°":6934,"ĠØ³ÙĬØŃ":6935,"ĠØ§ÙĦØ¨Ø±Øª":6936,"ĠØ§ÙĦØ¥ÙĬØ¬":6937,"ĠØ§ÙĦØºØ±ÙģØ©":6938,"ĠØ§ÙĦØ±Ø¤ÙĬØ©":6939,"ØªØ´":6940,"ĠØªØ°ÙĥØ±":6941,"ØŃØ¯Ø§Øª":6942,"ÙħÙĨÙĬ":6943,"ĠØ´ÙĥØ±":6944,"ĠÙĦØ£ÙĪÙĦ":6945,"ĠØ§Ø«Ø§Ø«":6946,"ĠÙĬØ·ÙĦÙĤ":6947,"ĠØ§ÙĦØ§ØªØ¬Ø§Ùĩ":6948,"ĠÙĤØ§Ø¹Ø©":6949,"ĠØ§ÙĦÙħØ¹Ø§Ø±Ø¶":6950,"ĠÙħÙĪØ³ÙĥÙĪ":6951,"ĠÙĦØ§Ø±":6952,"Ø±ÙĪÙĨ":6953,"Ø¹ÙĦÙĩ":6954,"ĠØ§ÙĦÙħÙĤØªØ±":6955,"ÙĦÙĤØ§Ø¡":6956,"ÙĪØ§ÙĨØ¨":6957,"ĠÙĪÙĬØ¬Ø¨":6958,"ĠØºÙĬØ±ÙĩØ§":6959,"ØŃØ§ÙĤ":6960,"ĠØ§ÙĦÙħØŃÙĬØ·":6961,"ĠÙĬØŃÙĤÙĤ":6962,"ÙĦØ¦Ùĥ":6963,"ØºØ§Ø±":6964,"ĠØ§ÙĦÙħØ°":6965,"ĠØ§ÙĦØ´Ø¹ÙĪØ¨":6966,"Ø²Ø§Ø¡":6967,"ĠØ§ÙĦØ£Ø³ÙĦØŃØ©":6968,"ĠØ§ÙĦØ¹Ø¨Ø¯":6969,"Ø±ÙĨØ§ÙħØ¬":6970,"ĠØ¬ÙĪØ±Ø¬":6971,"Ø§Ø¦Øµ":6972,"ĠÙħÙĪØ§Ø·ÙĨ":6973,"ĠÙħÙĨØµØ¨":6974,"ĠØ·ÙĩØ±Ø§ÙĨ":6975,"ĠØ§ÙĦÙĥØ±Ø§Ùħ":6976,"Ø°Ø§Ùĥ":6977,"ØºØ¨Ø©":6978,"ĠÙĥÙĪÙĥ":6979,"ĠØ§ÙĦÙĥØªØ§Ø¨Ø©":6980,"ĠØ®Ø·ÙĪØ§Øª":6981,"ĠÙħØ¬ÙħØ¹":6982,"ĠÙĪØ³ÙĩÙĦØ§":6983,"Ø§ÙĦÙĪÙĨ":6984,"ĠØªØ£ÙĥÙĬØ¯":6985,"ĠØ±ÙĪØ§Ùĩ":6986,"ĠÙĩØ¬ÙĪÙħ":6987,"ĠÙĤÙĦÙĬÙĦØ§":6988,"ØªÙģØ§ÙĦ":6989,"ĠÙģØ´ÙĦ":6990,"ĠØªØŃØ¯ÙĬØ«":6991,"ĠØ·Ø¨ÙĬØ¹Ø©":6992,"ĠÙħØ·Ø¨Ø®":6993,"ĠØ§ÙĦÙĩÙĪØ§ØªÙģ":6994,"Ø§ÙĦÙĬÙģ":6995,"ĠØ§ÙĦØŃØ¯Ø«":6996,"ĠØªØ²ÙĬØ¯":6997,"ÙģØ§Ø±":6998,"ĠÙħÙģÙĩÙĪÙħ":6999,"ĠØ§ÙĥØ³":7000,"ĠØ§Ø¹ÙĦØ§ÙĨØ§Øª":7001,"ĠÙĤÙĪØ§ÙĨÙĬÙĨ":7002,"Ø§ÙĦÙĬÙħ":7003,"ĠÙħØ·ÙĦØ¹":7004,"Ġr":7005,"ĠØŃÙħÙĦ":7006,"ĠØ§ÙĦØ¥Ø¬ÙħØ§ÙĦÙĬ":7007,"ĠØ§ÙĬØ§Ùħ":7008,"ĠÙĪØ¹ÙĦØ§Ø¬ÙĩØ§":7009,"ĠØŃÙħØ§Ùħ":7010,"ĠØ§ÙĦØªØ®Ø·ÙĬØ·":7011,"ĠØ¥ÙħØ§":7012,"ĠØ§ÙĦÙĥÙĨÙĬØ³Ø©":7013,"Ø§Ø¶Ø±Ø©":7014,"ĠØ§ÙĦØ´ÙĪØ·":7015,"ĠØ£ÙĦØ¨":7016,"ĬØ¶Ùħ":7017,"ĠØ§ÙĦÙħØ±Ø¶Ùī":7018,"ĠØ§ÙĦØ¥ÙĬØ±Ø§ÙĨÙĬØ©":7019,"ĠØµÙ":7020,"Ø§Ø¯Ø«Ø§Øª":7021,"ĠØŃØµÙĦØª":7022,"ÙĬØ¶Ùħ":7023,"ĠÙĬØ¶Ùħ":7024,"ĠØ§ÙĦÙĪØ³Ø·Ùī":7025,"ĠØ¨ÙĨÙģØ³Ùĥ":7026,"ĠØ§ÙĦÙĤÙĬÙħØ©":7027,"ĠØ§ÙĦØ§Ø³ØªÙĤØ±Ø§Ø±":7028,"Ø¯ÙĬØ§ÙĦ":7029,"ĠØ²Ø§ÙĦ":7030,"ĠØ§ÙĦØ£ÙģØ¶ÙĦ":7031,"Ġ53":7032,"ĠØ±Ø³ÙħÙĬØ©":7033,"ĠØ§ÙĦØ¯ÙģØ¹":7034,"ÙħØªÙī":7035,"ØªÙħØ§Ø¹Ù":7036,"ĠÙĪÙĦÙģØª":7037,"ØªÙħØ§Ø¹ÙĬ":7038,"ĠØ§ÙĦØŃÙħ":7039,"ĠØ®Ø·Ø§Ø¨":7040,"ĠØ®ÙĦÙĬÙĦ":7041,"ĠØ§ÙĦØ£Ø±Ø¬":7042,"ĠÙĪØŃØ¯Ùĩ":7043,"Ġ54":7044,"ĠØ§ÙĦÙħØ±ÙĪØ±":7045,"ÙĬÙĪÙģ":7046,"ĠÙĪØ£ØµØ¨ØŃ":7047,"ĠØ²ÙĪØ¬ØªÙĩ":7048,"ĠØ¨Ø§ÙĦØªØŃ":7049,"Ø¨Ø³":7050,"ĠÙĦÙĬÙĥÙĪÙĨ":7051,"Ø¬ÙĩØ©":7052,"ĠØ§ÙĦØ«Ø§ÙħÙĨØ©":7053,"ĠØ§ÙĦØŃØ±Ø©":7054,"Ø§Ø·Ùģ":7055,"ĠÙĪØ¢Ø®Ø±":7056,"ĠØ§ÙĦÙĥØ§ÙħÙĦ":7057,"ĠÙħØªÙī":7058,"ĠØ¥ØµØ§Ø¨Ø©":7059,"Ø²Ø§ÙĬØ¯":7060,"ĠØ§ÙĦØ¯Ø§Ø±":7061,"Ø£ÙĥØ¯":7062,"ĠÙĪØ§Ø¯ÙĬ":7063,"ĠØ§ÙĦØ¬ÙĨÙĬÙĩ":7064,"ĠØ§ÙĦØ¥Ø«ÙĨÙĬÙĨ":7065,"Ø§ÙĩØ¨":7066,"ue":7067,"ÙĩØ§ÙĨ":7068,"ĠØ§ÙĦØ²ÙĬØ§Ø±Ø©":7069,"ÙģØ§ÙĩÙħ":7070,"ÙĥÙĦÙĬ":7071,"ĠØ§ÙĦÙĨØªÙĬØ¬Ø©":7072,"Ø§Ø±Ø¶Ø©":7073,"ĠÙĪØ§ÙĦØªØ´":7074,"ĠØ¥ÙĬØ±":7075,"ĠÙĬØ³Ø¹Ùī":7076,"ÙĦØ§ÙĬ":7077,"Ø§ÙĬØ²":7078,"ĠØ¹Ø±Ø¨":7079,"ĠØ£Ø³ÙĩÙħ":7080,"ĠØ§ÙĦØ§ÙĦÙĥØªØ±ÙĪÙĨÙĬ":7081,"ĠÙĨØ§Ùģ":7082,"ĠØªØ¬Ø§Ø±Ø©":7083,"ĠØ§ÙĦÙĪØ§Ø³Ø¹Ø©":7084,"ĠØ£ÙĬÙĩØ§":7085,"Ġto":7086,"ĠØ²ÙĪØ¬ÙĩØ§":7087,"ĠØ¬Ø³Ùħ":7088,"ĠØ§ÙĦØ§Ø«Ø§Ø«":7089,"ÙĩÙĬØ§Ø±":7090,"Ø¯Ø±Ø©":7091,"ĠÙģØ±ÙĨÙĥ":7092,"ĠÙħÙĪØ§Ø·":7093,"ĠÙĪØªØ³Øª":7094,"ĠØµØ±ØŃ":7095,"ure":7096,"ĠØ§ÙĦØ§Ø³Ø¨ÙĪØ¹":7097,"ĠÙĬÙĨØªØ¸Ø±":7098,"ÙĥØ§ÙĪÙĬ":7099,"ĠÙħÙĨØªØ¯ÙĬ":7100,"ĠÙĬØ·ÙĦØ¨":7101,"ĠØ§ÙĦÙħØ¹Øª":7102,"ĠØ§ÙĦÙģØ§Øª":7103,"Ø§ÙħØ±Ø©":7104,"ĠØ§Ø³ØªØ±Ø§ØªÙĬØ¬ÙĬØ©":7105,"ĠÙĬØ¹ÙĤÙĪØ¨":7106,"ĠØŃØ¸":7107,"ÙĥÙĨØª":7108,"ĠØ¥ÙĦØºØ§Ø¡":7109,"ĠÙĨØ´Ø±Øª":7110,"ĠØ¨Ø§ÙĦØ§Ø¶Ø§ÙģØ©":7111,"ĠØ£Ø¨ÙĨ":7112,"ĠØ§ÙĦØ³Ø¬ÙĨ":7113,"ĠÙħØ¹Ø±ÙĥØ©":7114,"ĠØªØ£ÙħÙĬÙĨ":7115,"ĠØ²ÙĪØ§Ø¬":7116,"ĠØ§ÙĦÙĩÙĬ":7117,"ĠÙĬØ¹Ø§ÙĨÙĬ":7118,"ĠØ¨Ø§ÙĦØ§Ø¹":7119,"ĠÙĦÙĦØ¶":7120,"ĠØ£ÙħØ§ÙĥÙĨ":7121,"ĠØ§ÙĦØ´Ø¨ÙĥØ©":7122,"ĠØ¨ÙħØ´Ø§Ø±ÙĥØ©":7123,"ĠÙĪØ¯Ø±":7124,"ĠØ§ÙĦØ§Ø²Ø±ÙĤ":7125,"ĠÙĬÙĤÙģ":7126,"ĠØ§ÙĦÙħØªØŃ":7127,"ĠØ§ÙĦÙĨÙģØ³ÙĬØ©":7128,"ÙĬØ¯Ø±":7129,"ĠØ§Ø¹Ø¶Ø§Ø¡":7130,"ĠÙĨÙĪÙģ":7131,"ĠØ®Ø·Ø£":7132,"ĠÙĪØ°ÙĥØ±Øª":7133,"ĠØ¥ÙģØ±ÙĬÙĤÙĬØ§":7134,"ÙĦØªÙ":7135,"ĠØ£Ø¸ÙĩØ±":7136,"ĠÙĦÙĦØ¹ÙĬÙĨ":7137,"ĠÙħØªÙĤ":7138,"ĠÙĨÙĩØ±":7139,"ĠØ§ÙĦÙĦØ¨ÙĨØ§ÙĨÙĬÙĬÙĨ":7140,"ĦÙĪØ±":7141,"ÙĤØ§ÙģØ©":7142,"ĠØ´Ø®ØµÙĬØ§Øª":7143,"ĠØ§ÙĦØ§ÙĦØªØ²Ø§Ùħ":7144,"ĠØ®ÙĦÙģÙĬØ©":7145,"ĠØ¨Ø¬ÙħÙĬØ¹":7146,"ĠØ§ÙĦØ³Ø§Ø¯Ø³Ø©":7147,"ĠØ³ÙĬØ§":7148,"ĠØ³ÙĤØ·":7149,"ÙĪÙĦÙĨØ¯Ø§":7150,"ĠØ¢ÙħÙĨ":7151,"ĠÙĪØ£ÙħØ§":7152,"ĠÙĥØ§Ùģ":7153,"ĠÙĪØ§ÙĦØªÙĪ":7154,"ĠØªØ®ØµØµ":7155,"Ø³ÙĬÙģØ±Ø§Øª":7156,"Ø³Ø¹":7157,"ĠØ§ÙĦØªØ±ÙģÙĬÙĩ":7158,"ĠØ·ÙĪÙĬÙĦ":7159,"Ġ58":7160,"ĠÙĪØ§ÙĦØ§Ø±":7161,"ĠØ§ÙĦØ³ÙģØ§Ø±Ø©":7162,"ĠÙħØ¯ÙĨ":7163,"ĠØ§ÙĦØŃÙĤÙĬÙĤÙĬØ©":7164,"Ġwh":7165,"ĠÙĨÙĬÙĪØ²":7166,"ĠØ§ÙĦØ£Ø³ÙĪØ¯":7167,"ĠØ§ÙĦØ³Ø¨Ø¹":7168,"ĠØ§ÙĦØªØ¬Ø±Ø¨Ø©":7169,"ÙĬØ·Ø§ÙĨ":7170,"ĠØ£Ø³Ø±Ø©":7171,"ĠØ§ÙĦÙĥØ§Ùħ":7172,"ĠØ§ÙĦØ³Ø±ÙĬØ¹":7173,"ĠØ¥ØµÙĦØ§ØŃ":7174,"ĠØªÙĦÙģØ²ÙĬÙĪÙĨ":7175,"ØµØŃØ§Ø¨":7176,"ĠÙĥÙħØ§ÙĦ":7177,"ÙĨØªÙĩØ§":7178,"ÙĦÙĬÙĦØ©":7179,"ĠØ§ÙĦÙģØ±ÙĨÙĥ":7180,"ĠÙĥØ±ÙĬ":7181,"ĠÙĪØ®ØµÙĪØµ":7182,"ĠØ§ÙĦØ£ÙĪØ¶Ø§Ø¹":7183,"ĠØ§ÙĦØ±Ø¨Ø¹":7184,"ĠØ¬Ø±ÙĬÙħØ©":7185,"ÙħÙĥÙĨ":7186,"ĠØªØ¤Ø¯ÙĬ":7187,"ĠÙĩÙĪØ§ØªÙģ":7188,"ĠÙĦÙĦØªØ³Ø¬ÙĬÙĦ":7189,"ĠØ®Ø§Ø±Ø¬ÙĬØ©":7190,"ĠØ§ÙĦØ£Ø¯Ø§Ø¡":7191,"ĠØ§ÙĨÙĨØ§":7192,"ħÙģÙĬØ¯":7193,"Ø¯ÙĪØ²":7194,"ÙħÙģÙĬØ¯":7195,"ĠØ¨ÙĪØ´":7196,"ĠØ§ÙĦÙĩØ¬Ø±Ø©":7197,"ĠAl":7198,"ĠÙĥÙĨØ¯Ø§":7199,"ĠØ§ÙĦÙħÙĤØ§ÙĦ":7200,"ĠØ§ÙĦÙģØ±Ø¯":7201,"Ø¬Ø§Ø±Ø©":7202,"ĠÙħÙĦØ§ØŃ":7203,"ĠÙħÙģÙĬØ¯":7204,"ÙĬØ²Ùħ":7205,"ĠØ£Ø¨Ø±":7206,"ĠØ§ÙĦØ´Ø±ÙĪØ·":7207,"ĠØ§ÙĦØ£ÙĦÙħØ§ÙĨÙĬ":7208,"ĠÙħÙģØ§Ø¬":7209,"ĠØ§ÙĦÙĪÙĥØ§ÙĦØ©":7210,"ĠÙĦØªØ·ÙĪÙĬØ±":7211,"ĠØªØ¬Ø¹ÙĦ":7212,"ĠÙĨØ³Ø®":7213,"ĠÙħÙĪÙĦ":7214,"ĠØ§ÙĦØ±Ø§ØŃÙĦ":7215,"Ø¦ÙĨØ§Ùģ":7216,"ĠØ§ÙĦØ¬Ø±ÙĬÙħØ©":7217,"ĠÙĪØ¬ÙħÙĬØ¹":7218,"ĠØ§ÙĦØ£Ø³Ø§Ø³":7219,"ĠØ¯ÙĪØ±Ø§":7220,"ħØ¦Ø§Øª":7221,"ĠØªØ¨Ø§Ø¯ÙĦ":7222,"ĠØ°ÙĥØ±Ùī":7223,"ĠÙĨØ¬ÙĪÙħ":7224,"ĠØŃÙĦÙĪ":7225,"ĠØ£ÙĤØ±":7226,"ĠØ£ÙħÙĨÙĬØ©":7227,"Ø§Ø¨ÙĬÙĬÙĨ":7228,"ĠÙħØµØ±ÙĬ":7229,"ĠØ§ÙĦÙģØ¶Ø§Ø¡":7230,"ĠØ£ÙħÙĦ":7231,"Ø§Ø¯ÙĩØ§":7232,"ĠØ³ÙĩÙħ":7233,"ØªÙħØ¯Ø©":7234,"ÙħØ¦Ø§Øª":7235,"ĠÙħØ¦Ø§Øª":7236,"ĠØ¯Ø³Øª":7237,"ĠØ§ÙĦØ£Ø´ÙĬØ§Ø¡":7238,"ĠØ£ÙĪØ¨Ø§ÙħØ§":7239,"ĠØªÙĩØ¯ÙĬØ¯":7240,"ĠØ§ÙĦØ·Ø¨ÙĬØ¹Ø©":7241,"ĠØ§ÙĦÙħÙĨØ§Ø²ÙĦ":7242,"ĠØ§ÙĦØ¯ÙħØ¹ÙĬØ©":7243,"ĠÙĬØ¹ÙĦÙĨ":7244,"ĠÙĥØªØ§Ø¨Ùĩ":7245,"ĠØ§ÙĦØ´ÙĥÙĦ":7246,"¹Ø§Ø¨":7247,"ĠÙħØ±Ùĥ":7248,"ĠØ§ÙĦØ³ÙĪØ±ÙĬÙĬÙĨ":7249,"Ø§ÙĨØ§Ø©":7250,"ĠØ³ØªÙĬ":7251,"ÙĨÙĬØ§ÙĩÙĪ":7252,"ĠØ¬ÙħÙĬÙĦØ©":7253,"ĠØ§ÙĦØ¬Ø¯Ø¯":7254,"ĠØ¨Ø§ÙĦÙħØŃ":7255,"ĠØªØµØ¨ØŃ":7256,"ĠØ§ÙĦÙħÙĨØ§ÙģØ³Ø©":7257,"Ġk":7258,"ĠØ§ÙĦØ¥ÙĬÙħØ§ÙĨ":7259,"ĠØ§ÙĦÙĥØªØ±":7260,"ĠØ§ÙĦØ³ÙĬØ§ÙĤ":7261,"ĠØ®Ø·ÙĪØ·":7262,"ĠØ§ÙĦØ§Ø¹ÙħØ§ÙĦ":7263,"ĠØ§ÙĦØ¥Ø±ÙĩØ§Ø¨ÙĬØ©":7264,"ĠÙħØªÙĥ":7265,"ĠÙħØ¯ÙĬØ±ÙĬØ©":7266,"ĠÙĩØ§Ø±":7267,"ĠÙħÙĨÙ":7268,"ĠÙĪØ§ÙĦÙħÙĩ":7269,"ĠØ§ÙĦÙĥÙĦÙħØ©":7270,"ĠØ§Ø·ÙģØ§ÙĦ":7271,"ĠØ®Ø±ÙĪØ¬":7272,"ĠÙĪØ£Ø¯":7273,"ĠØ¥ÙĨØ³":7274,"ĠØ§ÙĦØ´Ø¯ÙĬØ¯":7275,"ĠØ§ÙĦÙħØŃØªÙĦØ©":7276,"ech":7277,"Ø§ÙĦÙĬÙĨ":7278,"ĠØ§ÙĦÙħØ¨Ø§Ø¯Ø±Ø©":7279,"Ø¤Ø§Ø¯":7280,"ĠØ§ÙĦØ¬ÙĩØ©":7281,"ĠÙĪØ§Ø±Øª":7282,"ĠØ£Ø®Ø¨Ø±":7283,"ĠØ§ÙĦØµÙĨØ¯ÙĪÙĤ":7284,"ĠÙĪØ´Ø¯Ø¯":7285,"Ø³ÙĦØ§Ùħ":7286,"ĠÙĦÙħØ±":7287,"ÙĪÙĬØªØ±Ø²":7288,"Ø¹Ø§ÙĨ":7289,"ĠØ§ÙĦØ´Ø£ÙĨ":7290,"60":7291,"Ø§ÙĨÙĬØª":7292,"ĠØ§ÙĦÙħÙĥØ±ÙħØ©":7293,"ĠÙĪØ§ÙĦØ§Ø¬ØªÙħØ§Ø¹ÙĬØ©":7294,"ÙĥÙĪØ±":7295,"ĠØ§ÙĦØ£Ø³Ø§Ø³ÙĬ":7296,"Ø³Ø§ØªÙĬÙĨ":7297,"ĠØ§ÙĦØ³ÙĬØ³ÙĬ":7298,"ĠØ´ÙħØ³":7299,"ØªÙĬØ´":7300,"Ø§Ø¨Ø±Ø§Øª":7301,"ĠÙĦÙħÙĪÙĤØ¹":7302,"ĠØ¨ØªØµ":7303,"ĠÙħØµÙĨØ¹":7304,"ĠÙĨÙĤÙĪÙħ":7305,"Ø§Ø¹ÙĬØ¯":7306,"ÙĦØ¹Øª":7307,"ĠØ§ÙĦÙħØ·Ø¨Ø®":7308,"ĠÙħØ³ØªÙĤÙĦØ©":7309,"ĠØ§ÙĦØ±Ùĥ":7310,"ĠÙĤÙĬØ¯":7311,"ĠØ¢ÙĬØ©":7312,"ĠÙĪÙĨØ´Ø±":7313,"ĠØ§ÙĦØ·Ø±Ùģ":7314,"ĠÙĨÙĤØ§Ø¨Ø©":7315,"ĠÙĦÙĨÙģØ³":7316,"ĠÙħØ³ØªÙĤØ¨":7317,"ÙĥÙĬØª":7318,"ĠØ³ÙħÙĪÙĩ":7319,"ubai":7320,"ĠÙĦÙĦØªÙĨ":7321,"ĠØ¨ÙħØ¨":7322,"ĠØ§ÙĦÙĦØ°":7323,"ĠÙĦÙĦØªØ±":7324,"ĠØºØ§ÙĦØ¨Ø§":7325,"Ø±ÙĪØ¨Ø§Øª":7326,"ĠÙĨÙĩØ§Ø¦ÙĬ":7327,"ĠÙħØ¨Ø§Ø¯Ø±Ø©":7328,"ĠØºØ°":7329,"ĠØ§ÙĦÙģÙĪØªÙĪØ´ÙĪØ¨":7330,"ĠØ§ÙĦØºØ§Ùħ":7331,"ĠÙħÙĨÙĬ":7332,"ine":7333,"ĠØ¨Ø§ÙĦØ¯ÙħØ§Ùħ":7334,"ĠØ§ÙĦØ¨Ø¯ÙĬÙĦ":7335,"ĠÙģØ±ÙĬ":7336,"ĠÙĤØ§Ø¯Ø©":7337,"Ø§Ø²ÙĬÙĦ":7338,"ĦÙĨØ¯Ø§":7339,"ĠØ¨Ø§ØªØ¬Ø§Ùĩ":7340,"ĠØ§ÙĥØªØ´Ø§Ùģ":7341,"ĠØ§ÙĦØµÙĨØ§Ø¹Ø©":7342,"ĠØ§ÙĦØ·ÙĬÙĪØ±":7343,"Ø§ÙĬØ³":7344,"ĠØ§ÙĦØ¨Ø®Ø§Ø±ÙĬ":7345,"ĠØ®Ø§Ø¶":7346,"ĠØ³Ø§ÙĩÙħ":7347,"ĠØ£ÙģÙĥØ§Ø±":7348,"ĠÙĪØ¯Ø¹Ùħ":7349,"Ø§ÙĦÙĪ":7350,"ĠØ§ÙĦØ¥ØŃ":7351,"ÙĤØ¯Ø§Ùħ":7352,"ĠÙĦÙħØ¬ÙĦØ³":7353,"ĠØ§ÙĦØ§ÙĨØ³":7354,"ĠÙĪÙĤÙĪØ¹":7355,"ĠØ¢Ø¯Ùħ":7356,"ĠØ§ÙĦÙħÙĤØ±":7357,"ĠØ¥ÙĨØ¬Ø§Ø²":7358,"Ø¨ØªØ¯":7359,"Ġ59":7360,"ĠØ§ÙĦØ§Ø±Ø¶":7361,"ĠÙĪÙĪØ²":7362,"ÙģÙĬÙģØ©":7363,"ØªÙģØ¹":7364,"ĠØ§ÙĦÙģÙĨØ§ÙĨØ©":7365,"Ø§ÙĬØªÙĩ":7366,"ÙĬÙĥØ§":7367,"ĠÙĦÙħØ³Øª":7368,"ĠÙĨÙĬØ³Ø§ÙĨ":7369,"ħÙĦØ§Ø¡":7370,"Ø³ÙĬÙĥ":7371,"ĠØ·Ø§Ø¦Ø±Ø©":7372,"ĠÙĪÙĥÙħØ§":7373,"ĠØ§ÙĦØ¢ÙĬØ©":7374,"ĠØ¨Ø·ÙĦØ¨":7375,"ĠÙĪÙĦØª":7376,"ĠØ§ÙĦØ¹Ø«ÙĪØ±":7377,"ĠØªÙĦÙĤÙī":7378,"ĠØ§ÙĦÙħØ³Ø§Ø¨ÙĤØ§Øª":7379,"ĠØ¬Ø±Ø§Ø¦Ùħ":7380,"ÙĬØ·Ø§ÙĦÙĬØ§":7381,"Ø§Ø¬ÙĬØ©":7382,"Ø·ÙĪØ§ÙĨ":7383,"ĠØ§ÙĦØŃØ¶ÙĪØ±":7384,"ØŃÙĬÙĬÙĨ":7385,"ĠØ¨ÙĪØ¬ÙĪØ¯":7386,"ĠØŃØªÙĬ":7387,"ĠÙĬØªØ·ÙĦØ¨":7388,"ĠÙħÙħÙĬØ²Ø©":7389,"ĠÙĬÙĥØªØ¨":7390,"ĠØ§ÙĦÙħØªØ·":7391,"ØªÙĬÙĤ":7392,"ĠØ§ÙĦØ¹ÙĨØ§ØµØ±":7393,"ÙĪÙĨØ§ÙĦØ¯":7394,"ĠØ§ÙĦÙģØ§Ø¦":7395,"ĠÙĥÙĪØ¨":7396,"ĠØ§ÙĦÙĤÙĬÙħ":7397,"ort":7398,"ĠÙħØ®Øª":7399,"ĠØ¶Ø¹Ù":7400,"ÙĨÙĬÙĩØ§":7401,"ĠØ¯ÙĪØ±Ø§Øª":7402,"Ø§Ø°Ø¬":7403,"ĠØ§ÙĦØ¹Ø´Ø±ÙĬÙĨ":7404,"ÙģØ¹Ø§ÙĦ":7405,"ĠØ³Ø¨Ø¹":7406,"ĠØ§Ùĩ":7407,"ĠØ§ÙĦÙħÙĤØ§Ø¨ÙĦ":7408,"ĠÙĩÙħØ§":7409,"ÙĪØ§Ø±Ø¦":7410,"ĠØ·ÙĬØ¨Ø©":7411,"ĠÙĪØ±Ø³":7412,"ĠÙĪØ·ÙĨ":7413,"ĠØ¨Ø²":7414,"ĠØ¨Ø£Ø³ÙħØ§Ø¡":7415,"ĠØ³Ø§Ø¨ÙĤØ©":7416,"Ø§ØªÙħ":7417,"ĠØ§ÙĦØ¬ØºØ±":7418,"ĠØ§ÙĦØªÙĨÙģÙĬØ°ÙĬØ©":7419,"ĠØ§ÙĦÙģÙĪØ±ÙĥØ³":7420,"Ø§Ø§ÙĦØ":7421,"ĠÙħØŃØ¯Ø¯Ø©":7422,"Ø´ÙĩØ¯":7423,"ÙĬÙģÙĪÙĨ":7424,"ĠØ§ÙĦÙħÙħØ§Ø±Ø³Ø©":7425,"ĠØ§ÙĦØ§Ø±Ø¯ÙĨ":7426,"ĠØ§ÙĦØµØŃØ±Ø§Ø¡":7427,"ĠØ§ÙĦÙħØ®Ø¯Ø±Ø§Øª":7428,"ĠÙħØ¬Ø§ÙĦØ³":7429,"ØµÙĬÙĦØ©":7430,"ÙĬØ±ÙĪØ³":7431,"80":7432,"ĠÙĨÙģØ°":7433,"ĠÙĬØ¹Ø±Ø¶":7434,"ĠÙĪØ§ÙĦØ¥ÙĨ":7435,"ĠØ§ÙĦÙģÙĪ":7436,"ĠÙħØŃØ§ÙĪÙĦØ§Øª":7437,"ĠØ¨Ø§ÙĤ":7438,"ĠÙĦÙĦÙħÙ":7439,"ĠØªØµØ±Ùģ":7440,"ĠÙĨØ±ÙĬØ¯":7441,"ĠØªØ¨ØŃØ«":7442,"ĠÙħØ±ØŃ":7443,"ĠØ¨ÙħÙĪØ¬Ø¨":7444,"Ø§ØºÙĪ":7445,"ĠØ§ÙĦÙħÙĩØ¯ÙĬ":7446,"ĠØ§ÙĦÙħØ¨Ø§Ø±ÙĬØ§Øª":7447,"ĠØ§ÙĦÙĦØ¹Ø¨":7448,"ĠÙħØ§ÙĦÙĬØ²ÙĬØ§":7449,"ĠÙħÙĤØ¯ÙħØ©":7450,"ĠÙĬÙĪÙģØ±":7451,"Ø¨Ø§Ø¹":7452,"ĠØŃØ¯Ø«ÙĨØ§":7453,"Ø§Ø²ÙĬÙĦÙĬ":7454,"ĠØ¬Ø¨ÙĩØ©":7455,"ØºÙĬØ±Ø§Øª":7456,"ĠØ§ÙĨØ·ÙĦÙĤ":7457,"ĠÙĨØ¯ÙĪØ©":7458,"Ø´ÙĥÙĦ":7459,"Ø§Ø¦ÙģØ©":7460,"ĠØ§ÙĦØ¨Ø±ÙĪ":7461,"ĠØ±Ø§Ø¨Ø·":7462,"ĠÙħØªØ®ØµØµ":7463,"ĠØ³Ø±Ø¹Ø©":7464,"ĠÙĪØ®ØµÙĪØµØ§":7465,"ÙĨØ§Ùĥ":7466,"ÙħØ¹Ø©":7467,"ĠØ§ÙĦØ§ÙħÙĬØ±ÙĥÙĬ":7468,"ĠØªÙĥÙĪÙĬÙĨ":7469,"ĠÙĩØ§Øª":7470,"ĠÙĪØ¨Ùĩ":7471,"ĠÙĪØ¹Ø¨Ø¯":7472,"ĠÙĦØ§Ø®":7473,"Ġoper":7474,"ĠÙĬØ£Ø®Ø°":7475,"ĠØ§ÙĦÙħØ±Ø¬":7476,"ÙĥØ±Ø±Ø©":7477,"ĠÙħØ±Ø¨Ø¹":7478,"ĠØ§ÙĦØªØ¯Ø®ÙĦ":7479,"ĠØ§ÙĦØ´Ø®ØµÙĬØ§Øª":7480,"Ġ`":7481,"ĠÙĤÙĪÙĬ":7482,"ĠØµØ¯ÙĪØ±":7483,"Ø±Ø§Ø³Ø§Øª":7484,"ĠÙģØ¶ÙĦ":7485,"ĠØ§ÙĦÙħÙĨØ²ÙĦÙĬØ©":7486,"ĠØ§ÙĦØ¬Ø¯":7487,"ĠØ¨Ø¨Ø¹Ø¶":7488,"ĠÙĦÙĤØ¨":7489,"ĠØ§ÙĦØªØ´ÙĥÙĬ":7490,"ĠØ§ÙĦØ´ÙĩØ¯Ø§Ø¡":7491,"ĠÙħØ¨ÙĨÙī":7492,"ĠÙĦØ¶ÙħØ§ÙĨ":7493,"ÙħØ±Ø§Ø¶":7494,"Ø§ÙĪØ§Ø©":7495,"ĠØ§ÙĦØ«ÙĨØ§Ø¦ÙĬØ©":7496,"ĦÙĪØ¯Ø±Ø§Øª":7497,"ĠØ§ÙĦØ¹Ø§ÙĦÙĬØ©":7498,"ĠÙĪÙħØ·":7499,"ĠØ§Ø¨Øª":7500,"ĠØºØ¯":7501,"ĠØ¥Ø¯Ø§Ø±ÙĬØ©":7502,"ĠØ¸ÙĩØ±Øª":7503,"ĠØ§ÙĦØªÙĤÙĦÙĬØ¯ÙĬØ©":7504,"Ø´ÙĬØ§Øª":7505,"ĠÙĦÙĦØ£ÙħÙħ":7506,"ĠØªØ´ØŃÙĨ":7507,"Ø¯ÙĬØ³":7508,"ĠØ§ÙĦØªØµÙĪÙĬØª":7509,"ĠÙĥØ£ÙĨ":7510,"ÙħÙĨØª":7511,"ÙĪØ¸":7512,"ĠØ§ÙĦØ¹ÙĤØ§Ø±ÙĬØ©":7513,"ĬØ§ØŃØ©":7514,"ĠØ¨ÙħØ«Ø§Ø¨Ø©":7515,"ĠÙħØ³Ø¬Ø¯":7516,"ĠÙĪØ§ÙĦØ£ÙĨ":7517,"ĠØ§ÙĦÙħØªÙĪ":7518,"ĠØ§ÙĦÙħÙĨØ¸ÙħØ§Øª":7519,"Ø´ÙĬÙĨ":7520,"ĠØ§ÙĦÙħÙħÙĬØ²Ø©":7521,"ĠØ§ÙĦÙħÙĦØ§Ø¨Ø³":7522,"ĠØ§ÙĦØ£ÙĩØ¯Ø§Ùģ":7523,"ÙħÙĩÙĪØ±ÙĬ":7524,"ĠÙħØ±Ø§ØŃÙĦ":7525,"Ø§ÙĬÙĩ":7526,"ĠØªÙĨØ§":7527,"ĠØ§ÙĦØªØ§Ø³Ø¹":7528,"ĠÙĪØ±ÙģØ¹":7529,"ĠØ§ÙĤØªØµØ§Ø¯ÙĬØ©":7530,"ĠØ§ÙĦØ§Ø³ØªØ±Ø§ØªÙĬØ¬ÙĬØ©":7531,"ĠÙĪØ¨ÙĦØº":7532,"ØºÙĬØ¨":7533,"ĠØ§ÙĦØµØ¯Ø±":7534,"ÙĪØ¶ØŃØª":7535,"ĠÙĪÙħØ¨":7536,"ĠØ§ÙĦÙħØµÙĪØ±Ø©":7537,"Ø¨ÙĪØ·":7538,"ĠÙħÙĪØ¬ÙĪØ¯Ø©":7539,"ĠØµØ¯ÙĬÙĤ":7540,"ĠÙģØ§Ø·ÙħØ©":7541,"ĠÙĤØ±ÙĬØ¨":7542,"ĠØ§ÙĦØ·Ø±ÙģÙĬÙĨ":7543,"ĠØ·Ù":7544,"ÙĩØ§Ø¨ÙĬ":7545,"Ø·Ø¨ÙĬÙĤ":7546,"ĠØ§ÙĦØ§ÙĪØ±":7547,"ĠÙĬØªØ¹Ø±Ø¶":7548,"ĠÙĬØ´ÙĩØ¯":7549,"ØªÙħØ§":7550,"ĠØ§ÙĦÙħÙĬÙĦØ§Ø¯":7551,"ØŃØ§Ùħ":7552,"ĠØ§ÙĦÙĦÙĬØ¨ÙĬ":7553,"ĠØ§ÙĦØ¹ÙĦØ§ÙħØ©":7554,"ÙĪÙģÙĬØ©":7555,"ĠØ¬Ø¯ÙĪÙĦ":7556,"ĠØ§ÙĦØªÙĨØ¸ÙĬÙģ":7557,"ĠRe":7558,"ĠØ§ØŃØªØ±Ø§Ùħ":7559,"ÙĤÙĪØ¯":7560,"ĠØ§ÙĦØªØ±ÙĥÙĬØ²":7561,"ĠØ§ÙĦÙħØŃØ§ÙģØ¸Ø§Øª":7562,"ĠØµØ¹ÙĬØ¯":7563,"ĠØ³ÙħÙĬØ±":7564,"ĠØªØ¶Ø¹":7565,"ĠØªÙĪØ§ÙģÙĤ":7566,"ĠÙĨÙħÙĪØ°Ø¬":7567,"ĠÙĬÙħØ±":7568,"ĠØ§ÙĦØµØ§Ø¯Ø±":7569,"ÙĪØ¶Ø©":7570,"ĠØ§ÙĦÙħØªØ®ØµØµØ©":7571,"ĠØ§ÙĦØ®Øµ":7572,"ĠÙĪØ§ÙĦØ¨Ø±Ø§ÙħØ¬":7573,"are":7574,"ĠØŃÙĬÙĨÙħØ§":7575,"ØªØ±Ø§ØŃØ§Øª":7576,"ĠØ§ÙĦØ§Ø³ØªØ§Ø°":7577,"ĠØ§ÙĦØ¥Ø¯Ø§Ø±ÙĬ":7578,"ĠØ§ÙĦØ§Ùħ":7579,"ĠØ£ÙĨØ¸ÙħØ©":7580,"ĠØªÙħÙĪØ²":7581,"ĠØ§ÙĦÙħØ±ÙĬ":7582,"Ø¶Ø§ÙĬØ§":7583,"ĠØªÙĥØ±":7584,"Ø·ÙĪÙħ":7585,"Ġoperation":7586,"ĠØ§ÙĦØªÙĨØ³ÙĬÙĤ":7587,"ĬÙĤÙĦ":7588,"Ø§ØºÙ":7589,"Ġ2003":7590,"ØªÙĥØ§Ø±":7591,"ĠØ¨ÙħØ®":7592,"ÙĦÙĬØª":7593,"ĠÙĨØ±":7594,"ĠØ¬Ø§Ø¨Ø±":7595,"ĠØ§ÙĦÙĨØ¬Ùħ":7596,"ÙĪØ¶Ùī":7597,"ĠØ¹ÙĪÙĨ":7598,"Ø¬ÙħØ§ØªÙĬØ²Ùħ":7599,"ĠØ§ÙĦØ³ÙĦÙħ":7600,"ĠÙĬØ¬ÙħØ¹":7601,"ÙĪÙĦÙĩÙ":7602,"Ø³ÙĬØ·Ø±":7603,"Ø±ÙĤÙħ":7604,"Ø·Ùħ":7605,"ÙĪÙĦÙĩÙħ":7606,"ĠØ¨Ø§ØŃ":7607,"ĠØ§ÙĦØ§Ø³ØªØ¬ÙħØ§ØªÙĬØ²Ùħ":7608,"ĠÙĪØ¸ÙĬÙģØ©":7609,"ĠØµØŃÙĬØ©":7610,"ĠØ§ÙĦÙħÙĨØµ":7611,"ÙĪØ¬Ø¯":7612,"ĠÙĪÙĤØ¨ÙĦ":7613,"ĠÙĬØ·Ø§ÙĦØ¨":7614,"ĠØªØ¹Ø¨ÙĬØ±":7615,"ĠØ§ÙĦØ´ÙĬØ¡":7616,"ĠØ§ÙĦØ¶ÙģØ©":7617,"ĠØ´ÙĥØ±Ø§":7618,"ĠÙĪÙĬÙĥÙĪÙĨ":7619,"ĠÙħÙĪÙĤØ¹ÙĨØ§":7620,"Ø¹ÙħØ¯":7621,"Ø¸ÙĬ":7622,"ĠÙĥØ¨":7623,"ĠØ§ÙĦØ§Ø±Ø¨Ø¹Ø§Ø¡":7624,"ĠØ±Ø§ØŃ":7625,"Ø±ÙĪØ±ÙĬ":7626,"ĠØ¨Ø§ÙĦØ¶ØºØ·":7627,"ĠÙĨØªÙĨÙĬØ§ÙĩÙĪ":7628,"ĠØºØ¶":7629,"ĠØ§ÙĨÙĥ":7630,"AT":7631,"ĠØ¨ÙĤØ¯Ø±":7632,"ĠØ¹Ø±Ø¨Ø©":7633,"ĠØªØ³ÙĦÙĬÙħ":7634,"ĠÙĪØ§ÙĦØ£Ø®":7635,"Ø§ÙĦØ®":7636,"ĠØ§ÙĦØŃÙģÙĦ":7637,"ĠØ§ÙĥØ¯":7638,"ĠÙģÙĨÙĬØ©":7639,"ĠÙĪØ¹ÙĦÙħ":7640,"ĠÙĪØ¨ÙĨØ§Ø¡":7641,"ĠØ·ÙĪ":7642,"Ø£ÙħÙĦ":7643,"ĠÙģØ±ÙĬÙĤÙĩ":7644,"ĠÙħÙĨÙĩÙħØ§":7645,"ĠØ§ÙĦØ®Ø·ÙĪØ©":7646,"ĠÙĪÙĤØ§Ùħ":7647,"ħØ§Ø±Ø³Ø§Øª":7648,"ØªØ®Ø¨":7649,"ÙĪÙħÙĬÙĨ":7650,"ĠØ§ÙĦØªØ³ÙĪÙĬÙĤ":7651,"ĠØŃÙĬÙĪ":7652,"ĠÙħØªØŃ":7653,"box":7654,"ĠØ§ÙĦØ´ÙħØ§ÙĦÙĬ":7655,"Ø´Øª":7656,"ØºØ§Ùģ":7657,"ĠØ§ÙĦÙĤØ¶Ø§Ø¦ÙĬØ©":7658,"ĠÙĥØ§Ø¨":7659,"ĠØ§ÙĦØ§Ø¨ØªØ¯Ø§Ø¦ÙĬØ©":7660,"ĠØ¨ÙĥØ«ÙĬØ±":7661,"ĠØ¨Ø§ÙĦØ±ØºÙħ":7662,"ĠØ¨ØªØ³Ø¬ÙĬÙĦ":7663,"ħØ±ÙĬÙħ":7664,"ĠÙĤØµÙĬØ±Ø©":7665,"ĠØ®Ø·Ø·":7666,"ĠØ¨Ø·Ù":7667,"ØªÙħÙĬ":7668,"ØªÙħØ§Ùħ":7669,"ĠÙĪØ¢ÙĦÙĩ":7670,"ĠØ³ÙĦØ¨":7671,"Ø±ÙĬØ±Ø©":7672,"ĠØ¬ÙĪØ¬ÙĦ":7673,"Ø¨ÙĬØ§ÙĨ":7674,"ÙħØ±ÙĬÙħ":7675,"ĠØ§ÙĦØµØ¹ÙĬØ¯":7676,"ĠØ¨Ø§ÙĦØ¶Ø±ÙĪØ±Ø©":7677,"ĠÙģÙĪØ§Ø¦Ø¯":7678,"ĠÙĦÙĦØ¯ÙĪÙĦØ©":7679,"ĠØ£ØµØŃØ§Ø¨ÙĩØ§":7680,"ĠØ¹Ø¸":7681,"ĠØ§ÙĦØ£ÙĤØµÙī":7682,"ĠØ§ÙĦÙģÙĥØ±ÙĬØ©":7683,"ĠØ³ÙĥØ±":7684,"ĠØ¬ÙĦØ¯":7685,"ĠØ§ÙĦÙĤØ§Ø¦Ø¯":7686,"ĠØ³ÙĬØ³":7687,"ĠÙĦÙĬØª":7688,"ĬØ¯ÙĦ":7689,"Ø§Ø¯ÙĬÙĤ":7690,"ĠÙĦÙĦØ§Ø·":7691,"ĠØ¯ÙĬÙĥÙĪØ±Ø§Øª":7692,"ĠØ§ÙĦØ£Ø²ÙĩØ±":7693,"ĠØ£ÙĪÙĦØ§Ø¯":7694,"ĠØ§ÙĦØ¨ÙĪØ±":7695,"ĠÙĪÙĦÙĩØ°Ø§":7696,"ĠÙĤÙĬÙħØªÙĩØ§":7697,"ĠØ§ÙĦØµØ±Ùģ":7698,"ĠÙĨØ§Ø¬":7699,"ÙĥØªÙĪØ±Ø©":7700,"ĠØŃØ²ÙĬØ±Ø§ÙĨ":7701,"Ø¦ÙĬÙĦ":7702,"ĠØ§ÙĦÙħÙĥÙĪÙĨ":7703,"ÙĩØ§ÙħØ§Øª":7704,"ĠØ§ÙĦØ³Ø§Ø¨Ø¹Ø©":7705,"ĠÙ¢Ùł":7706,"ĠØ§Ùī":7707,"ĠØ§Ø³ØªØ®Ø¯Ø§ÙħÙĩØ§":7708,"ĠØ¨ÙĪØ³Ø¹Ùĥ":7709,"ĠØ§ÙĦÙģÙĨØ§Ø¯ÙĤ":7710,"ĠÙĪØ±Ø´Ø©":7711,"ĠØ¯ÙģØ§Ø¹":7712,"ĠÙĪØ¹ÙĦÙĬ":7713,"ĠØ®Ø±":7714,"ĠØŃÙĤØ§":7715,"ĠØ¹Ø§ØµÙħØ©":7716,"Ø¯Ø³":7717,"ĠÙĩØ´Ø§Ùħ":7718,"ÙĬØ¯ÙĦ":7719,"ĠØ§ÙĨØªÙĩØª":7720,"ĠÙĨØ³Ø§Ø¡":7721,"ØµÙĬØŃ":7722,"ĠØ§ÙĦØ§Ø¦":7723,"ÙĨØ³Ø§Ø¡":7724,"ÙĪØºØ§ÙĨ":7725,"ĠØŃØ¨ÙĬØ¨":7726,"ĠØ§ÙĦØªØ¹ÙĦÙĬÙĤ":7727,"ĠØ³Ø¨Ø¹Ø©":7728,"ĠØ§ÙĦØ°ÙĥØ±Ùī":7729,"Ø§Ø¬Ø§":7730,"ĠØŃØ¬":7731,"ĠØ¨ØªØ´":7732,"ĠØ§ÙĨÙĩÙħ":7733,"ĠØ«ÙĤØ©":7734,"ĠØ§ÙĦØ®ÙĬØ±ÙĬØ©":7735,"ĬÙĪÙĦ":7736,"ĠÙĬØ¯ÙĦ":7737,"ĠØ§ÙĦÙĨØ§Ø¬":7738,"ĠÙĤØ·Ø¹Ø©":7739,"ÙģØ§ÙĩÙĬÙħ":7740,"ĠØ§ÙĦÙħØ³ÙĦØ³ÙĦ":7741,"Ø¯Ø±Ø¬":7742,"ĠØ£Ø¯ÙĪØ§Øª":7743,"ÙħÙĪÙĦØ©":7744,"ĠØ§ÙĦÙĨØ³Ø®Ø©":7745,"ĠØ§ÙĦÙĤÙĪÙħÙĬØ©":7746,"ĠØ¨ÙĬØ¶":7747,"Ø±ÙĬØ·Ø©":7748,"ĠØ§ÙĦØ¬ÙĨÙĪØ¨ÙĬ":7749,"ĠÙĦÙħØ¹Ø±ÙģØ©":7750,"ÙĬØ±ÙĪÙĨ":7751,"ĠØ¨ÙĦÙĬ":7752,"ĠØ£ÙĪØ±Ø§ÙĤ":7753,"ÙģØ±Ø©":7754,"ÙĬÙĦÙĪÙħ":7755,"ĠØ§Ø®ØªØ¨Ø§Ø±Ø§Øª":7756,"Ø²ÙħØ§Øª":7757,"ĠØ§ÙĦÙĨØ¯":7758,"ĠÙħÙĨØ§ÙĤØ´Ø©":7759,"ĠØ§ÙĦÙħØ¹ÙĦÙħ":7760,"ĠØ³Ø¹ÙĪØ¯ÙĬ":7761,"ĠÙħØ³ØªØ´Ø§Ø±":7762,"ĠØ¯Ø±Ø§Ø³Ø§Øª":7763,"ĠØ§ÙĦÙĨÙĩØ¶Ø©":7764,"ĠØ¹ÙĨØ¯Ùĩ":7765,"ÙĦÙĤØ§":7766,"ĠØ§ÙĦØ¹Ø¸":7767,"ĠØ§ÙĦØµØºÙĬØ±":7768,"AM":7769,"Ø¨Ø²":7770,"ĠØ£ÙħÙĪØ±":7771,"ĠØ§ÙĦÙĪØ¹ÙĬ":7772,"ĠØªÙħØ«":7773,"Ù£":7774,"ĠØ§ÙĦØ®Ø·Ø©":7775,"ĠØ§Ø«Ø±":7776,"Ø§Ø¬Ø³ØªÙĬØ±":7777,"ĠØ´Ø±ÙĪØŃØ§Øª":7778,"ĠÙħØ±ÙĬÙħ":7779,"ĠØ¨Ø´Ø§Ø±":7780,"ĠØ¬Ø§Ùĥ":7781,"ÙĨØ¨ÙĬØ©":7782,"ØªÙħÙĥÙĨ":7783,"ĠØ¨ÙħØ¹ÙĨÙī":7784,"Ø§ÙĬÙĥ":7785,"ĦÙĦØ§Ù":7786,"ĠØ§ÙĦØ¬Ø¨ÙĩØ©":7787,"ĠØ§ÙĦØ¯Ø³ØªÙĪØ±ÙĬØ©":7788,"ĠØ§ÙĦØ³Ø§ØŃ":7789,"ĠÙħØŃÙĦÙĬØ©":7790,"ĠÙĪØ¸":7791,"ĠÙħØ´Ø§Ø±Ùĥ":7792,"ĠØ±ØµØ¯":7793,"ĠÙĪØ¯Ø¹Ø§":7794,"ÙĬÙĤÙĦ":7795,"ĠØ§ÙĦØ£ØŃÙĪØ§ÙĦ":7796,"ĠØ§Ø«ÙĨÙĬÙĨ":7797,"ĠØ±ÙĬØ§Ø¶Ø©":7798,"ĠØ¨Ø³ÙĩÙĪÙĦØ©":7799,"ĠØ¨Ø§ÙĦÙħÙĨØ·ÙĤØ©":7800,"ĠØ§ÙĦØ¢Ø±Ø§Ø¡":7801,"ĠÙģÙĬÙĩÙħ":7802,"ĠØ§ÙĦØ¹ÙĤØ§Ø±ÙĬ":7803,"ĠØ£ÙĥØ§Ø¯":7804,"ĠÙħØ³Ø¤ÙĪÙĦÙĬ":7805,"ĠØ§ÙĦÙĩØ¯":7806,"ĠØ§ÙĦØ£Ø·Ø¨Ø§Ø¡":7807,"17":7808,"ĬØªÙħØªØ¹":7809,"ĠØ¨Ø¨Ø±":7810,"ĠØ§ÙĦØµØ±":7811,"ĠÙ¡Ù":7812,"ĠØ³ÙĬØ§ÙĤ":7813,"ĠØ³ØªØ±":7814,"ĠÙĥØ¨Ø±Ùī":7815,"ĠØ§ÙĦØ·ÙĬØ¨":7816,"ÙĬØªÙħØªØ¹":7817,"ĠØ±ØµÙĬØ¯":7818,"ĠÙĬØªÙħØªØ¹":7819,"ĠÙģØ¯":7820,"ĠØºÙĪ":7821,"ĠÙħØ§ÙĦ":7822,"ĠØ§ÙĦØªÙĪØ¬Ùĩ":7823,"ÙĤÙĬÙħ":7824,"ĠØ§ÙĦØªØ®ØµØµ":7825,"ĠØ§ÙĦØ§Ø³ØªØ®Ø¯Ø§Ùħ":7826,"ĠÙĪØ³ÙĬÙĦØ©":7827,"ĠØ¬Ø¹ÙģØ±":7828,"ĠØ¨Ø¬Ø§ÙĨØ¨":7829,"ĠØ§ÙħÙĬØ±":7830,"ĠØªØ³Ø¬ÙĦ":7831,"ÙĦÙĬÙħØ©":7832,"Ø¯ÙħÙĪØ§":7833,"ĠÙĬÙĤÙĦ":7834,"ĠØ§ÙĦØ®ÙĦÙĬØ¬ÙĬØ©":7835,"ĠØ£ÙĤÙĪÙĦ":7836,"ĠØ§ÙĦÙħØ±Ø§ÙĥØ²":7837,"ĠØ§ÙĦØŃÙĥÙĪÙħÙĬ":7838,"dv":7839,"ĠØ§ÙĦØ³ØŃØ±":7840,"Ø·ÙĪØ·":7841,"ÙĥÙĬÙĥ":7842,"ĠØ·ÙģÙĦ":7843,"ĠÙħØ±Ø§Ø¬Ø¹Ø©":7844,"ĠØ§ÙĦØ§Ø³ÙĦØ§Ùħ":7845,"ĠØ§ÙĦÙĨÙĤØ§Ø´":7846,"ĠØ§ÙĦØ¢Ø«Ø§Ø±":7847,"ĠØ§ÙĦÙħØ£":7848,"ĠØ§ÙĦÙħØ´Ø§Ø±ÙĥØ§Øª":7849,"ĠØ§ÙĦÙĤØ·Ø§Ø¹Ø§Øª":7850,"ÙĩÙĪØ©":7851,"ĠØ§ÙĦØ³ÙĬØ±Ø©":7852,"ĠØ§ÙĦÙĨØ®":7853,"ĠÙģÙĨØŃÙĨ":7854,"ĠÙĨØ¹Ø±Ùģ":7855,"ĠØ¥Ø°ÙĨ":7856,"ĠÙĨØ±Ùī":7857,"ĠÙĥÙĪÙĦ":7858,"ħØ¯ÙĬ":7859,"ĠØ§ÙĦØ§Ø³Ø¨":7860,"ĠÙĦØŃÙħØ§ÙĬØ©":7861,"ĠØ²Ø§ÙĦØª":7862,"ĠØ£ÙĨØ¨Ø§Ø¡":7863,"ĠÙħØªÙģØ±":7864,"ĠØ§ÙĦØ´Ø®ØµÙĬ":7865,"ĠØ§ÙĦÙħØŃÙħ":7866,"ÙĦØ´":7867,"ĠØ§ÙĦÙĬÙĩØ§":7868,"ĠÙĦØªÙĥÙĪÙĨ":7869,"ĠØ£ÙĨÙĨÙĬ":7870,"ĠÙģØ¬Ø±":7871,"ÙĦØ§ÙħÙī":7872,"ĠØ§ÙĦÙħØ´ÙĩØ¯":7873,"ĠØ§ÙĦØ¬ÙħÙĬÙĦØ©":7874,"ĠØ§ÙĦÙģØ¹ÙĦ":7875,"ĠÙħØ´ØªØ±Ùĥ":7876,"ĠÙĪÙĬØ¹ØªØ¨Ø±":7877,"Ø¨ÙĬØ¹Ø©":7878,"Ø§Ø²ÙĬÙĨ":7879,"ĠØªØ¬Ø±ÙĬ":7880,"ĠØ§ÙĦÙģØ¦Ø©":7881,"ĠØ²Ø§Ø¯":7882,"ĠØ§ÙĦØ£ÙħØ§ÙĥÙĨ":7883,"gle":7884,"ĠØ§ÙĦØ®Ø·ÙĪØ·":7885,"ĬÙĦØ¹Ø¨":7886,"ĠØªØ±Ø¬ÙħØ©":7887,"OP":7888,"ĠØ§ÙĦØ£ÙģÙĥØ§Ø±":7889,"ĠØ¹ÙĪØ¯":7890,"ÙĬÙĦØ¹Ø¨":7891,"Ø§ØµØ¨":7892,"ĠÙĦÙĦØ°":7893,"ĠÙĬÙĦØ¹Ø¨":7894,"ĠÙĪØ¬Ù":7895,"ĠÙħØ¯ÙĪÙĨØ©":7896,"Ø¨Ø§Ø±ÙĬØ©":7897,"ĠÙħÙĪØ§ÙģÙĤØ©":7898,"ĠØ§ÙĦÙĥÙĨ":7899,"ĠØ§ÙĦÙĨØ¨ÙĪÙĬØ©":7900,"ĠØ§ÙĦÙħØ¬ÙħÙĪØ¹Ø§Øª":7901,"ĠØªØ¹Ø§ÙĨÙĬ":7902,"Ø§Ø¯ÙĨ":7903,"Ø§ÙĪÙĦØª":7904,"ÙħØ¯ÙĬ":7905,"ĠØ§Ø³ØªÙĤØ¨Ø§ÙĦ":7906,"ĠÙĪØ§ÙĦØ¯Ùĩ":7907,"ĠÙħØ³ÙĦØŃ":7908,"ĠÙĦØ±Ø¦ÙĬØ³":7909,"ĠØ£ÙĨØ´":7910,"ĠÙĪØ§ÙĦØµÙĬØ§ÙĨØ©":7911,"ĠÙħÙĨØ¯":7912,"ĠØµÙģØŃØ§Øª":7913,"ĠÙħÙĪØ±":7914,"ĠØ§ÙĦÙģÙĤØ±":7915,"ĠØ§Ø¶ØºØ·":7916,"ĠÙĦÙĦØ³Ù":7917,"ĠØºØ²":7918,"ĠÙĪØ§ÙĦØ®Ø¯ÙħØ§Øª":7919,"ĠØªØ¬Ø§Ø±ÙĬØ©":7920,"ĠØ§ÙĦØ¯ÙĬÙħÙĤØ±Ø§Ø·Ù":7921,"ĠØ§ÙĦØ¯ÙĬÙħÙĤØ±Ø§Ø·ÙĬ":7922,"ÙĪØ§Ø¬Ø¯":7923,"ĠÙĪØŃÙĬØ¯":7924,"ĠForum":7925,"ĠØ§ÙĦÙħØ±ØŃ":7926,"ĠØ·Ø¨ÙĬØ¹ÙĬØ©":7927,"ĠØ§ÙĦØ®ÙĬØ§Ø±Ø§Øª":7928,"ÙĦÙĦØ§Ù":7929,"ĠØ·Ø¨Ø¹Ø§":7930,"ĠØ«ÙħÙĨ":7931,"ĠÙĨØ¹ÙħÙĦ":7932,"Ø§ÙĤÙħ":7933,"ÙĥØ§ÙĪÙī":7934,"Ġdubai":7935,"ĠÙĪØ¨Ø±Ø§ÙħØ¬":7936,"ĠØ§Ø±Ø¶":7937,"Ø¨Ø±Øª":7938,"ĠØ§ÙĦÙħØ³ØªØ«ÙħØ±ÙĬÙĨ":7939,"ĠÙĬØ±ØºØ¨":7940,"ĠÙĦÙĦØ§Ù":7941,"ĠÙħØ¬ÙħÙĪØ¹":7942,"ĠØ§ÙĦØ®Ø¨Ø±Ø©":7943,"ĠØªØ¹ÙĨÙĬ":7944,"Ø³Ø¨Ø§ÙĨÙĬØ§":7945,"ĠØ§ÙĦÙĪØ¬":7946,"ĠÙĦØ®Ø¯ÙħØ©":7947,"ct":7948,"ĠØ§ÙĨØªÙĩÙī":7949,"ĠØ¨ÙĪØ¶Ø¹":7950,"ÙĤØ§Ø¯":7951,"ĠÙĪØ£Ø´Ø§Ø±Øª":7952,"Ġ400":7953,"ĠØ§ÙĦØ°ÙĩØ§Ø¨":7954,"ĠØ§ÙĦØ¬ÙħØ§ÙĦ":7955,"ĠÙĥØ±Ùħ":7956,"Ø«ÙĦØ©":7957,"Ø¨Ø§Ø±Ùĥ":7958,"ĠØ¥ÙĬØ¬Ø§Ø¯":7959,"ĠÙģØ¤Ø§Ø¯":7960,"ĠØ§ÙĦØ¶Ø±Ø§Ø¦Ø¨":7961,"ĠØ§ÙĦÙħØ´ÙĪØ±Ø©":7962,"ĠÙħØ±Ø§ÙĤØ¨Ø©":7963,"ĠÙĬØ´ÙĬØ±":7964,"ĠÙħØ¹Ø¯Ø§Øª":7965,"ĠØ³ØŃØ¨":7966,"ĠÙĦÙĦÙħØµ":7967,"ĠÙĪØªØŃÙĤÙĬÙĤ":7968,"ĠØŃØ°Ùģ":7969,"ĠØ§ÙĦØ·Ø¨ÙĤØ©":7970,"ĠÙĦØ§ØŃÙĤØ§":7971,"ĠØ±Ø§Ø¦Ø¹":7972,"ĠØ¬ÙĩØ¯":7973,"Ġon":7974,"ĠØ§ÙĦØªÙĪØ§ÙĦÙĬ":7975,"ĠØ§ÙĦØµÙĩÙĬÙĪÙĨÙĬ":7976,"ĠØ§ÙĦÙĨÙĪÙĪÙĬØ©":7977,"ĠØ§ÙĦØªØ¬ÙħÙĬÙĦ":7978,"ĠØ§Ø¹ÙĦØ§ÙĨ":7979,"ĠÙĨÙĤÙĪÙĦ":7980,"Ø¹Ø§ÙĦÙī":7981,"ĠØ£Ø¨ÙĪØ§Ø¨":7982,"ĠØªØ´Ø§Ø±Ùĥ":7983,"ĠÙĦÙĦØ±Ø¦ÙĬØ³":7984,"ĠØ§ÙĦÙħØ¹ÙĩØ¯":7985,"ĠØ±ÙĪÙĬØªØ±Ø²":7986,"ĠØ£ÙĤØ³Ø§Ùħ":7987,"Ø³Ùĥ":7988,"Ø§ÙĬØ¬":7989,"ĠØ§ÙĦØ¥Ø³ÙĥÙĨØ¯Ø±ÙĬØ©":7990,"ĠØºØ§ÙĬØ©":7991,"ÙĪÙĬØ¨":7992,"ĠØŃØ¯ÙĬØ«Ø©":7993,"ĠØªÙħÙĬØ²":7994,"ĠÙĪÙĨØµÙģ":7995,"ÙĦØ²Ù":7996,"ĠØ§ÙĦØŃÙħØ§Ùħ":7997,"ĠØ§ÙĦÙĤØ°":7998,"ĠØ§ÙĦÙħÙĨØ§Ø³Ø¨Ø§Øª":7999,"ĠØªØ®ØªÙĦÙģ":8000,"ĠØŃØ¯Ø¯":8001,"ĠÙĪØŃØ³Ø¨":8002,"ĠØ¨Ø¯Ø¹Ùħ":8003,"ĠEng":8004,"ĠØ¨Ø¯ÙĬ":8005,"ĠÙģÙĨØ§ÙĨ":8006,"ĠØ§ÙĦÙħØ³Ø§Ø¹Ø¯Ø§Øª":8007,"ĠÙĪØ£Ù":8008,"ĠØ¹ÙĥØ³":8009,"25":8010,"ĠØ§ÙĦØ´ÙĬØ¹":8011,"ĠÙħÙĬØ¯Ø§ÙĨ":8012,"ĠØ±ØºØ¨Ø©":8013,"Ø±Ø§ÙĦ":8014,"ĠØ§ÙĦØªÙĪØµÙĦ":8015,"ĠÙħÙĦÙĬØ§Ø±Ø§Øª":8016,"ĠØ«ÙħØ©":8017,"ĠØ§ÙĦÙħØ§Ø¶Ùī":8018,"ÙĤÙĬÙĦØ©":8019,"ĠØŃØ°":8020,"ĠÙĨØ¬ØŃ":8021,"ÙĦØ§ÙĨÙĬ":8022,"ĠÙģØ±Ø¯":8023,"ream":8024,"ĠÙĪØ§ÙĦÙĦÙ":8025,"ice":8026,"ØªÙĤØ§ÙĦ":8027,"Ø§Ø«Ù":8028,"ĠØ¨Ø§ÙĦØ§Ø³":8029,"ØªØ±ÙģÙĬÙĨ":8030,"ØªÙĬØ§Ø·":8031,"Ø±ÙħÙĬÙĦ":8032,"ÙĨØ§ÙĩØ§":8033,"ĠØ§ÙĦÙĤÙĬØ§Ø³":8034,"ĠØ§ÙĦÙĨØµÙģ":8035,"Ø³ÙĪØ§Ø±Ø§Øª":8036,"ÙĬÙĪØ§ÙĨ":8037,"ĠØªØ¨Ø¯ÙĪ":8038,"ĠÙĦÙĬØ²Ø±":8039,"ĠØ§ÙĦØ·Ø§Ø¦Ø±Ø§Øª":8040,"ĠØ§ÙĦØªÙħÙĪÙĬÙĦ":8041,"ÙģØ±Ø§ØŃ":8042,"ĠÙĬÙĨØ¸Ø±":8043,"ĠØ§ÙĦÙĤØ§Ø±Ø¦":8044,"ĠÙĪØ§ÙĦÙħØ¤Ø³Ø³Ø§Øª":8045,"ĠÙĨØ§Ø´":8046,"ĠØ§ÙĦØ¬Ø²Ø§Ø¦Ø±ÙĬØ©":8047,"ĠÙĬØµØ¯Ø±":8048,"ĠØ¨ÙĬØ¦Ø©":8049,"ĠÙĪÙĦÙħØ§":8050,"ĠØ§ÙĦØªØ¯Ø±ÙĬ":8051,"ĠØªØ§Ø±ÙĬØ®ÙĬØ©":8052,"ĠØ£Ø³Ø³":8053,"Ø¹ÙĪØ¯ÙĬØ©":8054,"ĠØªÙĨØ´":8055,"ĠÙĨÙĪÙħ":8056,"ĠØ¥ÙĨÙĬ":8057,"ĠÙĪØ§Ø³Ø¹":8058,"ĠØ§ÙĦØ®Ø§Ø±Ø¬ÙĬ":8059,"ĠÙĪÙĬØ·":8060,"ĠØªØŃØ§ÙĦÙģ":8061,"ĠÙĬØ¹Ø¨Ø±":8062,"Ø®Ø¨Ø§Ø±Ø§Øª":8063,"ĠØ§ÙĦØ³ÙĪØ¯Ø§ÙĨÙĬØ©":8064,"ĠØªÙĥÙĨÙĪÙĦÙĪØ¬ÙĬØ§":8065,"ĠØ§ÙĦØªØŃØªÙĬØ©":8066,"ĠØ§ÙĦÙģÙĨÙĪÙĨ":8067,"ĠâĢĶ":8068,"ĠÙĤØ¨ÙĪÙĦ":8069,"ĠØ§ÙĦÙħØŃØªÙĪÙī":8070,"ĠØ¥ØºÙĦØ§ÙĤ":8071,"ĠØ´ÙĤÙĬÙĤ":8072,"ĠØ§ÙĦØªØ±ØªÙĬØ¨":8073,"ĠØ§ÙĦØ§ÙĨØªÙĩØ§Ø¡":8074,"ĠÙĦÙģØªØ±Ø©":8075,"ĠØ§ÙĦØ´ÙĪØ±Ùī":8076,"ĠØ§ÙĦØ°Ø§ØªÙĬØ©":8077,"ĠÙħØ¹Ø§ÙĦØ¬":8078,"ĠØªÙĦØª":8079,"ĠØ¯ÙĪÙĨØ§ÙĦØ¯":8080,"Ø§ØªØ°Ø©":8081,"ĠØ£Ø³ØªØ§Ø°":8082,"ĠÙħØµÙĬØ±":8083,"Ø§ØºØ©":8084,"Ġal":8085,"Ø±ÙĤØ©":8086,"ĠØ¨Ø¹ÙħÙĦ":8087,"ĠØ§ÙħØ±ÙĬ":8088,"ĠØªØ±ÙĥÙĬ":8089,"ØªÙĬØ§Ø²Ø§Øª":8090,"ĠÙĪØ¨ØŃØ³Ø¨":8091,"ĠØ§ÙĦØ´ÙĪØ§Ø±Ø¹":8092,"ÙĦØ§ÙĦØ§Øª":8093,"ĠØ±Ø§Ùģ":8094,"ies":8095,"ĠÙĪØ§ÙĦØ°ÙĬÙĨ":8096,"ĠØ§ÙĦØªØ±Ø¨ÙĪÙĬØ©":8097,"ĠÙħØ¬ÙħÙĪØ¹Ø§Øª":8098,"Ø§ÙģÙĩ":8099,"ĠØ°Ø§ØªÙĩØ§":8100,"ĠÙħÙĩØ§Ø±Ø§Øª":8101,"ĠØ§ÙĦÙģÙĥØ±Ø©":8102,"ĠØ¹ÙĪØ¶":8103,"ĠØ§ÙĦÙħÙĦØ§ØŃ":8104,"ĠØ£ÙĨÙ":8105,"Ø§ÙĦÙħÙĨ":8106,"ST":8107,"ĠÙĦØŃÙĦ":8108,"ĠØ§Ø¹Ø§Ø¯Ø©":8109,"ĠÙĬØ´Ø±ÙģÙĨØ§":8110,"ØŃÙĬØ§":8111,"ĠØ§ÙĦØ¹Ø«Ùħ":8112,"ĠÙĦÙĦØªØµ":8113,"ĠØ§ÙĦÙħØ¯ÙĨÙĬÙĬÙĨ":8114,"ĠØ§Ø¨Ù":8115,"ĠØªØŃØµÙĦ":8116,"ĠÙħØŃØ¯ÙĪØ¯Ø©":8117,"ĠØ¨Ø§ÙĦØªÙĨ":8118,"ĠØ§ÙĦØ¯Ø±Ø§Ø³ÙĬØ©":8119,"ĠÙħØ´Ø§ÙĩØ¯":8120,"ĠÙģØŃØµ":8121,"ĠØ§ÙĦØµÙĬØ§ÙĨØ©":8122,"ith":8123,"ĠØ§ÙĦÙħØ¹Ùħ":8124,"ĠØ§ÙĦØ®Ø¨Ø±Ø§Ø¡":8125,"ĠØªØ§Ø¨Ø¹Ø©":8126,"ĠÙħÙĤØª":8127,"ĠØªØ±Ø¨ÙĬØ©":8128,"Ø§Ø²Ùħ":8129,"ĠØ§ÙĦØ£ØŃÙĬØ§ÙĨ":8130,"ĠØ§ÙĦØ¨ÙĤ":8131,"ĠØ§ÙĦÙģÙĬØ³":8132,"ĠØ²Ø±Ø¹":8133,"Ġ64":8134,"ĠØ§ÙĦØ£ÙĨØ´Ø·Ø©":8135,"Ġ67":8136,"ĠØ§Ø´ÙĩØ±":8137,"ÙĬÙĨØº":8138,"ĠØ±Ø¨Ø¹":8139,"ĠØµØ¹Ø¨":8140,"ØµÙĦØª":8141,"ĠØ§ÙĦØ®ØµÙĪØµÙĬØ©":8142,"ĠÙħØ´ØªØ±ÙĥØ©":8143,"ĠØ§ÙĦØ±ÙĤØ§Ø¨Ø©":8144,"ĬÙĦØ©":8145,"ĠØ¨ÙĨØ¸Ø§Ùħ":8146,"ĠØªØµÙĨÙĬÙģ":8147,"ĠØ§ÙĦØªØ·ÙĪÙĬØ±":8148,"ĠØ§ÙĦØ´Ø±ÙĪØŃØ§Øª":8149,"ÙģÙĩ":8150,"ĠØ¨Ø§Ø±Ùĥ":8151,"ĠØ¯Ø®ÙĦØª":8152,"ĠÙĦÙĦØ´Ø¹Ø¨":8153,"ĠÙħÙħØ«ÙĦ":8154,"ĠÙĤØ§Ø¯Ø±Ø©":8155,"ĠØ³ÙĬØªÙĬ":8156,"ĠÙĦØ¹ÙĦØ§Ø¬":8157,"ØµÙĬØ©":8158,"ØªØ§Ø¨Ø¹Ø©":8159,"ĠØ§ÙĦÙħØ¯Ùī":8160,"ÙĨØ¬Ø±":8161,"ĠØ¬ÙħÙĦØ©":8162,"ĠØ´ÙĤØ©":8163,"ÙĬØ±ÙĪ":8164,"ħØ§Ø¯":8165,"ĠØ§ÙĦØ¯Ø§Ø¦Ø±Ø©":8166,"ÙĦØ§ÙĨÙĬØ©":8167,"ÙĦØ§ØŃØ¸Ø§Øª":8168,"Ø§ÙĩØ©":8169,"ĠÙĪØ§ÙĦÙħØ¯":8170,"ĠØ§ÙĦØ³ÙĦØ·Ø§ÙĨ":8171,"ĠÙĦÙĦØ´Ø¨Ø§Ø¨":8172,"ĠØ§Ø³ØªØ«ÙħØ§Ø±":8173,"ĠØ§ÙĦØ´ÙĬØ·Ø§ÙĨ":8174,"ĠØ¥ÙĨØª":8175,"ĠØŃØ±Ø©":8176,"ĠÙĥØ§Ø³":8177,"Ø§Ø¬Ø±ÙĬÙĨ":8178,"ĠØ§ÙĦÙĨØ¨ÙĪÙĬ":8179,"ĠØµÙģÙĤØ©":8180,"ĠØ§ÙĦÙħØ³Ø§Ø¨ÙĤØ©":8181,"ĠØªØµØ§ÙħÙĬÙħ":8182,"ĠÙĪØ§ÙĦØ¹Ø´Ø±ÙĬÙĨ":8183,"ĠØ§ÙĦØªØŃÙĤÙĬÙĤØ§Øª":8184,"ĠÙĬÙģØ¹ÙĦ":8185,"ĠÙĦÙĦØ§ØªØŃØ§Ø¯":8186,"Ø¹ÙĪØ¨Ø§Øª":8187,"ÙīØ¡":8188,"ĠØ±ØŃÙĦØ§Øª":8189,"ĠØ§ÙĦØ§ÙĨÙĤÙĦØ§Ø¨":8190,"ĠØ¹ÙĬØ§Ø¯Ø©":8191,"ÙĦÙĨØª":8192,"ĠØŃØ¯ÙĬØ«Ùĩ":8193,"ĠØ§ÙĦÙħØ¬ØªÙħØ¹Ø§Øª":8194,"Ø³Ø³Øª":8195,"ĠØ§Ø®ØªÙĦØ§Ùģ":8196,"ĠØ§Ø³ØªØ®":8197,"ĠÙĤØ¶Ø§Ø¡":8198,"ĠØ¹ÙħØ±Ùĩ":8199,"ĠØ´Ø§ÙħÙĦØ©":8200,"th":8201,"Ø§ÙĪÙģ":8202,"ĠÙĪØ¹Ø±Ø¶":8203,"ĠST":8204,"ĠØ§ÙĦÙħØ³ØªØ®Ø¯ÙħÙĬÙĨ":8205,"ĠÙĪÙĦÙĤØ¯":8206,"ĠÙĦÙħÙĨØ¹":8207,"ĠØ¨Ø§ÙĦØ¹ÙħÙĦ":8208,"ĠÙĦØªØ£":8209,"ØªÙĬØ§Ø²":8210,"ĠÙĪØ§Ø³ØªÙĤ":8211,"ĠÙĦÙĦØ£Ø·ÙģØ§ÙĦ":8212,"ĠØ´Ø¹Ø¨ÙĬØ©":8213,"ĠØ¨Ø§ÙĦÙĤØ§ÙĩØ±Ø©":8214,"ĠØ±Ø³Ùħ":8215,"ĠØ²Ø§Ø¦Ø±ÙĨØ§":8216,"ĠØ¨Ø¶Ø±ÙĪØ±Ø©":8217,"Ø¹Ø¯Ø¯":8218,"ĠÙħØ¹Ø±ÙĪÙģ":8219,"ĠØ§ÙĦÙħØ¹ÙĦÙħÙĬÙĨ":8220,"ĠØ§ÙĦÙħØ³ØªÙĩÙĦÙĥ":8221,"Ø·ÙĪÙĦØ©":8222,"ĠØ§ÙĦØŃÙĦÙĪÙĦ":8223,"Ø´Ø®Ø§Øµ":8224,"ĠØ³ÙĬØ´":8225,"ĠØ§ÙĦÙĪØ³Ø§Ø¦ÙĦ":8226,"ĠØ§ÙĦØªØ·ÙĪØ±":8227,"ĠØ§ÙĦØ¬ÙħÙĬÙĦ":8228,"ĠØ§ÙĦÙħØµØ§ÙĦØŃ":8229,"ĠØ§ÙĦØ£Ø³Ø¦ÙĦØ©":8230,"ĠØ£Ø¹ÙĦÙħ":8231,"ĠØ£Ø³ÙĪØ§ÙĤ":8232,"ĠØªØªØ¨Ø¹":8233,"ĠØ¬ÙĨØ¨":8234,"ĠØªÙħØªÙĦÙĥ":8235,"ĠØ§ÙĦØ³ÙĬÙĨÙħ":8236,"ĠØ§ÙĦØ§ØŃØªÙĬØ§Ø¬Ø§Øª":8237,"ĠØ£ØŃØ³ÙĨ":8238,"ĠÙĬØ¤Ø«Ø±":8239,"ĠÙĬØªÙħÙĥÙĨ":8240,"ĠØ§ÙĦØ¥ÙĨØ³":8241,"Ø¹Ø¯Ø§Ø¯Ø§Øª":8242,"ĠØ§ÙĦÙģØ±Øµ":8243,"ĠØ§ÙĦØ±Ø¬Ø§Ø¡":8244,"ĠØ§ÙĦØ¯ÙħØ§Ùħ":8245,"ĠØ§ÙĦÙħÙĦØ¹Ø¨":8246,"ĠØ§ÙĦØ±ØŃÙĬÙħ":8247,"ĠØ§ÙĦØªØ®ÙĦØµ":8248,"ĠØ¹Ø§Ø¬":8249,"ĠØ§ÙĦÙĨÙģØ³ÙĬ":8250,"ħØ§Ø¦Ø©":8251,"ĠØ¨Ø³ÙĬØ·Ø©":8252,"ĠØ§ÙĦØ³ÙĬÙĨÙħØ§":8253,"ĠØ£ÙĬÙĦ":8254,"ĠØ¨ÙĬÙĥ":8255,"ĠØ§ÙĦÙĦØ¬Ø§ÙĨ":8256,"Ø¸Ø§Øª":8257,"ĠØ§ÙĦÙħØ®Ø§Ø·Ø±":8258,"Ø¹ÙĪÙĥ":8259,"Ø§Ø·ÙĦ":8260,"ħÙĦØ§Ø¦":8261,"ĠØ¨Ø¯ÙĪØ±":8262,"ĠÙĦØ§ÙĨÙĩ":8263,"ĠØ§Ø«ÙĨØ§Ø¡":8264,"oogle":8265,"ĠØ§ÙĦØ¬Ø§Ùĩ":8266,"ĠÙĤÙĬÙĦ":8267,"ĠÙĦØ¹ÙħÙĦÙĬØ©":8268,"ĠØ§ÙĦØ¹Ø±Ø¨Ùī":8269,"ĠØ§ÙĦÙĨÙĤØ§Ø¨Ø©":8270,"24":8271,"ĠØ§ÙĦØ£Ø±Ø¯ÙĨÙĬØ©":8272,"ĠØ§ÙĦØ¥Ø´Ø§Ø±Ø©":8273,"ĠØ³ÙħØ¹Øª":8274,"ĠÙĪØŃÙħ":8275,"ĠØ¢ÙĦÙĬØ©":8276,"ĠØ§ÙĦÙĦÙĬÙĦØ©":8277,"ĠØªÙĪÙĨ":8278,"enter":8279,"ĠØ°Ø§":8280,"ÙĪÙĦÙĪØ¬ÙĬ":8281,"ÙħÙĪØ§":8282,"ĠØ¹Ø§ÙĦÙħÙĬØ§":8283,"ĠÙĦÙħØ²ÙĬØ¯":8284,"Ø¨ÙĨ":8285,"ĠÙħÙĬÙĦØ§Ø¯":8286,"ĠØ¨Ø¢":8287,"ĠÙĨÙĪÙĨ":8288,"ustom":8289,"ÙĦØ¬Ø£":8290,"ĠØµØ¯ÙĬ":8291,"ĠØ¨Ø§ÙĦØ§Ø³Øª":8292,"ĠØ§ÙĦÙģØ¬Ø±":8293,"ĠØ±ØŃÙħØ©":8294,"ÙģØ±Ø§Ø¬":8295,"ĠØ£Ø±Ø§Ø¶ÙĬ":8296,"ÙĦØªÙĬ":8297,"ĠÙĪØ¶Ø¹Øª":8298,"ĠØ±Ø¨Ø·":8299,"ĬÙĩØ¯Ùģ":8300,"ĠØ§ÙģØ±ÙĬÙĤÙĬØ§":8301,"ĠØ£ØµÙĬØ¨":8302,"ĠÙĪØ£ÙĥØ¯Øª":8303,"ÙĬÙĩØ¯Ùģ":8304,"ĠØ§ÙĦÙĪØ«Ø§Ø¦ÙĤ":8305,"ĠÙĬÙĩØ¯Ùģ":8306,"ĠÙħØŃØ§ÙģØ¸Ø§Øª":8307,"ĠÙĦÙĦØ³ÙĦØ¹":8308,"ĠØ¹Ø·Ø±":8309,"ĠØ±Ø¤Ø³Ø§Ø¡":8310,"ĠØ§ÙĦØªÙĤØ§Ø±ÙĬØ±":8311,"ĠØ¬ÙĬØ¨":8312,"ĠØ§ÙĦØ¬Ø§ÙħØ¹ÙĬØ©":8313,"Ø§ÙĪÙħ":8314,"ØºØ±Ø§Ø¶":8315,"ĠØ³ÙĪÙĬØ³":8316,"ĠØ§ØŃØªÙĬØ§Ø¬Ø§Øª":8317,"ĠØ§ÙĦØ®ÙĦØ§ÙĬØ§":8318,"ĠØŃØ±Ùģ":8319,"ĠØ¯Ø¨ÙĦÙĪÙħ":8320,"ĠÙĬÙĤÙĪØ¯":8321,"ĠØ§Ø³ØªØ¹ÙħØ§ÙĦ":8322,"ĠÙĨØ¶":8323,"ĠØ§ÙĦØ±Ø¦Ø§Ø³ÙĬØ©":8324,"Ø¸Ø§ÙĩØ±ÙĬÙĨ":8325,"ĠØ¬ÙģØ¹Ø§Øª":8326,"ĠØ¥Ø¹ÙĦØ§ÙħÙĬØ©":8327,"ĠØ¨ÙĬØ±ÙĬ":8328,"ĠØ£ÙĦÙĪ":8329,"ĠØ³Ø§Ø¦ÙĤ":8330,"ÙĦÙĪØ³":8331,"ĠØ§ÙĦØ±ÙĪÙħ":8332,"ĠØ¹Ø²ÙĦ":8333,"ĠØ§ÙĦØ¨Ø´Ø±Ø©":8334,"ĠØ¹Ø³ÙĬØ±":8335,"Ø§Ø¦Ø³":8336,"ĠÙĬØªØ¬Ø§ÙĪØ²":8337,"ĠØ£Ø¶Ø§Ùģ":8338,"ĠØ¨ØµÙģØ©":8339,"ĠÙĪØ²ÙĬØ±Ø©":8340,"ĠØ§ÙĦÙħØ·Ø§Ø±":8341,"ĠÙģØ§Ø±Ø³":8342,"ĠÙĪØ£ÙĤ":8343,"ĠØ§ÙĦÙħØ¹ÙĨÙī":8344,"ĠØ¨Ø§ÙĦÙħÙĪ":8345,"ĠÙĦÙħÙĥ":8346,"ĠØ¯Ø±Ø§Ø³":8347,"ĠØ§ÙĦÙħØ³ÙĬØŃÙĬØ©":8348,"if":8349,"ĠØ¹ÙħØ§ÙĦ":8350,"Ø²ÙĬÙĩ":8351,"ĠSh":8352,"Ø±Ø§Ø¨":8353,"reat":8354,"ĠØ§ÙĦÙħØ§ÙĦÙĥÙ":8355,"ĠÙĪØ§ÙĦÙħØ±Ø¦ÙĬØ§Øª":8356,"ĠØ§ÙĦÙħØ§ÙĦÙĥÙĬ":8357,"Ø´Ø³ØªØ±":8358,"ĠØ§ÙĨØªØ¸Ø§Ø±":8359,"Ġcustom":8360,"ĠÙģØªØ§Ø©":8361,"ĠÙħÙĨÙģ":8362,"ĠØ§ÙĦØ®ÙĬÙħØ©":8363,"ĠØµÙĨØ¹Ø§Ø¡":8364,"ĠØ§ÙĦØ£ÙĨØ¯ÙĬØ©":8365,"ĠØ§ÙĦØ§ÙĥØª":8366,"ĠØ§ÙĦØ¬ÙĪÙĬ":8367,"ĠØ§ÙĦÙħØ³Ø£ÙĦØ©":8368,"ĠØ§ÙĦÙħÙĤØ¯Ø³Ø©":8369,"ĠØ³ÙħØ§ØŃØ©":8370,"ĠÙħÙĨØµ":8371,"ĠÙĦÙĦØµØŃ":8372,"11":8373,"ĠØ£Ø¹Ø·":8374,"ĠÙĪØ§ÙĨØ§":8375,"Ø±Ø¨Ùĩ":8376,"ĠØ¹ÙģØ´":8377,"ect":8378,"ĠØ§ÙĦØªØŃØ¯ÙĬØ§Øª":8379,"ss":8380,"ĠØ§ÙĦØ´Ùĥ":8381,"ĠØ§ÙĦÙĤØ±Ùī":8382,"ĠØ§Ø¨ØªØ¯":8383,"Ø§Ø³ÙĪØ¨":8384,"ĠÙħØ³ØªÙħØ±Ø©":8385,"ĠØ¥ÙĦÙĬÙĥ":8386,"ĠØ§ÙĦØ£ÙĨØ¨Ø§Ø¡":8387,"Ø¬ÙĬØ§ÙĦ":8388,"ĠØ§ÙĪÙĦÙī":8389,"ĠØ§ÙĦØ¹ÙħÙĬØ¯":8390,"ĠØ§ÙĦØ¹ÙħØ§ÙĦØ©":8391,"ĠÙĤØ§Ø¯":8392,"ĠØ§ÙĦØŃØ§Ø³Ø¨":8393,"ĠØ£Ø¨ÙĬØ¨":8394,"ĠØ§ØªØµØ§ÙĦ":8395,"Ø·Ø¨Ø§ÙĤ":8396,"ÙĪØ¬Ø©":8397,"ĠØ§ÙĦØ±ÙħØ¶Ø§ÙĨÙĬØ©":8398,"ĠÙĪØ§ÙĦØ°Ùī":8399,"ĠØ´Ø§Ø±":8400,"af":8401,"ØµØ§Ø¨Ø§Øª":8402,"ĠÙĪÙĥØª":8403,"ĠÙĪØ§ÙĦØ®Ø¨Ø±Ø©":8404,"ĠØ§ÙĦØ´Ø§ÙħÙĦ":8405,"ĠØ·Ø¨ÙĬ":8406,"ĠØ§ÙĤØªØµØ§Ø¯":8407,"ĠÙĪØ§ÙĦØ¨ØŃØ«":8408,"ĠØ³Ø§ÙħØ³ÙĪÙĨ":8409,"Ø±Ø·Ø©":8410,"ĠØ¬Ø§Ø²":8411,"ĠÙĪØ§ÙĦØ£ØŃ":8412,"ÙĪÙģØª":8413,"Ø§Ø¤Ùĩ":8414,"ÙĦØ§ÙħÙĬØ°":8415,"ĠPh":8416,"ÙĤØªØµØ§Ø¯":8417,"ÙĨØ§Ùħ":8418,"ĠØ§ÙĦØ³Ø±Ø·Ø§ÙĨ":8419,"ĠÙĬÙĤØ¨ÙĦ":8420,"ĠÙĦØ«":8421,"ÙĪÙħÙī":8422,"ĠØ§ÙĦØªÙĪØ¸ÙĬÙģ":8423,"ard":8424,"ĠÙĬÙĤØª":8425,"ÙģÙĪÙĨ":8426,"ØªØ©":8427,"ĠØ¹ÙĬØ´":8428,"ĠÙĦÙĦØ£Ø³":8429,"ĠÙĪØªØ¹Ø§ÙĦÙī":8430,"lish":8431,"ĠØ¶ØŃØ§ÙĬØ§":8432,"Ġy":8433,"ĠØ§ÙĦÙħÙģØªÙĪØŃØ©":8434,"ĠØ§ÙĦØ³Ø¹ÙĬØ¯":8435,"ÙĦÙĬØµ":8436,"ĠØŃÙħÙĬØ¯":8437,"ĠØ§ÙĦØ£ÙģØ±Ø§Ø¯":8438,"ĠÙħÙĬØ²Ø§Øª":8439,"ĠØ§ÙĦØ¯ÙĬÙĥÙĪØ±":8440,"ĠØ±Ø¶":8441,"ĠØ§ÙĦÙħÙĩÙĨÙĬ":8442,"ĠØ®Ø·ÙĬØ±Ø©":8443,"ĠØ§ÙĦØ®Ø·Ø£":8444,"Ø§Ø¶ØŃ":8445,"ĠÙĦØªØ®":8446,"ĠÙĩØ§ÙĬ":8447,"ĠØ®Ø¨Ø±Ø©":8448,"ĠØ¨ÙĪÙĦÙĬ":8449,"ĠØ§ÙĦØµÙĪÙħ":8450,"ØªØ¨Ø§ÙĥØ§Øª":8451,"ĠÙģØ¥ÙĨÙĩØ§":8452,"ĠØ¬Ø±Øª":8453,"ĠØ§ÙĦÙħØ·Ø±":8454,"ĠØ¥ÙĨØ³Ø§ÙĨ":8455,"ĠØ§ÙĦØ³ÙĥÙĨÙĬØ©":8456,"ĠCh":8457,"ĠØ£Ø¹Ø¯Ø§Ø¯":8458,"ĠØ§ÙĦÙĦØŃØ¸Ø©":8459,"ĠÙĪØ®ÙĦØ§ÙĦ":8460,"ĠÙħÙĨØ·":8461,"ØŃÙĬØ©":8462,"ĠÙĥÙĬÙĦÙĪÙħ":8463,"Ø§Ø¬ÙĩØ§Øª":8464,"ĠÙĨÙĬØ±":8465,"ĠØ§ÙĦØ¨ÙĤØ§Ø¡":8466,"ĠØ§ÙĦØ§Ø³ØªÙĤÙĦØ§ÙĦ":8467,"ĠØªØ¹Ø±Ø¶Øª":8468,"ĠÙħØ±Ø³Ùī":8469,"ĠÙħØŃÙģÙĪ":8470,"ħÙĦØ¹":8471,"ĠØ¯Ø§Ø¦Ùħ":8472,"ØªØŃØ§Ø¯":8473,"ĠØ¨ÙĪÙĥØ³":8474,"ĠØ§ÙĦÙĥÙĦ":8475,"ĠØ§ÙĦÙĪØŃÙĬØ¯Ø©":8476,"ÙĥÙĦÙħ":8477,"ĠØ§ÙĦØªØ£Ø«ÙĬØ±":8478,"Ġ85":8479,"ĠÙĬØ§Ø³Ø±":8480,"ĠÙĪØ§Ø¨ÙĨ":8481,"ĠÙĬÙħØªÙĦÙĥ":8482,"ĠØ§ÙĦÙĤØ§Ø¯Ø±":8483,"ĠØ¨Ø¥ÙĨ":8484,"ĠØ®ÙģØ¶":8485,"ĠØ§ÙĦÙħØ´Ø±":8486,"ħØ¨Ø¯Ø£":8487,"ĠØµØ¹ÙĪØ¨Ø©":8488,"ĠØ´ÙĩÙĪØ±":8489,"Ø±ÙĪØ±ÙĬØ©":8490,"Ø±ÙĬØ§ÙĨ":8491,"ÙħÙĦØ¹":8492,"ĠØ§ÙĨØªÙĩØ§":8493,"ĠØ¥Ø´Ø§Ø±Ø©":8494,"Ø³Ø§Ø·Ø©":8495,"ĠØ§ÙĦØ´Ø±ÙĤÙĬ":8496,"ĠØªØªÙħÙĬØ²":8497,"ĠØ§ÙĦØ¬ÙħØ¹ÙĬØ§Øª":8498,"ĠØ§ÙĦØªØ§Ø³Ø¹Ø©":8499,"ĠÙĬØ®ØªÙĦÙģ":8500,"ĠØ®Ø³Ø§Ø¦Ø±":8501,"ÙĪÙĬÙĦØ§Øª":8502,"ÙħØ§Ø¦Ø©":8503,"ĠØªØ£Ø®Ø°":8504,"ĠØ§ÙĦÙħØ®ØªØµØ©":8505,"ĠØ³ÙģÙĬØ±":8506,"ĠÙĪØŃÙ":8507,"ĠØªØ®ÙģÙĬØ¶":8508,"Ø¶ÙĬÙĦØ©":8509,"Ø°ÙĬØ±":8510,"ĠØ§ÙĦØ´ÙĩÙĬØ±":8511,"ĠÙĬØ³Ø¨Ø¨":8512,"ĠÙħÙĦØ¹":8513,"ĠØ§ÙĦØµØ§Ø¯Ø±Ø©":8514,"ud":8515,"ĠØ£Ø³ÙĪØ§ÙĨ":8516,"Ø§Ø¦Ùĥ":8517,"ØªØ±ØŃ":8518,"ĠÙĨÙĪØ¹ÙĬØ©":8519,"ĠØ§Ø³ØªÙĤØ±Ø§Ø±":8520,"ĠØ§ÙĦØ£ÙĩÙĦÙĬØ©":8521,"ĠSp":8522,"Ø¯ÙĤØ§Ø¡":8523,"Ø±Ø¨ÙĪÙĨ":8524,"ĠØ£Ø±ÙĬØ¯":8525,"ĠØ§ÙĦØ§ÙħØ±ÙĬÙĥÙĬØ©":8526,"ĠØ£Ø¹Ø±Ùģ":8527,"ĠÙģÙĬØ³Ø¨":8528,"Ø·ÙĬÙĦ":8529,"ĠØ¨ÙĦØ§Øº":8530,"ĠØ§ÙĦÙħØ´Ø±ÙĪØ¹Ø§Øª":8531,"ÙĬÙģØ§":8532,"ħØ³Ùĥ":8533,"ĠØ§ÙħÙĨ":8534,"Ġ63":8535,"ĠØ§ÙĦØ¹ÙħÙĬÙĦ":8536,"ĠØ¹Ø§ÙħØ±":8537,"ÙħØ¨Ø¯Ø£":8538,"ĠØ·Ø¨ÙĬØ¹Ù":8539,"ĠØ·Ø¨ÙĬØ¹ÙĬ":8540,"ĠÙĬØ±Ø¯":8541,"ĠÙħØ¨Ø¯Ø£":8542,"ÙĤÙĬÙĨ":8543,"ĠØ§ÙĦÙħÙĤØ¯Ø³":8544,"ĠÙĬØ±ÙģØ¶":8545,"ĠÙĦÙĦØ£Ø³Ùģ":8546,"ĠØ®ÙĬØ§Ø±Ø§Øª":8547,"ĠØ«Ø§ÙĨÙĬØ§":8548,"ĠÙĪØ£ÙĨØª":8549,"ĠÙĪÙĨÙĤÙĦ":8550,"Ø·ÙĪÙĨ":8551,"Ø±ÙĪØŃØ©":8552,"ĠØ§ÙĦØ¹Ø°":8553,"ĠØªØ´ÙĥÙĬ":8554,"ÙĪØ§Ø¦ÙĬØ©":8555,"ĠÙĪØ§ÙĦØ¥Ø³":8556,"ØµØ¯ÙĤØ§Ø¡":8557,"ĠØ§ÙĦØ¹Ø·":8558,"ÙĬØ¡":8559,"ĠÙģÙĦÙĬ":8560,"ĠØ§Ø®ØªØ§Ø±":8561,"ĠØ§ÙĦØ¨Ø±Ø§Ø²ÙĬÙĦ":8562,"ÙĪØ£":8563,"ĠCN":8564,"ÙĩØ±Ø§Øª":8565,"ĠÙħØŃØ·Ø§Øª":8566,"ĠÙĪØ§ÙĦØµØŃØ©":8567,"ĠØ§ÙĦØŃØµØ§Ø±":8568,"ĠØ§ÙĦØ§ÙĦØ¹Ø§Ø¨":8569,"ÙĪÙĦÙĬØ§Øª":8570,"ĠØ³Ø±ÙĬØ¹":8571,"ħØ§Ø°Ø¬":8572,"ĠØ¨Ø§ÙĦØ¯Ø®ÙĪÙĦ":8573,"ĠØ§ÙĦØ¹ÙĬØ´":8574,"ĠÙĦÙĦØªÙĨÙħÙĬØ©":8575,"ĠØ¥Ø¹ÙĦØ§Ùħ":8576,"ĠØ®Ø§Ø±":8577,"ĠØ¹Ø¶ÙĪØ§":8578,"ĠÙĪØ²ÙĬØ§Ø¯Ø©":8579,"ÙĤÙĪÙĦØ©":8580,"ĠØ§ÙĦØ±ÙĬØ§ÙĦ":8581,"ĠÙĪØ£Ø´":8582,"ÙĪØ§ØªØ¨":8583,"ĠØ§ÙĦØ³ÙĪØ¯Ø§Ø¡":8584,"Ø¬ÙĨØ¨":8585,"ĠÙģØŃØ³Ø¨":8586,"ĠØ§ÙĦØ§ÙħØ§Ùħ":8587,"ĠØ§ÙĦØ¸ÙĩØ±":8588,"ĠØ§ÙĦÙħÙĪØ§ÙĤÙģ":8589,"Ø§ÙĨÙĬÙĥ":8590,"ĠÙĦØªØ¬":8591,"Ø§Ø²ÙĬØ©":8592,"ĠØ§ÙĦÙĨÙĤØ§Ø·":8593,"ĠØ±Ø§Ø³":8594,"ĠØªÙħÙĥÙĨØª":8595,"Ø¹ÙĦÙĩØ§":8596,"ĠØ§ÙĦØ²ÙĪØ¬ÙĬØ©":8597,"ĠØ§ÙĦØ¹Ø§Ø¯ÙĬØ©":8598,"ĠÙģÙĦÙĪ":8599,"ĠØ§ÙĦØªÙĪÙĨØ³ÙĬØ©":8600,"ĠØ£Ø¬ÙħÙĦ":8601,"ÙĤØ§ÙĬØ©":8602,"Ø§ÙĦØ²":8603,"ĠØ±Ø³ÙħÙĬ":8604,"ĠØ³Ø¨Øª":8605,"ĬØ¨ÙĬØ©":8606,"Ø§Ø±ÙĬÙģ":8607,"ĠØ¥ÙĬØ·Ø§ÙĦÙĬØ§":8608,"ĠØ§ÙĦØ¯Ø®ÙĦ":8609,"ĠÙĬØ¤ÙħÙĨ":8610,"ĠØ¯Ø¨":8611,"ĠØ§ÙĦÙĦØ¬ÙĪØ¡":8612,"ĠÙħÙĪØª":8613,"Ø³ÙĬÙĪÙĬØ©":8614,"ĠÙĪÙĦÙĥÙ":8615,"ĠÙĪØ§Ø«":8616,"ĠØ±Ø¶Ø§":8617,"ħÙģØ±":8618,"ÙĬÙĥØ³":8619,"ĠØ¶Ùħ":8620,"Ø³ÙĬÙĤÙĬØ©":8621,"ĠØ§Ø³ØªØ¯":8622,"ĠØ§ÙĦØ§ØŃØªÙģØ§ÙĦ":8623,"ĠØªØ¬Ø¯ÙĬØ¯":8624,"ĠØ£Ø«Ø¨Øª":8625,"ĠØŃØ§ÙģØ¸":8626,"ĠØ¬ÙĪÙĦØ©":8627,"ĠØ§ÙĦÙĨØ´":8628,"ĠØ¥Ø¬ÙħØ§ÙĦÙĬ":8629,"ĠØ£Ø¹Ø±Ø§Ø¶":8630,"Ø¸ÙĨ":8631,"ÙħÙģØ±":8632,"ĠØªÙĨØ¸Ùħ":8633,"ĠÙħÙģØ±":8634,"ĠÙĦÙĦØ¢":8635,"Ø®ØµÙ":8636,"Ø§Ø´Ùħ":8637,"Ø¯ÙĬØª":8638,"ĠØŃÙģØ¸Ùĩ":8639,"ĠÙĪÙĦÙĬØ³Øª":8640,"ĠØ¨Ø·ÙĦ":8641,"Ø¹Ø§Ùģ":8642,"ĠÙĦØªÙĨÙģÙĬØ°":8643,"ĠÙĪØ§ÙĦØ¹Ø§ÙĦÙħÙĬØ©":8644,"ĠØªØ±ÙĥÙĬØ©":8645,"ĠØ§ÙĦØµØ¹Ø¨":8646,"ĠØ§ÙĦÙħÙĪØ³ÙĬÙĤÙī":8647,"ĠØ§ÙĦØ¹Ø§Ø´Ø±Ø©":8648,"ÙĪØªÙĬ":8649,"ĠØªÙĪØ¨":8650,"ĠÙĪØŃØ¯Ø§Øª":8651,"ĠØ§ÙĦÙħØ¬Ø§ÙĦØ³":8652,"ĠØ´Ø¯ÙĬØ¯Ø©":8653,"ĠØªÙĥØ´Ùģ":8654,"Ø§Ø¤Ù":8655,"ĠØ¥Ø²Ø§ÙĦØ©":8656,"ĠØ£ÙĬÙĦÙĪÙĦ":8657,"ĠÙĦØ§ØŃØ¸":8658,"Ø¨Ø§ÙĬÙĦ":8659,"ĠÙĬÙĥØ´Ùģ":8660,"ĠØ§ÙĦØ§Ø¹ØªØ¨Ø§Ø±":8661,"ĠÙĬØ±ÙĬØ¯ÙĪÙĨ":8662,"ĠØ´Ø§Ùĩ":8663,"ĠØŃØ±ÙĬ":8664,"ĠÙĤØ§Ø³Ùħ":8665,"ÙĪØ¬Ø¨":8666,"ĠÙģÙĪØ±Ø§":8667,"ĠØ§ÙĦØ§Ø³Ø±Ø§Ø¦ÙĬÙĦÙĬØ©":8668,"ĠØ§ÙĦØ§ØŃØªØ¬":8669,"ÙģÙĬØ²":8670,"ĠØªØ¤Ø«Ø±":8671,"Ø§Ø±Ùħ":8672,"ĠØ§ÙĦÙĪÙĦØ§Ø¯Ø©":8673,"ĠÙģÙĤØ¯Ø§ÙĨ":8674,"ĠØ§ÙĦØŃØ¬Ø±":8675,"ĠØ§ÙĦÙģØ§Ø±":8676,"ĠØ£ÙĬØ¯ÙĬ":8677,"ĠØ§Ø·Ø§Ø±":8678,"olog":8679,"ĠÙħØ®ÙĬÙħ":8680,"Ø±ÙĪØ§ØŃ":8681,"ÙĩØ§Ø¨ÙĬÙĬÙĨ":8682,"Ø·Ø¨ÙĤ":8683,"ĠÙĪØµÙĪÙĦØ§":8684,"ħØ¨ÙĬØ¹Ø§Øª":8685,"Ø§ÙĥØ§":8686,"ÙħØªÙĩ":8687,"ĠØ§ÙĦØ´Ø§Ø±ÙĤØ©":8688,"ĠØ§ÙĦÙħØ¯Ø±Ø³ÙĬØ©":8689,"ÙħØ¨ÙĬØ¹Ø§Øª":8690,"ÙĪÙģÙī":8691,"ĠÙħØ¨ÙĬØ¹Ø§Øª":8692,"ÙĨÙĪ":8693,"ĠØ¬ÙĩØªÙĩ":8694,"ĠÙĬØªÙĪÙĤØ¹":8695,"ĠØ¨Ø§ÙĦØ²":8696,"ĠØ§ÙĦÙħØªÙĤØ¯ÙħØ©":8697,"ĠØ§Ø³ØªÙĤØ¨ÙĦ":8698,"ÙĦØ§Ø«Ø©":8699,"27":8700,"ĠÙĪÙĦØ¨":8701,"ĠØ§ÙĦØŃÙħØ±Ø§Ø¡":8702,"ĠØ£Ø¹ØªÙĤØ¯":8703,"ĠØ§ÙĦÙĬØ§Ø¨Ø§ÙĨÙĬØ©":8704,"ĠÙĪÙĥØ°Ø§":8705,"ĠÙĪØºÙĬØ±ÙĩÙħ":8706,"Ø¨ÙĪÙĥ":8707,"ĠØŃÙĦÙģ":8708,"ĠØ¥ÙĦÙĬÙĩÙħ":8709,"ĠÙģÙĬØª":8710,"ĠØ§ÙĦÙħØªÙĨÙĪØ¹Ø©":8711,"ĠØªÙħÙĪÙĬÙĦ":8712,"ĠÙĩØ§ÙħØ´":8713,"ĠÙħÙĨØµØ©":8714,"ĠØ§ÙĦØ¹ÙĤÙĪØ¯":8715,"ĠØ§Ø·ÙĦØ§ÙĤ":8716,"ĠØµØ±Ø§Ø¹":8717,"ĠØªÙħØ³":8718,"ĠØ¨Ø§Ùħ":8719,"ĠØ§ÙĦÙħØ±Ø´ØŃÙĬÙĨ":8720,"ĠÙħØµØ±ÙĬØ©":8721,"ĠÙħÙĨØ§ÙģØ³Ø§Øª":8722,"ĠØ®Ø§Ø·":8723,"Ø§Ø£":8724,"ÙĤØ§Ø¨":8725,"ĠØ§ÙĦØ¥ÙĬØ·Ø§ÙĦÙĬØ©":8726,"ĠØ³Ø¨Ø§ÙĤ":8727,"ĠØ·Ùĩ":8728,"Ø§ÙĩØ¯ÙĬÙĨ":8729,"ĠØ³Ø¨Ø£":8730,"ĠÙĨØ¸ÙĬØ±Ùĩ":8731,"ĠØ³ÙĬØ¬":8732,"Ø¹ÙĦÙħ":8733,"ĠÙĬØ³ØªØŃÙĤ":8734,"ĠÙħÙĪØ¶Ø¹":8735,"ĠØ§ÙĦØ³ÙĨÙĪÙĬ":8736,"ħØ§ÙĦØ§":8737,"ĠØ¹ÙĨØµØ±":8738,"ĠÙħÙĨÙĥÙħ":8739,"ĠÙģÙĬØ³Ø¨ÙĪÙĥ":8740,"ĠØºØ±ÙĬØ¨":8741,"ĠØ·ÙħÙĪ":8742,"Ø¹Ø«":8743,"ĠÙĥØ§ØªØ¨ÙĩØ§":8744,"ĠÙĪØ£ÙĪØ¶ØŃØª":8745,"ĠØ¨Ø¹Ø«":8746,"ĠÙģÙĥÙĬÙģ":8747,"ĠØ£ÙħÙĬØ±ÙĥØ§":8748,"ĠØ§ÙĦÙĪØ§ØŃØ¯Ø©":8749,"ĠØ§ÙĦØ®ÙĪÙģ":8750,"ĠØ¨Ø¯ÙĪØ±Ùĩ":8751,"ØªØ¹Ø§Ø¯":8752,"ĠØ£ÙĬØ§Ø±":8753,"Ø±ÙħØ§":8754,"ĠØªØŃÙĦÙĬÙĦ":8755,"ĠØ§ÙĦÙĤÙĬØ§ÙħØ©":8756,"ĠØ³ÙĬØ·Ø±":8757,"ĠØ¥Ø¹ÙĦØ§ÙĨØ§Øª":8758,"ĠÙĪØ§ÙĦØ£ÙħÙĨ":8759,"ĠÙħØ®Ø§Ø·Ø±":8760,"ĠØªØŃØ±Ùĥ":8761,"Ø¨Ø«":8762,"Ø¯Ø±Ø§ÙĨ":8763,"Ø®Ø¯ÙħØ©":8764,"ĠØªØµÙģ":8765,"ĠØ¨ØŃÙĬ":8766,"ĠØ§ÙĦØ¹Ø§Ø´Ø±":8767,"][":8768,"Ø±Ø§Ø¬":8769,"ĠÙĬØªÙĨ":8770,"ĠØ¹Ø¨Ø¯Ø§ÙĦÙħ":8771,"Ø¬ÙĦØª":8772,"ĠÙĤÙĦ":8773,"ĠÙĦÙħØ¤":8774,"ĠØ§Ø¬Ø±Ø§Ø¡":8775,"ĠÙĪØ§ÙĦÙĦÙĪØ¯Ø±Ø§Øª":8776,"ÙĪÙĬÙĦØ©":8777,"ĠØ§ÙĦÙħØ¤ÙĦÙģ":8778,"ĠØ·ÙĬÙĪØ±":8779,"ĠØ£Ø±Ø¬":8780,"ĠÙĦØ¥Ø¹Ø§Ø¯Ø©":8781,"ĠØ§ÙĦÙħØ¹Ø§ÙĦØ¬":8782,"ĠØ§ÙĦØ¥ÙĤÙĦÙĬÙħÙĬØ©":8783,"ĠØ§ÙĦØ²ÙĬØªÙĪÙĨ":8784,"ĠØ§ÙĦØ²ÙĩØ±":8785,"ØºØ·Ù":8786,"ØºØ·ÙĬ":8787,"ĠÙĪØ±ÙĤØ©":8788,"ĠØ§ÙĦØ´Ø±Ø§Ø¡":8789,"ma":8790,"19":8791,"ĠØ£ÙħÙĪ":8792,"ĠØ§ÙĦÙħØµÙĨ":8793,"Ø¬Ø§Ø¹":8794,"ult":8795,"ĠÙħØ¹Ø³ÙĥØ±":8796,"ĠØ´Ø§Ø´Ø©":8797,"ĠØ£Ø³Ø¦ÙĦØ©":8798,"ĠØºÙĬÙĨÙĬØ§":8799,"ĠØ§ÙĦØ¶ÙħØ§ÙĨ":8800,"ĠØ²Ø¹ÙĬÙħ":8801,"ĠÙĦÙĪØ²Ø§Ø±Ø©":8802,"ĠÙĬØ¹Ø·ÙĬ":8803,"ÙĦØ§ÙĬØª":8804,"ĠØªØªØ¬Ø§ÙĪØ²":8805,"ĠØ§ØªØµØ§ÙĦØ§Øª":8806,"ĠØµØ¯ÙĤ":8807,"ĠÙĩÙĪØ§Ø©":8808,"AS":8809,"ĠØªØ³ÙĦÙħ":8810,"ĠØ§ÙĦÙĤØªÙĦ":8811,"ĠØ£Ø³Ø§Ø¨ÙĬØ¹":8812,"ĠØ¯Ø§ÙĪØ¯":8813,"ĠÙĪÙħÙĩ":8814,"Ø§Ø¤ÙĩØ§":8815,"ĠØ¹ÙĦØ§ÙħØ§Øª":8816,"ĠÙħÙĥØ§ØªØ¨":8817,"Ġ193":8818,"ĠØ§ÙĦÙħØ®Ø±Ø¬":8819,"ĠÙĪØ¥Ø¹Ø§Ø¯Ø©":8820,"ÙĬØ§Ø¯Ø©":8821,"ĠÙħØ¹ØªØ¨Ø±":8822,"ĠØ§Ø³ØªÙĨ":8823,"ĠØ£Ø®ÙĬØ±Ø§":8824,"ĠØ£Ø¯Øª":8825,"OS":8826,"ĠØ¬ÙħØ¹Ø©":8827,"ĠÙĥØ§Øª":8828,"ĠØ¯ÙĤÙĬÙĤ":8829,"ĠØ¹ÙħÙĪÙħØ§":8830,"ĠÙħÙĩÙĨØ¯Ø³":8831,"ĠØ³ÙĬØ¯Ø§Øª":8832,"ie":8833,"ĠØ±ÙħØ²":8834,"ĠØ£Ø±Ø¯ÙĪØºØ§ÙĨ":8835,"ĠÙĬØªØ£":8836,"ĠØ§ÙĦØ£Ø³ÙĨØ§ÙĨ":8837,"ØŃØ·":8838,"ĠØ§ÙĦÙĪØ·ÙĨÙī":8839,"ĠØ§ÙĦØ®Ø±Ø·ÙĪÙħ":8840,"ĠØ§ÙĦØ¥Ø³Ø¨Ø§ÙĨÙĬ":8841,"ÙħØ§Ø±Ø§Øª":8842,"ĠØ³Ø¹Ø§Ø¯Ø©":8843,"ĠÙĪØ§ÙĦØªÙģ":8844,"ĠØŃØ¸Ø±":8845,"ĠÙħØ´ÙĬØ±Ø©":8846,"ĠØ¬ÙħØ§ÙĩÙĬØ±":8847,"Ø§ÙģÙĬÙĬÙĨ":8848,"ĠÙĦÙĦÙģØ±ÙĬÙĤ":8849,"ĠØ§Ø¹ØªÙħØ¯":8850,"ħØ§Ø¹":8851,"ĠØ¹Ø¬Ø²":8852,"ĠØ§ÙĦÙĪØ§Ø±Ø¯Ø©":8853,"ĠØ§ÙĦÙħØ¹Ø±ÙĥØ©":8854,"ĠØ§ÙĦØ´Ùģ":8855,"ĠØ§ÙĦÙĪØ§Ø¬":8856,"ĠØ§ØŃØ¯Ùī":8857,"ĠØ¨Ø¯ÙĦ":8858,"ĠØ§ÙĦÙĪØ¸ÙĬÙģØ©":8859,"ĠØ§ÙĦØ£Ø¯ÙĪÙĬØ©":8860,"ĠÙĬØªØ±Ùĥ":8861,"ĠØ±Ø§Ø¦":8862,"ħØºØ±":8863,"ĠÙĪØŃÙĪÙĦ":8864,"ĠÙĨÙĤØ¯":8865,"ĠØ§ÙĦÙħØ±ØªØ¨Ø©":8866,"Ø¹ÙĪØ§":8867,"ĠØ§ÙĦØ·ÙĬØ¨Ø©":8868,"ĠØ§ÙĦØµÙĪØªÙĬØ©":8869,"ĠÙĤØ±Ø§Ø±Ø§":8870,"Ø§ÙģØ³":8871,"ÙħØºØ±":8872,"ĠØŃÙĪØ§Ø¯Ø«":8873,"ĠÙħØºØ±":8874,"ĠØ§ÙĦÙĬÙĪØ±ÙĪ":8875,"ĠØ§ÙĦÙĪØŃØ¯Ø§Øª":8876,"Ø±ØŃÙī":8877,"ĠÙħØ§ÙĥØ³":8878,"ĠØ§ÙĦØ¬Ø±Ø§Ø¦Ùħ":8879,"Ø¦Ø°":8880,"ĠØ§ÙĦØ£ÙħÙĨÙ":8881,"ĠØ§ÙĦØ£ÙħÙĨÙĬ":8882,"ĠØ°ÙĥØ±Ùĩ":8883,"ĠØ§ÙħÙĥ":8884,"ĠØ´ÙĦÙĨ":8885,"ĠØªÙĪØ§Ø¬Ø¯":8886,"ØªØ§Ø¨Ø©":8887,"ĠØ¨Ø§ÙĦÙħØ³":8888,"ĠØ§ÙĦÙħÙĪØ§ÙģÙĤØ©":8889,"ĠØ¬ÙĬÙĦ":8890,"ĠÙĪØ·ÙĨÙĬ":8891,"ĠØ§ÙĦØ¬ÙħÙĩÙĪØ±ÙĬ":8892,"ĠØ§ÙĦØ¥Ø¹ÙĦØ§ÙĨØ§Øª":8893,"ÙĬØ±ÙĬ":8894,"ĠØ§ÙĦØªØ¯Ø±ÙĬØ³":8895,"Ø¹ÙĬÙĩ":8896,"ÙĪÙĦÙĨØ¯ÙĬ":8897,"ĠØ§ÙĦØµØŃÙģÙĬÙĬÙĨ":8898,"ĠÙĤÙĬØ§Ø¯Ø§Øª":8899,"ĠØ¨ØºÙĬØ±":8900,"ĠØ£ÙĩØ§ÙĦÙĬ":8901,"Ø¨Ø¹Ø¯":8902,"ĠØ§ÙĦØ¯Ø§Ø¦Ùħ":8903,"ħØ§Ø¹Ø©":8904,"Ø¨Ø§Ùĩ":8905,"ĠØ£Ø¬Ø²Ø§Ø¡":8906,"ĠÙĪÙħØ¯ÙĬØ±":8907,"ĠØªØ¯ÙĪØ±":8908,"ĠÙĨÙĥÙĪÙĨ":8909,"ĠØ§ÙĦØ§Ø¹ØªØ±Ø§Ùģ":8910,"Ġ66":8911,"Ġ2001":8912,"ÙĦÙħØ¨ÙĬ":8913,"ĠØŃÙĤÙĬ":8914,"ĠØ¨ÙĦØ¯Ø§ÙĨ":8915,"ÙĨØ§ÙĤØ¶":8916,"ÙĩØ§Ø²":8917,"ĠØ§ÙĦÙĦÙĬØ¨ÙĬØ©":8918,"ĠÙĬØ¯Ø±Ùĥ":8919,"ĠÙħØ±Ø³ÙĪÙħ":8920,"up":8921,"ĠØ§Ø³ØªØ¹Ø§Ø¯Ø©":8922,"ĠØ§ÙĦÙĨØ¬ÙĪÙħ":8923,"ĠØ£Ø±Ø³ÙĦ":8924,"ĠØªÙĤØ¨ÙĦ":8925,"ĠÙĦÙĦØŃÙĥÙĪÙħØ©":8926,"ĠØ§ÙĦÙħØ´Ø±Ùģ":8927,"Ø§ÙĬØ¨":8928,"ĠØ³Ø¯":8929,"ĠØªÙĦÙĪ":8930,"ĠÙĥØ±Ø¯":8931,"ĠØ¹ÙħÙĬÙĤ":8932,"Ø¨Ø§Ø±Ø§Øª":8933,"ĠØ§ÙĦØ±ÙĤÙħÙĬØ©":8934,"ĠÙĥØ±ÙĬØ§Øª":8935,"Ø§ÙĩÙĬØ±":8936,"ĠØ£Ø¨Ø§":8937,"ĠØ§ÙĦØ£ÙĦØ¨":8938,"ĠÙĪÙĦØ¹Ù":8939,"ĠÙĬØ´ÙħÙĦ":8940,"ĠÙĬØŃØ¯Ø¯":8941,"ĠØ§ÙĦØ´Ø¨ÙĥØ§Øª":8942,"ĠØ§ÙĦÙħÙĨØ¸":8943,"Ø±Ø§Ø·":8944,"ĠØ§ÙħØªØŃØ§ÙĨØ§Øª":8945,"ok":8946,"ÙģØ§ÙĤÙĬØ§Øª":8947,"ĠØªØ¬Ø§Ø±Ø¨":8948,"ĠØ§ÙĦÙħØ°ÙĥÙĪØ±Ø©":8949,"ĠÙĪØ±ÙģØ¶":8950,"Ø±Ø¨Ø§":8951,"ĠÙħØªØ§Ø¨Ø¹":8952,"ĠØ£Ø´ÙĥØ§ÙĦ":8953,"ĠÙĥÙħØ¨ÙĬÙĪØªØ±":8954,"ĠØ¹Ø±Ø§":8955,"ĠÙħØ¹ÙĬ":8956,"Ġ99":8957,"ĠØ£Ø·Ø±Ø§Ùģ":8958,"ĠØ³Ø§ÙĨØª":8959,"Ø±Ø´":8960,"ĠØ¹Ø§Ø¬ÙĦ":8961,"ĠÙħØ·ÙĦÙĪØ¨":8962,"ĠØ§ÙħØ±Ø§Ø¶":8963,"ĠÙħØ´Ø§Ø¹Ø±":8964,"ĠÙĪØªØ¹Ø²ÙĬØ²":8965,"ĠØ®Ø·ÙĪØ±Ø©":8966,"Ø§Ø¯ÙĤØ©":8967,"ħØŃÙĬØ·":8968,"ĠØ§ÙĦØ²ÙħØ§ÙĨ":8969,"ĠØ§ÙĦÙĦÙĤØ¨":8970,"ĦÙĦØ§ØŃ":8971,"ĠØ¨Ø§ÙĦØ§ÙĨ":8972,"ĠØ§ÙĦØ§Ø¯Ø§Ø±ÙĬØ©":8973,"ĠØ§ÙĦØªØ±Ø¬ÙħØ©":8974,"ĠØ§ÙĨØ³Ø¯Ø§Ø¯":8975,"ÙĬÙĤØ©":8976,"Ø§Ø®Ø±Ø©":8977,"ĠÙĪÙĨÙĤÙĦØª":8978,"ĠÙĥÙĦÙĬ":8979,"29":8980,"ØªØ§ÙĦ":8981,"ĠØ§ÙĦØ§ÙĨØªÙĤØ§ÙĦ":8982,"ĠØ§ÙĦØ¹Ø§Ø·":8983,"ĠØ¹Ø§Ø¦Ø´Ø©":8984,"ĠØ±Ø§Ø¨Ø·Ø©":8985,"ĠØ§ÙĦØ§ØŃØªÙģ":8986,"ĠÙħØ¹Ø¯ÙĦØ§Øª":8987,"ĠØ§ÙĦÙħØ¬Ø§ÙĨÙĬØ©":8988,"ĠØªÙĤÙħ":8989,"ĠÙĥØªØ¨Øª":8990,"ĠØŃØ¬Ø²":8991,"ĠØ¨Ø§ÙĦØ§Øª":8992,"ĠØ§ÙĦÙħÙĤØ§ÙĦØ§Øª":8993,"ĠØ§Ø±Ø´ÙĬÙģ":8994,"ĠØ£ÙĪØ¶Ø§Ø¹":8995,"ĠØ¥Ø³ÙĦØ§ÙħÙĬØ©":8996,"ĠÙĦØ¨Ø±ÙĨØ§ÙħØ¬":8997,"ÙħØŃÙĬØ·":8998,"ĠØŃÙĥÙĪÙħÙĬØ©":8999,"ĠÙħØŃÙĬØ·":9000,"ÙĪØ³Ø©":9001,"ĠÙĦÙħØ¹Ø§ÙĬÙĨØ©":9002,"ĠØ§ÙĦØ·Ø¨Ø®":9003,"Ø¸ÙĩØ§Ø±":9004,"Ø²ÙĬÙģ":9005,"ĠØ§ÙĦÙģÙĦØ§ØŃ":9006,"ĠØ£ÙĤÙĪÙī":9007,"ĠØ±ÙĬØ§Ø¶ÙĬØ©":9008,"ĠØ§ÙĦØ£Ø¬ÙĨ":9009,"ÙĦÙģÙ":9010,"ĠØ§ÙĦÙĨØ§Ø®":9011,"ÙģØ±Øª":9012,"ĠØ¨Ø¬Ø¯Ø©":9013,"ĠØªØ¯Ø¹ÙĪ":9014,"ĠØ±Ø£ÙĬØª":9015,"ĠÙĤØ§Ø¨":9016,"ĠØ§ÙĦØ§ÙĤØ³Ø§Ùħ":9017,"ĠÙħÙĤØ¹Ø¯":9018,"ĠØ£ÙĤØµÙī":9019,"Ø³ÙĬÙĬØ±":9020,"Ø·ÙĪ":9021,"ĠÙħØ®Ø§ÙĦÙģØ©":9022,"ÙĬØ±Ø§Ø¯":9023,"ĠØ£ÙĨØ³":9024,"ĠØ§ÙĦØ·ÙĦØ¨Ø§Øª":9025,"Ø¬ÙĩØ§":9026,"ĠÙħÙĨØ§Ø²ÙĦ":9027,"15":9028,"ĠÙħÙģØªÙĪØŃØ©":9029,"ĠØ¹Ø§ÙĦÙĬ":9030,"ØºØ±ÙĤ":9031,"ĠØ§ÙĦÙĤÙĪ":9032,"Ø¨Ùĥ":9033,"ĠØµÙĬ":9034,"ÙĪØ¶ÙĬØ©":9035,"ÙĦÙĦØ§ØŃ":9036,"ĠØ¹ÙħÙĦÙĩØ§":9037,"ĠÙĦÙĦØ§ØŃ":9038,"ĠØ¨Ø¹Ø¯Ùĩ":9039,"Ø¨Ø§ÙĨ":9040,"ĠØ§ÙĦØªØ·ÙĪØ±Ø§Øª":9041,"ĠØ§ÙĦØ¨Ø§Ø¨Ø§":9042,"Ġ2002":9043,"Ø·ÙĬØ§Øª":9044,"ĠÙĪØ§ÙĦØ´Ø¹":9045,"ĠÙħØ³ØªØŃ":9046,"Ù¥":9047,"ĠØ¨Ø³Ùħ":9048,"ĠÙĪØ¨Ø°ÙĦÙĥ":9049,"ĠØ§ÙĦÙħØ³ØªØ´ÙģÙĬØ§Øª":9050,"ĠØ§ÙĦØŃØ³Ø§Ø¨":9051,"ĠÙĪÙĦØ¹ÙĦ":9052,"ĠØ³ÙĬØ§ØŃÙĬØ©":9053,"ĠÙħØ¤ÙĤØª":9054,"ĠØ§ÙĦØ¥ÙĬØ·Ø§ÙĦÙĬ":9055,"ĠØ£ÙħÙĪØ§ÙĦ":9056,"Ø¨ÙĬØ¯Ø§Øª":9057,"18":9058,"ĠØ§ÙĦØ£Ø²Ø±ÙĤ":9059,"ĠØ®ØªØ§Ùħ":9060,"ĠØ§ÙĦÙģØ§Ø¦Ø¯Ø©":9061,"ØªÙĬÙħ":9062,"26":9063,"ĠØªØ´Ø¹Ø±":9064,"ĠÙĪØ§Ø°Ø§":9065,"ĠØ´Ø¨Ø§Ø·":9066,"ĠØ§ÙĦØ§Ø³ØªØ«ÙħØ§Ø±Ø§Øª":9067,"ĠØ§ÙĦØ§ÙĬØ·":9068,"ĠØµØ¹Ø¨Ø©":9069,"Ø¯ÙħÙ":9070,"ĠÙĪÙģÙĬÙħØ§":9071,"ĠØ§ÙĦØ§Ø¹ØªÙħØ§Ø¯":9072,"ĠØ§ÙĦÙĨØ§ØŃÙĬØ©":9073,"Ø§Ø³Ùĥ":9074,"ĠØ£ÙĪÙĥØ±":9075,"ĠØ§ÙĦÙħØ¨Ø¯":9076,"ĠØŃØµÙĪÙĦ":9077,"ĠØ§ÙĦØ¨ØµØ±Ø©":9078,"ĠØ§ÙĦØ³ÙĦØ§ÙħØ©":9079,"ĠØ§ÙĦØ´ÙĬØ¹Ø©":9080,"ĠØ£ÙĦÙģØ§":9081,"ED":9082,"ĠÙĤØ¨Ø±":9083,"ĠØ§ÙĦÙģØªØ§Ø©":9084,"ĠØ§ÙĦØ·ÙĪ":9085,"ĠØ§Ø¨ØªØ¯Ø§Ø¡":9086,"ĠÙģÙĬØ³":9087,"ĠØ¯ÙĪÙħØ§":9088,"ĠØªØ®ØµÙĬØµ":9089,"ĠØ§ÙĦÙĦØ§":9090,"ĠÙĩÙĨØ¯Ø³Ø©":9091,"ĠÙĬÙĥÙģÙĬ":9092,"Ø§Ø¨ÙĪÙĨ":9093,"ĠØ§ÙĦØ¬Ø§ÙħØ¹ÙĬ":9094,"ĠÙĪÙĥÙĬÙģÙĬØ©":9095,"ĠØ§ÙĦØ£ÙĨØ¸ÙħØ©":9096,"ĠØªØ¯ÙģØ¹":9097,"ĠØ¨Ø§ÙĦØ°ÙĥØ±":9098,"Ø¹ÙĩØ§":9099,"ĠØ§ÙĦØµØ¯ÙĬÙĤ":9100,"ĠØ§ÙĦÙħØ¹Ø±ÙĪÙģØ©":9101,"ĠØ§ÙĦÙħØ±Ø§ÙģÙĤ":9102,"ÙĦØ³Ø§ÙĨ":9103,"ap":9104,"ĠØªØºØ·ÙĬØ©":9105,"ĬÙĪÙħÙĬ":9106,"ÙĤØ§Ø¨Ø©":9107,"Ø§Ø¯ÙĪØ±":9108,"ĠØ§ÙĦØ¶ÙĪ":9109,"ĠØ²ÙĪØ§Ø±":9110,"ĠØ§ÙĦØªØ¹ÙĦÙħ":9111,"ĠÙģÙĨØ§Ø¯ÙĤ":9112,"ĠØ§ÙĦÙħÙĨØ§Ø®":9113,"ĠØ§ÙĦØ£ÙħÙĦ":9114,"ĠØ±Ø¬Ø¨":9115,"ĠÙħÙĤØ§Øª":9116,"Ùª":9117,"ĠÙª":9118,"23":9119,"Ġ120":9120,"ang":9121,"ĠØ¥Ø¯Ø±":9122,"ÙĦØ·ÙĬÙģ":9123,"ĠÙĪØ§ÙĦØ£Ø¯":9124,"ĠÙħØŃÙĦØ§Øª":9125,"ĠØ¥Ø¶Ø§ÙģÙĬØ©":9126,"ĠÙĦÙħÙĥØ§ÙģØŃØ©":9127,"ĠØ§ÙĦÙĥØ¨Ø§Ø±":9128,"ĠØ±ÙģÙĬÙĤ":9129,"Ø¤Ø¯ÙĬ":9130,"ÙħØ§Ø¯":9131,"ÙĬÙĪÙħÙĬ":9132,"ĠØ§ÙĦØ§ÙħÙĪØ±":9133,"Ø§ÙģÙī":9134,"ĠØ§ÙĦØµØ§Ø¯ÙĤ":9135,"ÙĪÙģØ±Ø©":9136,"ĠØ§ÙĦØ¥ÙĤØ§ÙħØ©":9137,"Ø«ÙĬÙĬÙĨ":9138,"ĠØ¢ÙĦØ©":9139,"ÙĩÙĬØ¯Ø§":9140,"Ø¬Øª":9141,"ah":9142,"ĠÙħÙĨØ¸ÙĪÙħØ©":9143,"ĠØ§ÙĦÙĩÙĪÙĬØ©":9144,"ĠØ§ÙĦØ£Ø¯Ø¨ÙĬ":9145,"ĠØ§ÙĦØ¯ÙĪØŃØ©":9146,"ØºÙĪÙĦÙĬ":9147,"ĠØ¨ØªÙĥ":9148,"ĠØ¨Ø¬Ø¯":9149,"ĠÙģØ£ÙĨ":9150,"ĠÙĪÙħÙĨØ°":9151,"ĠØªØ´Ø·ÙĬØ¨":9152,"Ø§ÙħØ¨ÙĬØ§":9153,"ĠØ§ÙĦØ®ÙĦÙĬØ¬ÙĬ":9154,"ĠØªØ°":9155,"ĠØ§ÙĦÙģÙĨØ§ÙĨÙĬÙĨ":9156,"ĠØªØ³ÙĪÙĬÙĤ":9157,"our":9158,"ĠÙĦÙĦØªÙĪ":9159,"ĠâĢĺ":9160,"ĠØ§ÙĦØ¨ØŃÙĪØ«":9161,"ØªØ¬Ø§Øª":9162,"AN":9163,"ĠÙĬÙĪÙħÙĬ":9164,"ĠÙĦÙĦØ´ØŃÙĨ":9165,"ĠÙĪØ§ÙĦØ¹ÙĦÙĪÙħ":9166,"ĠØ§ØºØªÙĬØ§ÙĦ":9167,"ĠØ§ÙĦØ§ÙĪ":9168,"ĠØ£Ø´Ø±Ùģ":9169,"ĠØ§ÙĦØªØ·Ø¨ÙĬÙĤØ§Øª":9170,"Ø³ÙħØ§Ø¹ÙĬ":9171,"ĠÙĪØªÙĪÙģÙĬØ±":9172,"ĠØ§ÙĦØºØ²":9173,"ĠÙħØ§ÙĨØ´Ø³ØªØ±":9174,"ĠØ£Ø¶Ø±Ø§Ø±":9175,"ĠØ§ÙĦÙģÙĨÙī":9176,"ĠØ¨ØªØ¬":9177,"ĠØ§ÙĦÙĨØ§ØµØ±":9178,"ĠÙĪØ§ÙĦØªØ®":9179,"ħØ³ÙĬ":9180,"ĠØ§ÙĦØªØ¯Ø±ÙĬØ¨ÙĬØ©":9181,"ĠØ§ÙĦØ£ØµÙĦ":9182,"ĠØ£Ø³Ø§ÙħØ©":9183,"ĠØ§ÙĦØ²ÙĪØ§Ø±":9184,"ĠØ£Ø³ÙĦÙĪØ¨":9185,"ĠÙħÙĬÙĨØ§Ø¡":9186,"ĠØ°Ø§Ùĥ":9187,"ĠØ§ÙĦØ¨ÙĨÙĬØ©":9188,"ĠØ§ÙĦØ³ÙħØ§ØŃ":9189,"ĠÙĦØ¥Ø¯Ø§Ø±Ø©":9190,"ØŃÙĪÙĨØ©":9191,"ĠØ¹Ø¯Ø§":9192,"ÙĥØ§Ø³":9193,"ĠØªÙĬØ§Ø±":9194,"ĠØ§ÙĦØ±Ø³ÙĪÙħ":9195,"ĠØ§Ø¨ÙĨØ§Ø¡":9196,"ĠÙ¡":9197,"ĠÙĦÙĬÙĪÙĨ":9198,"ĠØ§ÙĦØ³Ø§ØŃÙĦ":9199,"ĠØªØŃØ¯Ø¯":9200,"Ø²Øª":9201,"ĠØ§ÙĦØ´Ø¹ÙĪØ±":9202,"Ø¨ÙĪÙĨ":9203,"ĠØ§ÙĦØ±Ø¨ØŃ":9204,"ĠØ¨ÙĪØªÙĬÙĨ":9205,"ĠØ³ÙĬØ§Ø³ÙĬØ§":9206,"ĠØ®Ø´":9207,"ver":9208,"Ġpm":9209,"ĠØ§ÙĦÙħØªØ¹Ø¯Ø¯Ø©":9210,"ĠØ¨ÙĤØ³Ùħ":9211,"ĠÙĬÙĦØªÙĤÙĬ":9212,"ĠØ§ÙĦØ·Ø±":9213,"ĠÙĪÙĬÙĨØ¯ÙĪØ²":9214,"OR":9215,"ĠØ¬ÙĦ":9216,"Ø§Ø¯Ùģ":9217,"ĠØ§ÙĦÙĤØ¨ÙĪÙĦ":9218,"ĠÙĬØ±Ø¬Ø¹":9219,"ĠÙĬÙĤÙĪÙĦÙĪÙĨ":9220,"ĠØ§ÙĦØ¯ÙĪÙĦÙī":9221,"ĠPro":9222,"ĠØ§Ø³Ø¨Ø§Ø¨":9223,"ĠÙĦÙĦÙħØ±Ø£Ø©":9224,"ĠØ³ÙĪØ±ÙĬ":9225,"28":9226,"ĠØ§ÙĦÙħØªØ§ØŃØ©":9227,"ĠØ§ÙĦØ£ÙĪÙĦÙĬØ©":9228,"ĠØ§Ø³ÙħØ§Ø¡":9229,"ÙħØ§Ø¹Ø©":9230,"ĠØ¨ÙĨÙģØ³Ùĩ":9231,"ħØ§ØŃ":9232,"ĠØ§ÙĦØ¯ÙĥØªÙĪØ±Ø©":9233,"ĠØ§ÙĦØ«Ø§ÙĨÙĪÙĬ":9234,"ĠØ§ÙĦØµØŃØ§Ø¨Ø©":9235,"ĠÙĪØ§ÙĦØ±ÙĪ":9236,"ĠÙĤÙĦÙĤ":9237,"ĠØ§ÙĦØ£ØŃÙĬØ§Ø¡":9238,"ĠØ§ÙĦØ¨Ø±ÙĦÙħØ§ÙĨÙĬØ©":9239,"ÙĪÙĤÙĪÙģ":9240,"ĠØ§ÙĦÙħÙĦØ§Ø¦":9241,"ÙĦÙĥÙĬØ©":9242,"ĠØ§ÙĦØªØ±Ø¨ÙĪÙĬ":9243,"ĠØ§ÙĦØªØ¹Ø±Ùģ":9244,"Ø²ÙĬÙħØ©":9245,"ĠÙĪØ§ÙĦØ§ÙĤØªØµØ§Ø¯ÙĬØ©":9246,"ĠØ£ØµÙĪÙĦ":9247,"ĠØ²Ø§Ø±":9248,"ÙĪÙĨÙĬØ§Øª":9249,"ĠØŃÙĪØ§ÙĦÙī":9250,"ĠØ§ÙĦØ§Ø±Ø¯":9251,"ĠØ§ÙĦÙħÙĬÙĥ":9252,"Ø¶ÙĬØ§Øª":9253,"Ø·Ø§Ø¹Ù":9254,"Ø®Ø¨Ø§Øª":9255,"ĠØ§ÙĦÙĤØªØ§ÙĦ":9256,"ĠØ§ÙĦÙĤØ·Ø±ÙĬ":9257,"ĠÙĦÙĨÙĤÙĦ":9258,"14":9259,"ĠØµÙĬØº":9260,"ĠØ§ÙĨØ´":9261,"ĠØ§ÙĦØºØ°Ø§Ø¡":9262,"16":9263,"ĠØ§ÙĦØªØºØ°ÙĬØ©":9264,"ĠØ¨Ø±Ø¹Ø§ÙĬØ©":9265,"ĠØ¨ÙĦØ¬":9266,"ĠØ§ÙĦÙĤØ±Ø§Ø¡":9267,"ĠØ§ÙĦÙħØªÙĩÙħÙĬÙĨ":9268,"ĠØ¨ÙĪØ²Ø§Ø±Ø©":9269,"ÙĩÙĪÙĦ":9270,"ĠØ¨Ø´Ø¯Ø©":9271,"ĠØ§ÙĦØªØµÙĨÙĬÙģ":9272,"ĠÙħÙĨØªØ¬":9273,"ĠØ§ÙĦØ£ÙĦÙĪØ§ÙĨ":9274,"ĠØ³Ø§Ø¹Ø¯":9275,"ĠEnglish":9276,"ĠØ´Ø±Ø·":9277,"ĠÙĪÙĤÙĬ":9278,"ħØ§Ø¬Ø¯":9279,"Ġcenter":9280,"ĠØªÙħØ§Ùħ":9281,"ĠÙĦØªÙģ":9282,"ĠØ¨Ø§Ø±Ø§Ùĥ":9283,"ĠÙĪØ«ÙĬÙĤØ©":9284,"ĠØ§ÙĦØŃÙĬÙĪÙĬØ©":9285,"ĠÙĪØ¨ÙħØ§":9286,"ĠÙħØ´Ø±Ùģ":9287,"ĠÙĨÙĪØ§Ø¨":9288,"ĠØ£ÙģØºØ§ÙĨØ³ØªØ§ÙĨ":9289,"ĠØ¨Ø§ÙĥØ³ØªØ§ÙĨ":9290,"ĠÙħØ¯ÙĬ":9291,"ĠØªÙĤØ¯Ø±":9292,"ĠØ¨Ø§ØªØª":9293,"ĠÙĦÙĦÙĤÙĪØ§Øª":9294,"ĠÙĪØ¹ÙĦ":9295,"ĠÙħÙĪØ¸ÙģÙĬ":9296,"ĠØ£ÙĨØµØ§Ø±":9297,"ĠÙĦÙĬØ¨ÙĬ":9298,"ĠØ§ÙĦØ·ÙĪØ§Ø±Ø¦":9299,"ÙĨÙĬØ¯":9300,"ĠÙĤÙħØª":9301,"ĠØ§ÙĨØªØ®Ø§Ø¨":9302,"ĠØ£ÙħØ±Ø§":9303,"ÙħØ§Ø¬Ø¯":9304,"ĠØ§ÙĦØ§Ø³ØªÙĩ":9305,"ĠØ§ÙĦØ£Ø±Ø¯ÙĨÙĬ":9306,"ĠÙħØ³Ø§Ø¨ÙĤØ§Øª":9307,"Ø±ÙĬÙģØ©":9308,"ĠØ§ÙĦÙħØ®Ø§Ø¨Ø±Ø§Øª":9309,"ĠØ§ÙĦØ®ÙĬØ§Ø±":9310,"ĠØ¹ÙĦØ§":9311,"ĠØ§ÙĦÙħØªØ¨ÙĤÙĬ":9312,"ĠØ§ÙĦØ´ÙĩÙĬØ±Ø©":9313,"ĠØ§ÙĦÙħÙĪØ³":9314,"ĠØ§ÙĦÙħØ¨Ø§Ø´Ø±Ø©":9315,"ĠØ£ÙĤØ¯Ùħ":9316,"ĠØ§ÙĦÙĤÙĦÙĬÙĦØ©":9317,"ĠØ§ÙĦØªØ¹ÙĦÙĬÙħØ§Øª":9318,"ĠØºØ§ÙĨ":9319,"ĠÙĪØ§ÙģÙĤ":9320,"Ø§Ø¹Ùī":9321,"Ø§ÙĬØªÙĩØ§":9322,"ĠØ§ÙĦÙħØ¬Ø§ÙĪØ±Ø©":9323,"ØªÙĬØ¹":9324,"ĠÙĬÙħØ§Ø±Ø³":9325,"ĠØ§ÙĦØªØ¬Ø§Ø±Ø¨":9326,"ĠØ±Ø¦ÙĬØ³Ø©":9327,"ĠØ§ÙĦØ´Ø§ÙħÙĦØ©":9328,"ĠÙĦØ³Ø§ÙĨ":9329,"ĠØ§ÙĦØ£ÙĥØ§Ø¯ÙĬÙħÙĬØ©":9330,"ĠØ§ÙĦØ£Ø«Ø±":9331,"ĠØ§ÙĦØ³ÙĬØ§Ø³Ø§Øª":9332,"ĠØ§ÙĦØ¯ÙĪØ±Ø§Øª":9333,"ĠØ²ÙĪ":9334,"Ø§Ø«ÙĦØ©":9335,"Ġ68":9336,"ĠØ¹ÙĦØ§Ø¡":9337,"ĠØ¨Ø¹ÙĬÙĨ":9338,"Ġwith":9339,"ĠØ¨Ø§ÙĦØªÙĪ":9340,"ØªÙĦÙĪØ§":9341,"Ġst":9342,"ÙĤØ¯Ø©":9343,"ĠØ¬ÙĩØ§Øª":9344,"ĠØ³ÙĩÙĦØ©":9345,"Ø³ÙĬØ§Øª":9346,"ĠÙĪØªÙĥÙĪÙĨ":9347,"ĠØ´Ø¨ÙĥØ§Øª":9348,"ĠØ·Ø§ÙĦÙħØ§":9349,"ÙĪÙĬØ¹":9350,"ÙĪØ³Ø§Ø¦ÙĦ":9351,"ĠØ£Ø¯ÙĨÙī":9352,"Ġde":9353,"ĠÙħÙĪØ§ØµÙĦØ©":9354,"ØªØ¯ÙĬØ§Øª":9355,"ĠØ£ÙĪÙĦØ¦Ùĥ":9356,"ÙĪØ§Ø¬Ùĩ":9357,"ĠÙħØ§Ø¬Ø¯":9358,"ĠØ±ÙĪÙħ":9359,"Ø³ÙĬØª":9360,"ĠØ§ÙĦØ¥Ø°":9361,"ĠØ§Ø±ÙĤØ§Ùħ":9362,"ĠÙģÙĩÙĨØ§Ùĥ":9363,"Ø¦ÙħØ©":9364,"ĠÙħØ¹Ø§Ø±Ø¶":9365,"ĠÙĪØªØ§Ø±ÙĬØ®":9366,"ĠØ§ÙĦØµÙĬÙĨÙĬ":9367,"ĠØ§ÙĦØ¥ÙĨØ³Ø§ÙĨÙĬ":9368,"ØµÙĬØ±":9369,"ØªÙħØ§Ø¡":9370,"ĠØ§ÙĦÙħÙĤØµ":9371,"ĠØ®Ø³Ø±":9372,"ĠÙĦØ§Ø¦ØŃØ©":9373,"ĠÙħØ´Ø±ÙĪ":9374,"ĠÙĦÙĦØ¬ÙĨØ©":9375,"ĠØ§Ø¹ÙĦÙĨ":9376,"ĠÙĦÙĦÙħØ·":9377,"ħØ·Ø±":9378,"ĠiP":9379,"ĠØ´Ø±ÙĬÙĥ":9380,"ĠÙħÙĤØ§Ø¨ÙĦØ©":9381,"ĠØ§ÙĦÙĤØ§ÙĨÙĪÙĨÙ":9382,"ĠØ§ÙĦÙĤØ§ÙĨÙĪÙĨÙĬ":9383,"ĠØ¢Ø±":9384,"ĠØµØ¯Ø§Ùħ":9385,"Ø¹Ø±Ùģ":9386,"ĠÙĦØ£ÙĨÙĩÙħ":9387,"ĠØªØ£Ø®Ø±":9388,"ĠØ§ÙĦØ§Ø®ØªÙĬØ§Ø±":9389,"ÙĪÙĤØ§Ùģ":9390,"ĠØ§ÙĦØŃØ¬Ùħ":9391,"ĠAnd":9392,"ĠØ§ÙĦØªØ²":9393,"ĠØ´ÙĪØ§Ø±Ø¹":9394,"ĠØ§ÙĦÙĤØµØ±":9395,"Ø¯Ø§ÙħØ©":9396,"ĠØ§ÙĦØŃØ±Ø³":9397,"ĠØ§ÙĦØ´ÙĥØ±":9398,"ĠÙĤÙĦØ©":9399,"ĠØ´Ø£ÙĨÙĩ":9400,"ĠØ³ÙĩÙĦ":9401,"ĠØ«ÙħØ§ÙĨÙĬØ©":9402,"ĠÙģØ±ÙĤØ©":9403,"ĠØŃØ¯ÙĬÙĤØ©":9404,"ĠØªØ¬Ø§Ø±":9405,"Ø¨ÙĪØ¨":9406,"ĠÙħÙĩØ§Ø¬":9407,"ÙĨØ¯Ø¹ÙĪÙĥ":9408,"ĠØ§ÙĦÙģØ±ÙĤØ©":9409,"ĠØ§ÙĦØ¬ÙħØ§Ø¹Ø§Øª":9410,"ØŃÙĥ":9411,"ĠØ¹ÙħÙĬØ¯":9412,"ĠØ§ÙĦÙħØ§Ø¦ÙĬØ©":9413,"ĠØ§ÙĦÙħØ³ÙĦØŃ":9414,"ÙģØ§Ø¶Ø©":9415,"ĠØ§ÙĦØ®Ø¶Ø±Ø§Ø¡":9416,"ĠØ§ÙĦØºØ±":9417,"ĠØ¹Ø§Ø¦Ø¯Ø§":9418,"Ø²Ø§ÙĨ":9419,"ĠØ£ÙħÙĬØ±ÙĥÙĬ":9420,"ĠØ§ÙĦØ´Ø±Ùĥ":9421,"ĠÙħØ¹Ø§ÙĬÙĬØ±":9422,"Ø¯Ø§ÙĦØ©":9423,"ØµØµ":9424,"ĠÙĪØªØ¹ØªØ¨Ø±":9425,"ĠØ§ÙĦÙħØªÙĪØ³Ø·Ø©":9426,"ĠØ¨Ø·Ø±":9427,"ĠØ²ÙħØ§ÙĨ":9428,"Ø§ÙĨÙĬØ²":9429,"ĠØ§ÙĦÙĤØ¨Ø§Ø¦ÙĦ":9430,"ĠÙĦØ³Øª":9431,"ĠÙĦØ¨ÙĨØ§Ø¡":9432,"ĠÙĩØ¬":9433,"ip":9434,"ĠØ§ÙĦÙħØŃØ¯ÙĪØ¯Ø©":9435,"ĠÙĨØµÙĬØ¨":9436,"ĠÙĦØºØ§Øª":9437,"roid":9438,"Ġ95":9439,"ĠØ·Ø§Ø¦Ø±Ø§Øª":9440,"ĠØ§ÙĦØ§ÙĨØŃØ±Ø§Ùģ":9441,"ÙĬØ·Ø±Ø©":9442,"Ø«Ø§ÙĦ":9443,"Ù¤":9444,"ĠØ±ÙĪÙĬ":9445,"ĠÙħÙĩØ§Ùħ":9446,"Ø¬Ø¯Ø§Øª":9447,"ĠØ§ÙĦÙħÙĪØµÙĦ":9448,"ĠØ§Ø³ØªØ±Ø§ØªÙĬ":9449,"Ø«ÙĬÙģ":9450,"ĠÙĤÙĬÙħ":9451,"ÙĦØ§ÙĤÙĬ":9452,"reatment":9453,"Ø²ÙĪÙĨ":9454,"ĠØ¹Ø¯ÙĨ":9455,"ĠGoogle":9456,"ÙħØ§ÙĦÙĩØ§":9457,"ÙħÙĦØ©":9458,"Ø¬ÙħØ¹":9459,"ĠÙĪÙĩÙħØ§":9460,"Ġ600":9461,"ĠØ§ÙĦØ¸Ø§ÙĩØ±Ø©":9462,"ĠØ§ÙĦØ§Ø³ØªÙħØ±Ø§Ø±":9463,"ĠØ§ÙĦÙħØ³ØªÙĤØ¨":9464,"ĠÙĪØªØŃÙħÙĬÙĦ":9465,"ĠØ¯ÙĪÙĦÙĬØ§":9466,"Ø´ÙģØª":9467,"ĠØ§ÙĦØ£Ø¶":9468,"ĠØ§ÙĦØªÙĩØ¯ÙĬØ¯":9469,"Ø§ÙģØ¦":9470,"13":9471,"ĠØ§ÙĦÙĦØ§Øª":9472,"ĠØ¨Ø¨Ø·":9473,"ĠÙĬÙĤØ¯Ø±":9474,"ĠÙĥÙĪÙĨÙĩ":9475,"ĠØ¬ÙĨÙĬÙģ":9476,"ĠØ§ÙĦØ«Ø§Ø¨Øª":9477,"ĠØ§ÙĦØ¯ÙħØ§Øº":9478,"ĠÙĦÙĦÙħØ¬ÙĦØ³":9479,"ØªØ±Ø§ÙĪØŃ":9480,"Ø§Ø¶Ø¹":9481,"ĠÙĤØ±ÙĨÙĬØ©":9482,"ĠÙĬØªØ³":9483,"ĠØ§ÙĦØ£ÙħØ·Ø§Ø±":9484,"ĠØ§ÙĦØ¯Ø±ÙĪØ³":9485,"Ø¹ØªÙĤØ¯":9486,"ĠØ§ÙĦØ®Ø·ÙĪØ§Øª":9487,"ĠØªÙĪÙģÙĬ":9488,"ĠØ§ÙĦÙģÙĨØ¯ÙĤ":9489,"Ø§Ø´ÙĬØ¯":9490,"ĠÙĬØ±ÙģØ¹":9491,"ĠØ¨Ø¬ÙĪØ¯Ø©":9492,"ĠØ§ÙĦØ£Ø¯ÙĬØ§ÙĨ":9493,"ÙĦØ²ÙħØ§Øª":9494,"ÙĤÙĪØ§":9495,"ĠÙĪÙħØµØ±":9496,"ĠÙĪØ¥Ø¯Ø§Ø±Ø©":9497,"ÙĬÙĨÙĬØ§Øª":9498,"ĠØ¯ÙĪÙĦØ§Ø±Ø§":9499,"age":9500,"ĠØ³Ø¬ÙĦØª":9501,"Ø«Ùī":9502,"ĠØ§ÙĦØ±ÙĬÙģ":9503,"ĠØ¨ØªØ£":9504,"ĠØ§ÙĦÙħØªØ®ØµØµ":9505,"ĠØªØªØ·ÙĦØ¨":9506,"Ø²Ø§ÙĦØ©":9507,"ÙĩÙĬØ¨":9508,"ĠØ§ÙĦØ§Ø¨ØµØ§Ø±":9509,"ĠØ§ÙĦÙĤØ·Ø±ÙĬØ©":9510,"ial":9511,"Ø§Ø¦ÙģÙĬ":9512,"ĠØ£Ø´Ø¯":9513,"ĠØ§ÙĦØ§ØªÙģØ§ÙĤÙĬØ©":9514,"ĠÙĪØ±ÙĤ":9515,"ĠØ§ÙĦÙĥØ«":9516,"ĠØ§ÙĦØ§ÙħÙħ":9517,"ĠÙĥÙħÙĬØ§Øª":9518,"ĠØªØ¨Ø¹":9519,"Ø±ØªÙĪÙĨ":9520,"ĠÙħØ°ÙĥØ±Ø©":9521,"ĠØ³Ø¯ÙĬ":9522,"ĠØ·ÙĬØ±Ø§ÙĨ":9523,"ĠÙĦØŃØ²Ø¨":9524,"ĠØ§ÙĦØ´ÙĩØ§Ø¯Ø©":9525,"ĠØ¨Ø¯Ø¡Ø§":9526,"ĠØªÙĤÙģ":9527,"ĠÙĪØªØŃØ¯Ø«":9528,"ĠÙħÙĨØ§Ø³Ø¨":9529,"Ø®Ø§Ø¡":9530,"ĬØ°ÙĩØ¨":9531,"ĠØ§ÙĦØªÙĤÙī":9532,"ĠÙĪØ¹ÙĦÙĬÙĩ":9533,"ĠØ£ÙħØ±ÙĬÙĥÙĬ":9534,"ĠØ§Ø³ØªØºÙĦØ§ÙĦ":9535,"ĠÙĪØªÙĤØ¯Ùħ":9536,"ØªÙĥÙħ":9537,"Ġtreatment":9538,"ĠØ§ÙĦØ¬Ø§Ø¦Ø²Ø©":9539,"ĠÙģØ³Ø§ØªÙĬÙĨ":9540,"ĠØ£Ø«Ø§Ø±":9541,"ĠØ¹Ø§ÙħÙĬÙĨ":9542,"ĠØ³Ø§ÙħØ³ÙĪÙĨØ¬":9543,"ĠØ§ÙĦØ£ØŃÙĥØ§Ùħ":9544,"ĠÙĪÙĨØ³":9545,"ÙħØªÙĩØ§":9546,"ÙħÙĦÙĪØ§":9547,"ĠØ§ÙĦØ³Ø±Ø¹Ø©":9548,"ØªØµØ§Øµ":9549,"ĠÙĨØ¸Ø±Ø©":9550,"ĠØ§ÙĦÙĪØ¬ÙĪØ¯":9551,"Ø§Ø¤ÙĦ":9552,"ĠÙģØ±ÙĬØ¯":9553,"ĠØªØ³ØªÙħØ±":9554,"ĠÙħØ§ÙĬÙĥ":9555,"ÙĬØ°ÙĩØ¨":9556,"ĠÙĤØµØ§Ø¦Ø¯":9557,"ĠØ§ÙĦØ¬ÙĨÙĪØ¯":9558,"ĠÙĬØ°ÙĩØ¨":9559,"ĠØ§ÙĦØ§Ø¯ÙĨÙī":9560,"ĠØªØ¯Ø¹Ùħ":9561,"ĠÙĪØ§Ù":9562,"ĠÙĪØµØ±":9563,"ĠÙĪØ§ÙĦØ§Ø¯":9564,"ĠÙĪØ§ÙĦÙĨÙĤ":9565,"ĠÙĪØ§ÙĦØ«ÙĤØ§ÙģÙĬØ©":9566,"ĠØŃÙĬÙĨÙĩØ§":9567,"ĠÙħØ±ØªÙĬÙĨ":9568,"ĠØ±Ø¬ÙĦØ§":9569,"ĠØ§ÙĦÙģØ¹Ø§ÙĦÙĬØ§Øª":9570,"ĠØ¬Ø¨Ø±":9571,"Ø³Ø§Ø±":9572,"ØªÙĤÙĦÙĬÙĨ":9573,"ĠØ§ÙĦÙģÙĬØª":9574,"Ø§Ø±ÙĬÙĨ":9575,"ÙĦØ¤":9576,"Ø¹ÙĦÙĪÙħØ§Øª":9577,"ĠØ§ÙĦØµÙĨØ§Ø¹ÙĬ":9578,"ĠØ²ÙĬØ§Ø±ØªÙĩ":9579,"ĠØ§ÙĦÙĥÙĪØ±":9580,"ĠØ³ÙĬØ¨":9581,"ÙħØ¨ÙĬÙĪØªØ±":9582,"ĠØ¯Ø§Ùħ":9583,"ĠØ§ÙĦØªÙĪØªØ±":9584,"Ø¯ÙĬÙĪÙĩØ§Øª":9585,"ĠØ§ÙĦØ¹Ø§ÙħÙ":9586,"ĠØ§ÙĥØªÙĪØ¨Ø±":9587,"ØºØ§ÙĦÙĬ":9588,"ĦÙĨØ¯ÙĬØ©":9589,"ÙĪÙĨÙĬØ§":9590,"ĠØ§ÙĦØ£Ø¬Ø§ÙĨØ¨":9591,"ĠÙĪØ§ÙĦØ±ÙĬØ§Ø¶Ø©":9592,"ħØ¨Ø±Ø§Ø·":9593,"ak":9594,"ĠØ±Ø´ÙĬØ¯":9595,"ĠØ§ÙĦÙĤØ±Ø§ÙĨ":9596,"Ġ77":9597,"ĠØ§ØªØµÙĦ":9598,"ĠØ§ÙĦØ¹ÙĤØ§Ø±Ø§Øª":9599,"ĠÙĥØªÙĦØ©":9600,"ĠØ´Ø£ÙĨÙĩØ§":9601,"ÙĦØªÙĩÙħ":9602,"ĠØ§ÙĦØ·ÙĪÙĬÙĦ":9603,"ĠØ¨Ø§ØŃØ«":9604,"ÙĦÙĬÙģØ²ÙĬÙĪÙĨ":9605,"ĠØ¨Ø§Ø³ØªÙħØ±Ø§Ø±":9606,"ĠØªØªÙħØªØ¹":9607,"Ø§ÙĨÙħ":9608,"ĠØ§ÙĦØ¹Ø¶ÙĪÙĬØ©":9609,"ĠØ¢ÙĬ":9610,"ĠØ´Ø§ÙħÙĦ":9611,"ĠØ§ØŃØªÙħØ§ÙĦ":9612,"ĠÙĩØ§ÙħØ©":9613,"ĠØ§ÙĦØ¨Ø±ÙĬ":9614,"ĦÙĬØ²Ùĥ":9615,"Ø¶ÙħÙĪÙĨ":9616,"ĠÙĪØ¥ÙĦØ§":9617,"ĠØ§ÙĦØ¥Ø·ÙĦØ§ÙĤ":9618,"ĠØ¹ØµØ§Ùħ":9619,"ĠØ§ÙĦØ´Ø¹Ø±ÙĬØ©":9620,"ĠØ§Ø±Ø³":9621,"Ġproced":9622,"ĠØ§ÙĦØ§Ø³ØªØ«ÙħØ§Ø±ÙĬØ©":9623,"ĠÙħØªØ¬Ø±":9624,"ĠØ§ÙĦØ¬ÙĩØ§Ø¯":9625,"ĠØ§ÙĦØ£ØµÙĪÙĦ":9626,"echn":9627,"ĠØ§ÙĦØ°ÙĩØ¨ÙĬ":9628,"ĠÙĪÙĤØ±":9629,"ĠØ§ÙĦÙĨØ³Ø§Ø¦ÙĬØ©":9630,"ĠØªØ³ØªÙĩØ¯Ùģ":9631,"ĠØ´Ø±ÙĬÙģ":9632,"ĠØ¹ÙĪØ§ÙħÙĦ":9633,"ĠÙĬÙĪÙĨØ³":9634,"ĠØ±ÙĪØ¨":9635,"ĠØ¨ÙĨØŃÙĪ":9636,"ft":9637,"ĠÙĪØ¨ÙĨ":9638,"ĠØ§ÙĨÙ":9639,"ĠØªÙĪÙĤØ¹Ø§Øª":9640,"ĠØ±ÙĬÙģ":9641,"ØŃÙħÙĦ":9642,"ĠØ§ÙĦÙģÙĬØ²":9643,"ĠØ§ÙĦØ´Ø¨ÙĥÙĬÙĩ":9644,"ĠÙħÙĬØ´Ø§ÙĦ":9645,"ĠØ´Øª":9646,"ĠØ¥Ø¯ÙĦØ¨":9647,"ĠØ¹ÙħØ§Ø¯":9648,"ĠØ¨Ø¥ÙħÙĥØ§ÙĨ":9649,"Ø§ÙĨØ³":9650,"Ø¶Ø§Ø±":9651,"ĠØ§ÙĦÙħØ³ÙĦÙħÙĪÙĨ":9652,"ĠØ§ÙĦÙħÙĬØ¯Ø§ÙĨ":9653,"ĠØ£ÙĪÙĦÙĬ":9654,"Ø§ÙĦØªÙĩØ§":9655,"ĠØ±Ø¹":9656,"ĠÙĩØ¯ÙģØ§":9657,"ĠØ¥ÙĨÙĩÙħ":9658,"ĠØ´Ø®ØµÙ":9659,"ĠØ¨Ø§ÙĦØ·Ø¨Ø¹":9660,"ĠØ§ÙĦØªØ¹ÙĦÙĬÙħÙĬ":9661,"Ø¨ÙĬØ¨Ø©":9662,"ĠØ£Ø¬ÙĨ":9663,"ĠÙĪØ§ÙĦØªØ¹Ø§ÙĪÙĨ":9664,"ÙĪØ§ÙĨÙĬ":9665,"ĠØ§ÙĦØªØµØ±Ùģ":9666,"ĠØ§Ø«Ø§Ø±":9667,"ĠØ§ÙĦØ´ÙĩØ±ÙĬ":9668,"Ġex":9669,"ĠØ¥ÙĨÙĨØ§":9670,"ĠÙħÙĤØ§ÙĪÙħØ©":9671,"ĠØ§ÙĦÙĨØŃÙĪ":9672,"ÙĪÙĨÙī":9673,"ĠØ¨Ø§ÙĨØª":9674,"ĠØ§ÙĦØ¯ÙĬÙĨØ§Ø±":9675,"ĠØ·ÙĪÙĬÙĦØ§":9676,"Ø§ØµÙģØ©":9677,"ĠÙĪØ³ÙĨ":9678,"ĠØ§ÙĬØ©":9679,"ĠØ§ÙĦØŃÙħÙĬØ¯":9680,"ĠÙħØ±Ø§Ø³":9681,"ĠØ§ÙĦØ£ÙĪØ±Ø§ÙĤ":9682,"ĠØªØªØŃØ¯Ø«":9683,"ĠÙĪØ§Ø¶ØŃØ§":9684,"ĠÙħÙĨÙĩØ¬":9685,"Ø§Ø¨ÙĬØ±":9686,"ÙĬØ§ÙĨØ§Øª":9687,"ĠÙĬØªØŃÙħÙĦ":9688,"ĠÙĬØ¹Ø§ÙĨÙĪÙĨ":9689,"ĠØ³ÙĬØ¯Ø©":9690,"ĠÙĪÙĥØ´Ùģ":9691,"ĠØ¨ÙĤÙĪÙĦÙĩ":9692,"Ø¨Ø±ÙĬ":9693,"ĠÙĦÙĦØ§Ø³ØªØ«ÙħØ§Ø±":9694,"ĠØ§ÙĦÙģÙĦØ³ÙģØ©":9695,"ħÙĦÙħ":9696,"ĠØ§ÙĦØ£Ø«Ø§Ø«":9697,"ĠØ§ÙĦÙĤØ§Ø¨":9698,"ĠØ³Ø¬ÙĨ":9699,"ĠÙĦØ´Ø¤ÙĪÙĨ":9700,"ĠØ§ÙĦØ§ÙĪØ±ÙĪØ¨ÙĬ":9701,"ĠØ§ÙĦØ¥Ø³ÙĥØ§ÙĨ":9702,"ĠØŃØ³Ø§Ùħ":9703,"Ø§ÙģØ±ÙĬÙĨ":9704,"ĠÙĬØ³ØªÙħØ±":9705,"ĠØ§ÙĦØ§ÙģØªØ±":9706,"Ø·Ø§Ø¹Ùħ":9707,"ĠØ§ÙĦØªØ§Ø±ÙĬØ®Ù":9708,"ĠØ§ÙĦØªØ§Ø±ÙĬØ®ÙĬ":9709,"ĠØ§ÙĨØªÙĤÙĦ":9710,"ĠØ§ÙĦØ¨Ø¯Ø¡":9711,"ĠÙģØ§ÙĦØŃ":9712,"ĠAn":9713,"ÙħÙĦÙħ":9714,"ĠØ§ÙĦØ´Ø±Ø¹ÙĬ":9715,"ex":9716,"ĠØ²ÙĬ":9717,"ÙĪÙĤØª":9718,"ĠÙĨÙĬØª":9719,"ĠÙĪÙĦÙĦÙ":9720,"ÙĪØ¹Ùĩ":9721,"ows":9722,"ĠØªØ¬Ø±Ø¨":9723,"ĠØ§ÙĦÙħØªØ¸Ø§ÙĩØ±ÙĬÙĨ":9724,"ĠÙĪØ§Ø¬Ø¨":9725,"ĠÙħÙĦÙħ":9726,"ĠØ¥ÙĬÙħØ§ÙĨ":9727,"ĠØ§ÙĦØªØ¶Ø§ÙħÙĨ":9728,"ĠÙĪØ§ÙĦØ¯ÙĪÙĦÙĬØ©":9729,"ĠØ§ÙĦØ¹ÙĪØ§ÙħÙĦ":9730,"ĠØ§ÙĦÙħÙĨØ´Ø¢Øª":9731,"ĠØ¨Ø¹Ø¯Ø¯":9732,"ĠÙħØŃØ±Ùĥ":9733,"ĠÙĩØ§Ø¯ÙĬ":9734,"ĠØ³ÙĪÙħ":9735,"Ġ73":9736,"ĠÙģØ§ÙĦØ£":9737,"Ø§Ø¸Ø±":9738,"ĠÙĪØ§ÙĥØ¯":9739,"ĠØ¨Ø§ÙĦØªØ±":9740,"ĠØºØ¶Ø¨":9741,"ĠØ±ÙĪÙĨØ§ÙĦØ¯":9742,"ĠÙħØ¨Ø§ÙĦØº":9743,"ĠØ£ØŃØ¯Ø§":9744,"ĠÙĬØªÙĪ":9745,"ĠØªØªÙħÙĥÙĨ":9746,"ĠÙĨØ¨ÙĬÙĦ":9747,"ĠØ¨ÙĦÙĤ":9748,"ĠØ§ÙĦØ¯ÙĩÙĪÙĨ":9749,"ĬØªÙħÙĬØ²":9750,"ÙħÙĬÙĦÙĩ":9751,"ÙĬØªÙħÙĬØ²":9752,"ĠØªØ¬ÙĩÙĬØ²":9753,"ĠÙħØ§Ø¦Ø©":9754,"ĠØ§ÙĦØ´Ø¹Ø±Ø§Ø¡":9755,"ĠÙĪØ§ÙĦÙī":9756,"ĠØªØ¨Ø±":9757,"ĠØ£Ø¹ÙĪØ§Ùħ":9758,"ĠØ±Ø¯Ø§":9759,"Ø§Ø¨ÙĩØ§":9760,"ĠØ³ÙĪØ¯Ø§ÙĨÙĬØ²":9761,"ÙĥØ§Ø©":9762,"ĠØ§ÙĦØ®Ø¨Ø±Ø§Øª":9763,"Ø¯Ø§Øª":9764,"Ø§Ø¹ÙħØ©":9765,"ĠÙħØ«ÙĦÙħØ§":9766,"ĠÙĦØ¹Ø¯Ø¯":9767,"ĠØ¥ÙĤÙĦÙĬÙħ":9768,"ĠØ§ÙĦÙħØ§Ø¯ÙĬØ©":9769,"ĠØ§ÙĦØ¨ØªØ±ÙĪÙĦ":9770,"ala":9771,"ĠØ³ÙĬÙĪ":9772,"ĠÙĪØºÙĬØ±Ùĩ":9773,"Ø±Ø®":9774,"ĠØŃÙĦÙĤØ§Øª":9775,"ÙĦÙĬÙĪÙĨ":9776,"ĠØ§ÙĦÙĨØ§Ø·ÙĤ":9777,"ĠÙĪØªØº":9778,"ÙĪØªØ§":9779,"ĠÙĬØªÙħÙĬØ²":9780,"ĠÙĦÙĪØ¶Ø¹":9781,"ĠÙĩÙĨØ§ÙĦÙĥ":9782,"ĠÙĪØªÙĤÙĪÙĦ":9783,"ĠÙĪØ§ÙĦØªÙĩ":9784,"iz":9785,"Ø¹Ø¨ÙĬØ±":9786,"ĠÙĪØ£ØŃÙħØ¯":9787,"ĠØ§ÙĦÙħØŃÙħÙĪÙĦ":9788,"ĠÙĪØ§ÙĦØ¯ÙĥØªÙĪØ±":9789,"ĠØ§ÙĦØªØ±Ùħ":9790,"ĠÙĬØ´Ø¨Ùĩ":9791,"ĠØ³ÙĪÙĬØ³Ø±Ø§":9792,"ĠØ§Ø³ØªØ¹":9793,"ħØ¨Ø¯":9794,"ĠØ§ÙĦÙħÙĪØ§Ø¬ÙĩØ©":9795,"ĠØ§ÙĦØ£Ø±Ø¨Ø¹Ø©":9796,"ĠØ§ÙĦÙħØŃÙĬ":9797,"ÙĬÙĪØ³":9798,"ĠÙĪØ§ÙĦØ«ÙĤØ§ÙģØ©":9799,"Ø«ÙĬÙĪ":9800,"Ø°Ùī":9801,"ĠØ§ÙĦÙħØŃØ§ÙĥÙħ":9802,"ÙĪØªÙĩ":9803,"ĠØ®ÙĬØ±Ø§":9804,"out":9805,"ÙħØ·Ø±":9806,"ĠÙĬÙĩØªÙħ":9807,"ĠÙĪØ¬ÙĩÙĩ":9808,"ĠØŃÙĪÙĦÙĩ":9809,"ĠÙĦÙĦØ¯ÙģØ§Ø¹":9810,"ĠØ§ÙĦÙĪÙĤÙĪØ¯":9811,"ĠØ§ÙĦØŃÙĪØ«ÙĬ":9812,"ÙħØ¨Ø¯":9813,"ĠØ¥ÙĬÙĩ":9814,"ÙĬØªÙĬÙĨ":9815,"ĠÙħØ¨Ø¯":9816,"Ø§ÙĨØ¯Ø©":9817,"ØªÙħÙ":9818,"ØŃØ§Ø±":9819,"ĠØ¬Ø³Ø±":9820,"ph":9821,"ØªØ²Ø§Ø²":9822,"ĠØ§ÙĦØ°Ø§ÙĥØ±Ø©":9823,"ĠÙĪØ§ÙĦØ¹ÙĦÙħ":9824,"ĠÙĦØªÙĦÙĥ":9825,"ĠÙĪÙħØ«":9826,"Ø¬Ø§Ùħ":9827,"ĠØ¨Ø¯Ø§":9828,"ĠØ§ÙĦØªØµØ§ÙħÙĬÙħ":9829,"ĠØ§ÙĦØºØ¯":9830,"ĠØªÙĥØ±ÙĬÙħ":9831,"ÙĩÙĬØ¦Ø©":9832,"ĠÙħØ·Ø±":9833,"Ø¦Øª":9834,"ĠÙħØ±Ùģ":9835,"Ø¯ÙĬØ¨":9836,"Ø¬ÙħÙĩ":9837,"ĠÙĨÙĩØ§Ø¦ÙĬØ§":9838,"ĠØ±Ø³ÙĪÙħ":9839,"ĠØ³Ø±ÙĬØ¹Ø©":9840,"ĠÙģÙĦØ§Ø´Ø§Øª":9841,"ĠØ¹ÙħÙĤ":9842,"ĠÙĨØ³ØªØ·ÙĬØ¹":9843,"ĠÙĬØ¯Ø¹Ùħ":9844,"ÙĩÙĨØ¦Ø©":9845,"ĠØ§ÙĦÙĤÙĪØ§Ø¹Ø¯":9846,"ĠÙĬÙĥÙĪÙĨÙĪØ§":9847,"ĠØªØ·Ø§ÙĦØ¨":9848,"ĠØªÙĨØ³ÙĬÙĤ":9849,"ĠØ§ÙĦØ£Ø®ÙĦØ§ÙĤ":9850,"ĠØ£ÙĦÙĤ":9851,"ÙĦÙĬÙĩØ§":9852,"ĠØ§ÙĦÙģØµ":9853,"ĠØ¹Ø¸ÙĬÙħ":9854,"Ġam":9855,"ĠØ§ÙĦÙĨÙĬØ§Ø¨ÙĬØ©":9856,"ÙĩØ±Ø¬":9857,"ĠØ§ÙĦØ¥Ø·Ø§Ø±":9858,"ÙĦØ¨Ø§Øª":9859,"ĠÙĥØ³Ø±":9860,"ØªØ¯ÙĬ":9861,"ĠÙħØ¯ÙĬÙĨ":9862,"ĠÙĪØ§ÙĦØŃÙĬØ§Ø©":9863,"ÙĦØ§Ø³Ù":9864,"Ø´Ø§Ø±ÙĬ":9865,"ĠÙĨØµØ§Ø¦ØŃ":9866,"ĠØ§ÙĦØ§Ø³ØªÙĬ":9867,"ĠØ¯Ø±Ø³":9868,"ĠØ§ÙĦÙħÙģØ±":9869,"ĠÙħØ¯Ø®ÙĦ":9870,"ĠÙĨÙĩÙĬ":9871,"Ø§Ø¹ÙĦ":9872,"ĠØ§ÙĦÙĤÙĦÙĪØ¨":9873,"ĠØ§ÙĦÙħØ±Ùģ":9874,"ĠÙĦÙĦØŃØ¯":9875,"Ø§ÙĤÙĩ":9876,"ØŃÙĪØ«":9877,"ĠØ§ÙĦÙħØ³Ø§Ø¬Ø¯":9878,"Ø´Ø±ÙĪÙĨ":9879,"ĠØ§ÙĦØ´Ø§Ø´Ø©":9880,"ÙĪØ¯Ø§ÙĨ":9881,"ĠØ§Ø³Ø§Ø³":9882,"ĠØ§ÙĦØ¢ÙĦØ§Ùģ":9883,"ÙĬÙĪØ¨":9884,"ĬØ·Ø±ØŃ":9885,"ÙĬØ·Ø±ØŃ":9886,"ĠÙĬØ·Ø±ØŃ":9887,"Ø¤ÙĬØ©":9888,"Ø±Ø¨ÙĪÙĦ":9889,"ĠØ§ÙĦÙħÙĪÙĦØ¯":9890,"ĠØ§ÙĦÙħØ´ÙĥÙĦØ§Øª":9891,"ĠØ§ÙĦØ³Ø¹Ø§Ø¯Ø©":9892,"ĠØ¨ØªØ¹Ø¯ÙĬÙĦ":9893,"ĠØªØ£ÙĥØ¯":9894,"ĠØ§ÙĦÙħØ´ØŃÙĪÙĨØ©":9895,"ĠØ¹ÙħÙĦØ§Ø¡":9896,"ĠØ±Ø£Ø³Ùĩ":9897,"Ø¶ÙĬÙĤ":9898,"ĠÙħØŃØ³ÙĨ":9899,"ĠØ§ÙĦØ¬ÙĨØ§Ø¦ÙĬØ©":9900,"ĠØ£Ø³ÙĦØŃØ©":9901,"ĠÙĦØ§Ø¹Ø¨ÙĬ":9902,"ĠÙħØ´ÙĥÙĦØ§Øª":9903,"ĠÙħÙĪÙĦØ¯":9904,"ĠØ§ÙĦÙģØ¦Ø§Øª":9905,"Ø§Ø¹ÙĬØ§Øª":9906,"ĠØ·Ø¨Ø¹":9907,"Ø§Ø¹Ø§":9908,"ÙħØ§Ø¹":9909,"ĠØ¬ÙĨÙĪØ¯":9910,"Ø¬Ø±Ø§ÙĨ":9911,"ĠØŃÙģØ±":9912,"ĠØ§ÙĦØ£Ø±Ø´ÙĬÙģ":9913,"ology":9914,"ĠØªØŃØ¸Ùī":9915,"all":9916,"ĠØ§ÙĦØºØ§ÙĦØ¨":9917,"ĠØ§ÙĦØ£Ø³ÙħØ§Ø¡":9918,"ĠØ®Ø±Ø¬Øª":9919,"ÙĦØŃÙĤ":9920,"ĠØ³ÙħØŃ":9921,"ĠØ§ØµØŃØ§Ø¨":9922,"ĠÙħØ¹ØªØ¨Ø±Ø§":9923,"ĠØ§ÙĦÙĨØµÙĪØµ":9924,"ĠØ¯ÙĬÙĨÙĬØ©":9925,"ĠØ¶Ø§Ø¨Ø·":9926,"ĠØ§ÙĦØŃÙĥÙĪÙħØ§Øª":9927,"ĠÙĦØªÙĨØ¸ÙĬÙħ":9928,"ĠÙĦÙĦØµÙģ":9929,"ĠØ¨Ø¥Ø°ÙĨ":9930,"ĠØ¥ÙħØ§Ùħ":9931,"ĠØªÙĨØªÙĩÙĬ":9932,"ĠØ§ÙĦÙĥØ±ÙĬÙħØ©":9933,"ĠÙĦØªØ¨":9934,"Ø¨ÙĥØ©":9935,"ĠÙĬØ¯Ùĩ":9936,"ĠØ£Ø·ÙĦÙĤØª":9937,"ĠØ§ÙĦØŃÙĤØ§Ø¦ÙĤ":9938,"ĠØ§Ø³ØªØ®Ø¯Ùħ":9939,"ĠØ§ÙĦØ³ÙħØ§":9940,"Ġ69":9941,"ÙħØ§ÙĦÙĩ":9942,"ĠØ§ÙĦØ³ÙĨÙĪÙĬØ©":9943,"ĠÙĤÙĪÙħ":9944,"ĠØªØ§ÙĬÙħ":9945,"ĠÙħÙĪØ±ÙĬØª":9946,"ĠØªØ±ÙĬ":9947,"ĬØªÙĬØŃ":9948,"Ø§ÙħØ±Ø§Øª":9949,"ĠØ§ÙĦÙħÙĤØ¯Ùħ":9950,"ĠØ§ÙĦØ¹Ø§ÙħÙĦ":9951,"Ġ76":9952,"ĠØ®Ø§ÙĦÙĬØ©":9953,"ĠØ§ÙĦØ§Ø±ÙĩØ§Ø¨":9954,"ĦÙĪÙĦ":9955,"ÙĬØªÙĬØŃ":9956,"ĠØ§ÙĦØ¯Ø±Ø§ÙħØ§":9957,"ĠÙĬØªÙĬØŃ":9958,"ĠØªØ§Ø¬":9959,"ĠØ®Ø§Ùħ":9960,"ĠØ¨Ø§ÙĦØªØ£ÙĥÙĬØ¯":9961,"ĠÙħØ±Ø¬":9962,"ØªÙĤØ§Ø¡":9963,"Ġx":9964,"ĠØ§ÙĦØ®ÙĦÙĤ":9965,"ĠØªØ£ÙĦÙĬÙģ":9966,"ĠØ§ØŃØªØ±":9967,"ĠØ¨Ø§ÙĦØ«":9968,"Ø´ÙĬØ±Ø©":9969,"ĠØ§ÙģØ±":9970,"ĠØ§ÙĦØ³ÙĥÙĨ":9971,"ĠØ§ÙĦÙĬÙĨ":9972,"ĠÙĪØµÙĬØ§ÙĨ":9973,"ĠÙĪØ§ÙĦØ¥Ø¹":9974,"Ø·ÙĪÙĦ":9975,"ĠÙĨØ³ÙħØ©":9976,"ĠÙĨØ§":9977,"ĠÙģØ±ÙĪØ¹":9978,"ĠØ§ØªØ¨Ø§Ø¹":9979,"ĠØ¨ÙħØª":9980,"ĠØ§ÙĦØ±Ø³Ùħ":9981,"ĠØ§ÙĦÙħØ³ØªÙĪÙĬØ§Øª":9982,"ÙĦØ§ÙĬÙĬÙĨ":9983,"ĠØ´ÙĬØ±":9984,"ĠÙħØ¹Ùĥ":9985,"ÙĥØ±ÙĪÙĨ":9986,"ĠØ£ÙĪØº":9987,"ĠØ£Ø¯ÙĨØ§Ùĩ":9988,"ĠÙģÙĬÙĨ":9989,"ĠØ³ÙĬØ·Ø±Ø©":9990,"ĠØ¨Ø§":9991,"ĠØ¨Ø±Ùģ":9992,"ĠØ§ÙĦØ¨Ø±Ø§Ø²ÙĬÙĦÙĬ":9993,"ĠÙĦØ§Ø³ÙĬÙħØ§":9994,"ĠÙĨÙĪÙĨØ¨Ø±":9995,"ĠØªØ·ÙĦØ¨":9996,"ĠØ§ÙĦØ£ÙħØ§ÙĨØ©":9997,"Ø¯Ø±Ø³":9998,"ĠØ§ÙĦØªØ£ÙĥØ¯":9999,"ĠØ§ÙĦØŃÙĥÙħØ©":10000,"ĠØ§ÙĦØ´ÙĬØ±":10001,"ĠÙħÙĤØ§ÙĦ":10002,"ĠØ³ÙĦÙĪÙĥ":10003,"ĠÙĪØµØŃ":10004,"ĠÙħØ¨Ø§ØŃØ«":10005,"ĠØ§ÙĦØ®Ø·Ø±":10006,"ĠØ§Ø³ØªÙħØ±Øª":10007,"ĠØ£ÙĨØ´Ø·Ø©":10008,"ĠÙħØ¹ÙĦÙħ":10009,"Ø±Ø§Ø¹Ø©":10010,"ĠØ§ÙĦØ£ÙĨØ¨ÙĬØ§Ø¡":10011,"ĠØ§ÙĦÙħØªØ£":10012,"ĠÙĪØ£Ø¹ÙĦÙĨ":10013,"ĠØ³ØŃØ±":10014,"ĠØ§ÙĦÙģØ·Ø±":10015,"ĠØ§ÙĦØ¨ÙĦØ¯Ù":10016,"ĠÙĪÙģØ¹":10017,"ĠØ¨Ø¹ÙĬØ¯Ø©":10018,"ĠØ§ÙĦØ¨ÙĦØ¯ÙĬ":10019,"Ø²Ø§ÙħÙĨ":10020,"ĠØ¬ÙħÙĩÙĪØ±":10021,"ØªÙģØ¹Ø©":10022,"ĬØ¨Ø±":10023,"ĠØ§ÙĦØ¨Ø¯Ø±":10024,"indows":10025,"Ø·Øª":10026,"ĠÙĦØ¬Ø§ÙĨ":10027,"Ø§Ø¹Ø§Ø©":10028,"ĠÙħØ³ØªØ®":10029,"ĠÙħÙĬØ¯ÙĬØ§":10030,"ĠØ§ÙĦÙĩØ§ÙħØ©":10031,"ĠØ§ÙĦØµØ¹Ø¨Ø©":10032,"ĠØ¯Ø§Ø±ÙģÙĪØ±":10033,"ĠØ§ÙĦÙħØ¸":10034,"ĠØ§ÙĦÙĨØ§ØªØ¬":10035,"Ø³Ø§Ø·":10036,"Ø§ÙĩØ¬":10037,"ÙĦØ§Ø³ØªÙĬÙĥ":10038,"ĠÙħÙĨØ¨Ø±":10039,"ĠÙĦØ§Ø¯":10040,"ĠØ²ÙĪØ¬Ø©":10041,"ĠØ§ÙĦØ°ÙĩØ¨ÙĬØ©":10042,"ÙģÙģ":10043,"ĠPK":10044,"ĠØ¨ØªÙĩÙħØ©":10045,"ĠØ¨Ø§ÙĦÙģÙĬØ¯ÙĬÙĪ":10046,"ĠØ§ÙĦÙħØ¬ÙħØ¹":10047,"ĠÙĬØªØ¨Ø¹":10048,"ĠÙħÙĪØ§ÙĦÙĬØ¯":10049,"IN":10050,"Ø¨Ø¦Ø©":10051,"ĠØ§ÙĦØ§Ø®ÙĬØ±":10052,"ĠØ§ÙĦÙħØ¹Ø¯Ø§Øª":10053,"ĠØ§ÙĦÙħÙħØ«":10054,"ÙĦÙĪØ¹":10055,"ĠÙĪÙĤØ¯Ø±":10056,"ħÙģØ§ÙĪØ¶Ø§Øª":10057,"ĠØ·Ø±Ø¯":10058,"ĠÙĪÙĪÙģÙĤØ§":10059,"ĠØ§Ø¹ØªÙĤØ§ÙĦ":10060,"ĠØ§ÙĦÙĤØ¯Ø±":10061,"ĠÙĪÙĬØ²":10062,"ĠØ§ÙĦØ´ÙħØ³ÙĬØ©":10063,"ĠÙĪØµÙģØ§Øª":10064,"ĠÙħØ³ÙĬØ±":10065,"ĠÙĪØ§ÙĦØ¹Ù":10066,"ĠØ±Ø¨Ùĩ":10067,"Ø¬Ø§Ø²Ø©":10068,"ØªÙĬØª":10069,"ÙħÙģØ§ÙĪØ¶Ø§Øª":10070,"ĠØ§Ø¨ÙĬ":10071,"ĠØ§ÙĦØ¬ÙĦÙĬÙĦ":10072,"Ø¨Ø·Ø§ÙĦ":10073,"ĠØ§ÙĦØ¬ÙĨØ³ÙĬ":10074,"ĠÙĪØ±ØŃÙħØ©":10075,"ĠØ§ÙĦØ¹Ø²":10076,"ĠØ¹ÙĨØ¯ÙĬ":10077,"ĠØŃØµØ©":10078,"ĠÙĦÙĪÙĥØ§ÙĦØ©":10079,"ĠØ¨ÙħØµØ±":10080,"ĠØ§ÙĦÙħØŃØ§ÙħÙĬ":10081,"ĠØªØªØ¹Ø±Ø¶":10082,"ĠÙħÙģØ§ÙĪØ¶Ø§Øª":10083,"ĠØ³Ø§ÙħÙĬ":10084,"ĠÙĬØ³ÙħØ¹":10085,"Ġsp":10086,"Ø§Ø«ÙĬØ©":10087,"ĠØ®Ø³Ø§Ø±Ø©":10088,"ĠØ£ØµÙĪØ§Øª":10089,"ĠØ§ÙĦÙħÙĥÙĦÙģ":10090,"ĠØªÙĩÙħ":10091,"ÙĦØ§Ø¬Ø§Øª":10092,"ÙĩØ¯Øª":10093,"ĠØ³Ø¨ÙĦ":10094,"ĠÙĪÙĬØ£ØªÙĬ":10095,"ĠØ¥Ø¯Ø®Ø§ÙĦ":10096,"ÙĪØ§ÙĩØ§":10097,"ÙĩØ±Ø¨Ø§Ø¡":10098,"ĠØ£Ø®Ù":10099,"ĠØ¨Ø²ÙĬØ§Ø¯Ø©":10100,"ĠØ§ÙĦØ¹ÙĨÙĪØ§ÙĨ":10101,"Ø«Ø±Øª":10102,"ĠØ§ØªÙĩÙħ":10103,"ĠØªÙģØ±":10104,"ĠØŃØ§Ø±Ø³":10105,"ÙħÙĬØª":10106,"ĠØ§ÙĦÙħØ¹ØªÙħØ¯Ø©":10107,"ĠØ§ÙĦÙħØ¹ÙĬØ´":10108,"ĠÙħØ¹Øª":10109,"ĠØ§ÙĦÙħØ³ØªÙĤÙĦØ©":10110,"ĠØ§ÙĩÙĦ":10111,"ĠØ¥Ø·":10112,"ĠØ§ÙĦØ¹ÙĦÙĬ":10113,"ÙĥÙħÙĦ":10114,"ĠØªØ¯Ø§":10115,"ĠÙĥÙĪÙĨÙĩØ§":10116,"ĠØ¢ÙĨØ°Ø§Ùĥ":10117,"ht":10118,"end":10119,"ÙĦÙĩÙħØ§":10120,"ĠØ§ÙĦØ´Ø±Ùģ":10121,"ĠØ§Ø³ØªÙĤØ¨":10122,"ĠØ´Ø®ØµÙĬØ§":10123,"ĠØŃÙĬØ§ÙĦ":10124,"ĠÙĪØ§ÙĦØ¸":10125,"ĠÙ¢ÙłÙ¡Ù":10126,"ĠÙĪØ§ÙĦØªØ£":10127,"ĠØ§ÙĦØªØ¹Ø§ÙĤØ¯":10128,"ĠØ§ÙĦÙĨØ¯ÙĪØ©":10129,"ĠØ§ÙĦÙħØ°ÙĥÙĪØ±":10130,"ĠØŃØ±Ø§Ø±Ø©":10131,"ĠØ§ÙĦÙĤÙĪÙĬØ©":10132,"ĠØ§Ø³ØªØ«":10133,"ĠØ³ÙĨØºØ§Ùģ":10134,"Ġ62":10135,"ĠØ§ÙĦÙĥØ³":10136,"ĠØ«Ø¨Øª":10137,"ĠÙĪØ§ÙĦØ¹Ø±Ø§ÙĤ":10138,"ÙĨÙĩØ§Ø¡":10139,"ĠÙĪÙħÙĨÙĩÙħ":10140,"ian":10141,"Ø§Ø¦ÙħÙĬÙĨ":10142,"ĠØ³Ø§Ø±":10143,"ĠØ§ÙĦÙĤÙĦÙĤ":10144,"Ø§ÙĦØ¯ÙĬÙĨ":10145,"ĠÙĬØ¹ÙħÙĦÙĪÙĨ":10146,"ĠÙĦÙĦÙĨØ§Ø³":10147,"ate":10148,"ÙĦØ§ÙħÙĬÙĩ":10149,"ĠØ¨ØŃÙĦÙĪÙĦ":10150,"ĠÙĦØªØ¹Ø²ÙĬØ²":10151,"ĠØ§ÙĦØ²Ø¹ÙĬÙħ":10152,"ĠØªØ¹Ø·ÙĬ":10153,"Ø§ØªÙĨØ§":10154,"ĠØ§ÙĦØ£Ø¨ØŃØ§Ø«":10155,"ØµÙĬÙģ":10156,"ĠÙĪÙĥÙħ":10157,"ĠØ§ÙĦÙħØµØ§ÙĦØŃØ©":10158,"ĠÙĬÙĤÙĬÙħ":10159,"Ø±ÙħÙĪØ²":10160,"ĠØªØªÙĨ":10161,"ĠØ§ÙĦØµØŃÙĬØŃØ©":10162,"ÙĪÙĬÙĬÙĨ":10163,"ĠØ£ØµØ¯ÙĤ":10164,"ĠØ£Ø¬ÙĪØ§Ø¡":10165,"ĠDe":10166,"ĠØŃÙĤÙĤØª":10167,"Ø±ÙħÙĬÙħ":10168,"ĠØµÙĦØ©":10169,"ĠÙĪØ§ÙĦØªØ·":10170,"ĠØ´Ø§Øª":10171,"ØªÙħÙĦØ©":10172,"ĠØªØªÙħØ«ÙĦ":10173,"ĠØªØ·ÙĦÙĤ":10174,"Ø±ÙĬØŃØ§":10175,"ĠÙĪØ§Ø³ØªØ®Ø¯Ø§Ùħ":10176,"Ø§ÙĬØ¹":10177,"ĠÙħØ¶Ø§Ø¹":10178,"ĠÙĪØ£Ø¬":10179,"ĠÙħØ§Ùĥ":10180,"ĠÙĨÙĬØ¬ÙĬ":10181,"ĠØªØ¬ÙĨØ¨":10182,"Ø´Ø§":10183,"ĠÙĥÙĦÙĬÙĨ":10184,"ĠØ§ÙĦØ¨Ø±ÙĬØ©":10185,"ĠØ§ÙĦÙĬÙħÙĬÙĨ":10186,"ĠØªÙģÙĪÙĤ":10187,"ĠØ£ÙĨÙĬ":10188,"rab":10189,"ĠÙĬØ³Ø§ÙĪÙĬ":10190,"ĠÙĦÙĦØ¬ÙĬØ´":10191,"ond":10192,"ĠØµØ§Ø¯Ø±":10193,"ÙĦÙĪÙħØ§Øª":10194,"ĠØ§Ø±ØªØ¨Ø§Ø·":10195,"ĠÙħØ³Ø¹ÙĪØ¯":10196,"ran":10197,"ĠÙĦÙĦØ§ÙĨØªØ®Ø§Ø¨Ø§Øª":10198,"ĠØ¥ÙĨÙĩØ§Ø¡":10199,"ĠØ·Ø¨ÙĤØ§":10200,"ĠÙĪÙĤØ¯Ùħ":10201,"ĠØ§ÙĦØ§Ø³ØªØ®Ø¨Ø§Ø±Ø§Øª":10202,"ĠØ§ÙĦØ¥ÙĨØª":10203,"ĠØ¹ÙĤØ¯Øª":10204,"ĠØ§ÙĦØªØ¯Ø®ÙĬÙĨ":10205,"ĠØ§ÙĦØ´ØªØ§Ø¡":10206,"ĠØ¹Ø±ÙģØª":10207,"Ø¦Ø§Ø¨":10208,"ĠÙģÙĥÙĦ":10209,"ĠÙħØ´Ùĥ":10210,"ĠÙĪØ§ÙĦÙĤØ§ÙĨÙĪÙĨ":10211,"ĠØ§ÙĦÙĬØ§Ø¨Ø§ÙĨÙĬ":10212,"ĠØ§ÙĦØªÙħØ«":10213,"ØºÙĦØ§ÙĦ":10214,"ĠÙħØ¨Ø§Ø¯Ø¦":10215,"ĠÙĬØ²ÙĪØ±":10216,"ĠØ§ÙĦÙĨÙħØ³":10217,"ĠØ§ÙĦØ¹Ø§ÙħÙĩ":10218,"ĠÙĪØ¨ÙĬ":10219,"ØªØ§ØŃØ©":10220,"ĠØ¨ÙħØµ":10221,"ĠÙĪÙĪØµÙģ":10222,"ĠØ§ÙĦØ¥ÙĦÙĩ":10223,"ĠÙģÙĪØ¬":10224,"ĠØ§ÙĩÙħÙĬØ©":10225,"ĠØ¯ÙĬØ³":10226,"ĠÙĬØ³ØªÙĤØ¨ÙĦ":10227,"Ø·ÙĨØ¨ÙĪÙĦ":10228,"ĠÙĦØ£ÙĥØ«Ø±":10229,"ĠØ§ÙĦØ³Ø§Ø¹Ø§Øª":10230,"ĠÙĨÙģÙĬÙĩ":10231,"Ø§ÙĬØªØ¯":10232,"Ø±ÙħØª":10233,"ĠÙĪØŃÙħØ§ÙĬØ©":10234,"Ø§ÙħÙī":10235,"ĠØ´Ø±ÙĬØ·":10236,"ĠØ§ÙĨØ´Ø§Ø¡":10237,"ĠØªÙĪØ³ÙĬØ¹":10238,"ĠÙĨØ¯Ø§Ø¡":10239,"ĠØ§ÙĦÙħØ¨ÙĥØ±":10240,"Ø¯Ø¡":10241,"ÙģÙĬÙĬÙĨ":10242,"ĠØ§ÙĦØ®Ø·ÙĬØ¨":10243,"ĠØªÙĨÙģÙĬ":10244,"ÙĪØ§Ùĥ":10245,"ĠÙĥÙĩ":10246,"ĠÙħØŃØ§Ø¶Ø±Ø§Øª":10247,"ĠØ£ØŃØ±":10248,"ĠØ¨Ø§ÙĦÙĤÙĪÙĦ":10249,"ĠØ§ÙĦØ§Ø¹ØªØ¯Ø§Ø¡":10250,"ĠØ´ÙĬÙĪ":10251,"ĠÙĪØ§Ø·":10252,"ĠØ§ÙĦÙħØ§Ø³":10253,"ĠØªÙĤØ³ÙĬÙħ":10254,"ĠØ§ÙĥØªØ´Ùģ":10255,"ĠØ§ÙĦÙĤØµÙĬØ±Ø©":10256,"ĠÙħÙĤØ§Ø·Ø¹":10257,"ĠØ´Ø¹Ø±Ø§Ø¡":10258,"ĠØ§ÙĨÙĬ":10259,"ĠØ§ÙĦØŃØ§Ø¶Ø±":10260,"ĠÙĦÙĦØ´Ø±ÙĥØ©":10261,"ĬØ°":10262,"ĠØ§ÙĦÙħØªÙĪÙĤØ¹Ø©":10263,"ÙĪÙĨÙĬØ³ÙĬØ§":10264,"ĠØ¹Ùĥ":10265,"ÙĬØ²ÙĬ":10266,"ĠØ§ÙĦÙħØ³Ø§ØŃØ©":10267,"ĠØ§ÙĦØŃØ±Ø¨ÙĬ":10268,"ĠÙħØ±ØŃØ¨Ø§":10269,"ĠØ§ÙĦÙĪØ¯":10270,"ĠØ¨ÙħØ®ØªÙĦÙģ":10271,"ĠÙĦÙĬØ¨":10272,"ÙĪÙĨØº":10273,"ĠØ£Ø¬ÙħØ¹":10274,"ĠÙħÙĦØ§ØŃØ¸Ø©":10275,"ĠØ§ÙĦØªÙħØ±":10276,"ĠØ§ÙĦØ§ÙħÙĨÙĬØ©":10277,"ĠØ£Ø±Ø¨Ø§ØŃ":10278,"ĠØ§ÙĦÙħØŃÙĬØ·Ø©":10279,"ĠØ§ÙĦØ¨ÙĪØ±ØµØ©":10280,"ĠØµØ§Ø±ÙĪØ®":10281,"ĠØªØ£Ø¬ÙĬÙĦ":10282,"ĠØ§ÙĦØ°ÙĥØ±":10283,"ĠØŃØ¯Ø©":10284,"ĠÙħÙĪØ¸Ùģ":10285,"ĠÙĬÙģØ¶ÙĦ":10286,"MD":10287,"ĠØ·ÙĦØ¨Ø©":10288,"ity":10289,"ĠØ£ÙĨØ¯":10290,"ĠØªÙģÙĤØ¯":10291,"ØŃÙī":10292,"ĠØ§ÙĦÙħØ±Ø§ØŃÙĦ":10293,"MT":10294,"ĠØ§ÙĪÙĦØ§":10295,"ĠØ§ÙĦÙħØµØ§Ø¨ÙĬÙĨ":10296,"ĠØ´Ø±Ø¹ÙĬØ©":10297,"ĠØ¨Ø§ÙĦÙħØ³Øª":10298,"ĠÙĤØ¨Ø§Ø¦ÙĦ":10299,"Ø§ÙĥÙĪ":10300,"ĠØ¹ÙħØ¯":10301,"ĠÙĬØ«Ø¨Øª":10302,"ØªØµØ§Ùħ":10303,"ĬÙģÙĬØ¯":10304,"ĠÙĩÙĪÙĬØ©":10305,"Ø¹ÙĦÙī":10306,"ÙĪØ§ÙĥØ¨":10307,"ĠØ¨Ø¦Ø±":10308,"ĠØ§Ø±ØªÙģØ¹Øª":10309,"ĠØ¨Ø§Ø´":10310,"ĠÙĪÙĤÙĬÙĦ":10311,"ĠØ§ÙĦØ³Ø§Ø®":10312,"ĠØªÙģÙĬØ¯":10313,"ĠÙĦÙĦÙĤÙĬØ§Ùħ":10314,"ĠÙħÙĪØ³ÙĬÙĤÙī":10315,"ĠØªØ³ÙħÙī":10316,"ĠØ§ÙĦÙħØ³ØªØ®Ø¯ÙħØ©":10317,"ĠØ¯ÙĬÙĥÙĪØ±":10318,"ĠØªØµÙĨÙĬØ¹":10319,"ĠÙħØ±Ø³ÙĬ":10320,"ĠØ¯Ø§Ø®ÙĦÙĬØ©":10321,"ĠØ§ÙĨØ·ÙĦÙĤØª":10322,"ĠØ§ÙĦØŃÙĪØ§Ø¯Ø«":10323,"ĬÙĦÙħ":10324,"ĠØ£ÙĪØ§Ø®Ø±":10325,"Ø´ÙĩØ§Ø¯":10326,"ĠÙĪØ§ÙĦØŃÙ":10327,"ĠÙĪÙħÙĨØ¹":10328,"Ġ74":10329,"Ø´ÙĬØ§":10330,"ĠØ§ÙĦØ¥ÙĨØ¬ÙĦÙĬØ²ÙĬ":10331,"ĠÙĪØ«Ø§Ø¦ÙĤ":10332,"ĠØ¶Ø±Ø¨Ø©":10333,"ÙģØ§ÙĨ":10334,"Ġ96":10335,"ÙĬÙĪÙĦ":10336,"96":10337,"ØµØª":10338,"ĠØ§ÙĦØŃØ±Ø§Ùħ":10339,"ĠØ«ÙĤØ§ÙģÙĬØ©":10340,"ĠØªØ³Ø±Ø¨Ø§Øª":10341,"ĠØ§ÙĦØŃØ³Ø§Ø¨Ø§Øª":10342,"ry":10343,"ĠØ§Ø¹Ø¯Ø§Ø¯":10344,"ĠÙģÙĬÙĤÙĪÙĦ":10345,"ĠØ¥ÙħØªÙĬØ§Ø²Ø§Øª":10346,"ĠÙĬÙħÙĥÙĨÙĨØ§":10347,"Ø±ÙĬÙĬÙĨ":10348,"ÙĥÙĪÙħ":10349,"ĠØ¬Ø±Ø§ØŃØ©":10350,"ÙĬÙĨÙĬÙĩ":10351,"ĠØ§ÙĦÙĨØ²Ø§Ø¹":10352,"ĠÙģÙĦÙĬØ³":10353,"ĠÙģØ¹ÙĦÙī":10354,"ÙĬÙģÙĬØ¯":10355,"ĠØ³ÙĬØ±ÙģØ±":10356,"ĠØ§ÙĦØ¨ÙĦØ¯Ø©":10357,"ĠØ§ÙĦÙħØªÙħ":10358,"ĠØ´ÙĩØ¯Ø§Ø¡":10359,"ĠØŃÙĤÙĬÙĤÙĬ":10360,"Ø§ÙĬÙĬÙĨ":10361,"ĠØ§ÙĦØªÙĤÙĨÙĬØ§Øª":10362,"Ø²Ø§Ø¦Ø±":10363,"ÙĪØ§ÙĩØ±":10364,"ĠÙħÙĥØ«":10365,"Ø§ØŃÙģ":10366,"ØªØ±Ø§ÙĥÙĬ":10367,"Ø¨Ø±ÙĬØ©":10368,"ØµØ¯ÙĤ":10369,"ĠØ§ÙĦØ«Ø¯ÙĬ":10370,"ĠØ§ÙĦÙħØ±Ø§ÙĤØ¨Ø©":10371,"ĠÙĪØ¬ÙĪÙĩ":10372,"ĠØªØªØ£":10373,"ÙĪØ³ÙĨØ©":10374,"ĠÙĬØ¶ÙħÙĨ":10375,"ĠÙģÙĬØ±":10376,"AD":10377,"ĠØ§ÙĦØŃÙĥÙĬÙħ":10378,"70":10379,"ĠØªÙĤØ¯ÙħÙĩØ§":10380,"ĠØ§ÙĦØ¹ÙĤØ§Ø±":10381,"ĠØ§ÙĦØ¯ÙħÙĪÙĬØ©":10382,"Ø¨Ø¯Ø§ÙĦ":10383,"ĠØ§ÙĦØ±Ø§Ø¨Ø·Ø©":10384,"ĠÙĪØ¹ÙħÙĦ":10385,"ĠØªÙĪÙģÙĬÙĤ":10386,"ØªÙĬØ§":10387,"ĠØ£Ø±Ø³":10388,"ĠÙħØªØ·ÙĦØ¨Ø§Øª":10389,"ĠØ§ÙĦØ±Ø§Ùģ":10390,"ĠØ¹ÙħØ§Ø±":10391,"ĠØ§ÙĦØ·Ø§Ø¦ÙģÙĬØ©":10392,"ĠØ¨ØµÙĬ":10393,"ĠØºØ§Ø²":10394,"Ø³Ø§Ø¡Ù":10395,"ĠØ¨Ø§ÙĦÙħØ¬":10396,"Ø³Ø§Ø¡ÙĦ":10397,"ĠØµÙĬØ¯Ø§":10398,"Ø·Ø£":10399,"ĠØ§ÙĦØ±ØºØ¨Ø©":10400,"ĠÙĨØ³ÙĬ":10401,"ĠØ¯ÙĪÙĦÙĬ":10402,"ĬØ¬Ø§Ø±":10403,"ĠØ§ÙĦØŃØ¯ÙĬØ¯Ø©":10404,"ÙĪØ§ÙĨØ§":10405,"ĠÙħØ¦":10406,"ĠÙĪØŃÙĤÙĪÙĤ":10407,"ĠØ§ÙĦÙĥÙģ":10408,"ĠØŃØ§ÙħØ¯":10409,"ĠØ§ÙĦÙħØ¤Ø´Ø±":10410,"ĠØ¨ÙģÙĪØ²":10411,"Ġprocedure":10412,"ĠÙĬÙģÙĬØ¯":10413,"ĠÙħÙħØ«ÙĦØ©":10414,"ĠØŃØ§ÙĥÙħ":10415,"ĠÙĪØ³Ø¬ÙĦ":10416,"ĠØ§ÙĦØ£ØµÙĦÙĬ":10417,"ĠØ§ÙĦØ²Ø§Ø¦Ø±":10418,"ĬÙģØ§":10419,"Ø´Ø±Øª":10420,"ĠÙĤØ¨ÙĬÙĦ":10421,"ÙĥØ±ÙĬØ§":10422,"ĠØ§ÙĦÙĪÙĦØ§ÙĬØ©":10423,"Ø³ÙħØª":10424,"ĠØªØ«Ø¨ÙĬØª":10425,"ĠÙĦÙĦØªØ¹ÙĦÙĬÙħ":10426,"ĠØ±ÙĪÙħØ§":10427,"ĠÙĬÙģØªØŃ":10428,"ĠÙĪÙĤØªÙĩØ§":10429,"ĠØ¨Ø³ÙĬØ·":10430,"Ø¨Ø¶":10431,"ĠØ§ÙĦÙħØ¤ÙĤØª":10432,"ĠÙĦÙħÙĨØ§ÙĤØ´Ø©":10433,"ĠÙħÙħØ±":10434,"ĠØµÙģØ©":10435,"ĠÙĥØ«Ø±Ø©":10436,"ÙĪØ¶ÙĪØŃ":10437,"ĠØ§Ø¹ØªØ¨Ø§Ø±Ø§":10438,"ĠÙĩÙĬØ±":10439,"ĠØ£Ø³Ø§Ø³ÙĬØ©":10440,"ĠÙĪØ£Ø®ÙĬØ±Ø§":10441,"ĠÙĦÙģØ±ÙĬÙĤ":10442,"ĠØ£ØºÙĨÙĬØ©":10443,"ĠØ³ÙĦÙģ":10444,"ĠØ§ÙĦØ±Ø§Ø¦Ø¹Ø©":10445,"Ø´ÙĬØ±":10446,"ĠØŃØ³ÙĨÙĬ":10447,"ĠØ§ÙĦÙĩØ¬ÙħØ§Øª":10448,"ĠØ§ÙĦØ³ÙĦØ¨ÙĬØ©":10449,"ĠÙĩØ§Ø¯":10450,"ĠØ¹Ø¯Ø³Ø©":10451,"ĠØ§ÙĦØ¬Ø³":10452,"ĠØ§ÙĦÙĪÙĤÙĪÙģ":10453,"ĠØ§ÙĦØŃØ±ÙĪØ¨":10454,"ĠØ§ÙĦÙħÙħØªØ§Ø²":10455,"ĠØ§ÙĦÙĪÙĤØ§ÙĬØ©":10456,"ĠØ§ÙĦØŃØ§Ø±":10457,"ĠØ§ÙĤÙĦ":10458,"Ø¹ÙħÙĤ":10459,"ĠØ£Ø¹Ø¸Ùħ":10460,"Ø§Ø±ÙĬÙĩ":10461,"ĠØ§ÙĦÙĦÙĤØ§Ø¡Ø§Øª":10462,"Ø±Ø§Ø¶":10463,"ĠØ§ÙĦØ£Ø´ÙĩØ±":10464,"ĠØŃÙĬØ§ØªÙĥ":10465,"ĠØ£Ø®ÙĬ":10466,"ĠØ§ÙĦÙĤØ±ÙĬØ¨":10467,"ĠØ¨ÙħÙĤØ±":10468,"ĠÙĦÙĦØ¹Ù":10469,"ĠØ§ÙĦØªÙħÙĪ":10470,"ĠØ¥ÙĬÙĤØ§Ùģ":10471,"ĠØ¬ÙĪØ§Ø¦Ø²":10472,"ĠÙĦÙĩÙħØ§":10473,"Ø±Ø¯Ø´Ø©":10474,"ĠØ§ÙĦÙħØ®ØªØµ":10475,"ØµÙĦÙĪØ§":10476,"HD":10477,"ĠÙĪØªØŃØª":10478,"ĠØ¥ÙĬØ¬Ø§Ø¨ÙĬØ©":10479,"ĠØ¶ÙĪ":10480,"Ø£Ùħ":10481,"ĠØ§ÙĦØ¢ÙĦÙĬ":10482,"ØºØ±Ø³":10483,"ĠØ§ÙĦØ±ØŃÙĦØ§Øª":10484,"ÙĦÙĬØŃ":10485,"Ø±ÙĪÙĤØ§Øª":10486,"ĠØ§ÙĦØ¨ØŃØ±ÙĬ":10487,"ĠØ´Øº":10488,"ĠØªÙĪØ«ÙĬÙĤ":10489,"ÙģÙĪÙĤ":10490,"ĠÙĬØªÙĨØ§ÙĪÙĦ":10491,"ĠØªØ¹ÙĦÙĬ":10492,"ĠØ§ÙĦØ§ÙħØªØŃØ§ÙĨØ§Øª":10493,"ĠØ§ÙĦÙĦØ§Ø¦":10494,"ĠØ³ÙĥÙĨÙĬØ©":10495,"ÙĩÙĬØ©":10496,"ĠÙĪØ£Ø®Ø°":10497,"ĠØŃÙĬØ§ØªÙĩÙħ":10498,"ĠØ·Ø¹Ø§Ùħ":10499,"ĠØ®Ø§ÙĨ":10500,"ĠØ§ÙĦÙħÙĩØ§Ø¬Ø±ÙĬÙĨ":10501,"ĠØ¶Ø®ÙħØ©":10502,"ħØ°ÙĥØ±":10503,"SD":10504,"Ø°Ø§ÙĥØ±":10505,"ĠÙĪØ§ÙĦØ¥Ø±":10506,"ĠØ§ÙĦØ³Ø§Ø¦ÙĤ":10507,"Ø§ÙħØ¹Ø§Øª":10508,"Ø§Ø¯ÙĬÙĨ":10509,"ÙħØ°ÙĥØ±":10510,"ĠØ§ÙĦØ¨Ø·Ø§ÙĦØ©":10511,"Ġ84":10512,"ĠØ§ÙĦØ¥Ø¬ØªÙħØ§Ø¹ÙĬØ©":10513,"ĠØ¯ÙĬÙģÙĬØ¯":10514,"ĠØ§ÙĦØ§ÙĬØ§Ùħ":10515,"ĠØ§ÙĦØªØŃÙĦÙĬÙĦ":10516,"ĠØ¹ÙĦØ§ÙĤ":10517,"ĠØ¬ÙĬÙĨ":10518,"ĠÙħØ°ÙĥØ±":10519,"ĠÙĪØ§ÙĦØ³ÙĬØ§Ø³ÙĬØ©":10520,"ĠÙĤØ§ÙĦÙĩ":10521,"ĠØ¹Ø³":10522,"ĠØ±ÙĪØ²":10523,"ĠØ¥Ø®Ø±Ø§Ø¬":10524,"ĠØ§ÙĦØªØ´Ø±ÙĬØ¹ÙĬØ©":10525,"Ø¹Ø§Ø±Ùģ":10526,"ĠØ¨Ø§ÙĦÙħÙħÙĦÙĥØ©":10527,"ĠÙĪØ§ÙĦØ§ÙĨØª":10528,"ÙĪÙĤØ¹Ø§Øª":10529,"ĠÙħØªØµÙģØŃ":10530,"ĠØ§ÙĦÙħÙĨØ§Ùĩ":10531,"ĠØ§Ø¬ÙħÙĦ":10532,"ĠÙģÙĪØªÙĪØ´ÙĪØ¨":10533,"Ø¯Ø¹":10534,"ÙĪØ·ÙĨ":10535,"ÙĦÙħÙĨØ§":10536,"ĠØŃØ§Ø¦ÙĦ":10537,"ĠØ¹Ø´Ø±ÙĬÙĨ":10538,"ĠØ§ÙĦÙħØ®ØµØµØ©":10539,"ĠØ¹Ø¯Ø³Ø§Øª":10540,"Ø§Ø¯ÙĬÙĩ":10541,"ĠØ¨ÙģØ¹ÙĦ":10542,"ĠÙĦØŃÙħ":10543,"ĠØ§ÙĦØ¹ÙħÙĦØ©":10544,"ĠØ§ÙĦØªÙħÙĬÙĬØ²":10545,"ÙĥÙĬØ§Øª":10546,"ĠÙĥØ§ÙħÙĦØ§":10547,"ĠØ§ÙĦØ³ÙĬØ§Ø³ÙĬÙĬÙĨ":10548,"ĠØ§ÙĦØªØŃØ¶ÙĬØ±":10549,"ĠØªØ¯Ø±ÙĬØ¨ÙĬØ©":10550,"Ø§Ø§Ø":10551,"Ø±ÙħÙĪÙĨ":10552,"ĠØ§ÙĦÙħÙĨØªØ¸Ø±":10553,"ĠØ¨ÙĪØ±ØµØ©":10554,"ħØ®ØµØµ":10555,"ĠØ§ÙĦØ¥ÙĤÙĦÙĬÙħÙĬ":10556,"ĠÙĪØ§ÙĦØ«Ø§ÙĨÙĬ":10557,"ĠØ³ÙĬØ¯ÙĨØ§":10558,"ĠØµØ§Ø¯ÙĤ":10559,"ĠØ§ÙĦÙĬØ§Ø³":10560,"ube":10561,"ĠØŃÙĬØ¯Ø±":10562,"ĠØ§ÙĦØµÙ":10563,"ĠØ±Ø§Ø¨":10564,"ÙħØ®ØµØµ":10565,"ĠÙħØ®ØµØµ":10566,"ØŃØ³ÙĨ":10567,"ĠØ²ÙĬØ§Ø¯":10568,"ĠÙĪØ§ÙĦÙħØ¨":10569,"ack":10570,"ĠØ§ÙĦÙħØªÙħÙĬØ²":10571,"ĠÙĦØµØ§ØŃØ¨":10572,"ĠØ§ÙĦÙħØªÙĤØ¯Ùħ":10573,"ĠÙĦØªØŃØ³ÙĬÙĨ":10574,"ĠÙĪØ§Ø´Ø§Ø±":10575,"Ø®Ø±ÙĬÙĨ":10576,"ĠÙĪØ³ÙĬØªÙħ":10577,"ĠØ£Ø¬Ø¯":10578,"ĠØ¨ÙĬÙĨÙĨØ§":10579,"ĠØ§ÙħØªØ¯Ø§Ø¯":10580,"ħØ®Ø±Ø¬":10581,"ĠØ§ÙĦØ§Ø³ØªØ¹":10582,"ĠØªØ´Ø¬ÙĬØ¹":10583,"ĠØŃØ´Ø±Ø§Øª":10584,"Ġ88":10585,"ĠÙĦÙĦØŃÙģØ§Ø¸":10586,"YD":10587,"ĠØ§ÙĦØ¹Ø§Ø¦ÙĦØ§Øª":10588,"Ø³ØªØ±Ø§ÙĦÙĬØ§":10589,"ck":10590,"ĠØ§ÙĦÙħÙĬØª":10591,"ĠÙĦÙĦÙĥØ§ØªØ¨":10592,"ĠØ§ÙĦÙĬØ³Ø§Ø±":10593,"ÙĬÙĦÙħ":10594,"ĠÙĪÙĪØ²ÙĬØ±":10595,"ĠØ¯Ø¹Øª":10596,"ĠØ§ÙĦØ±Ùħ":10597,"ĠÙĦÙħØµØ±":10598,"Ø¬ÙħØ§Ø¹":10599,"Ġ78":10600,"ĠØŃØ¯ÙĬØ«Ø§":10601,"ide":10602,"ĠØ§ÙĦÙħØ³Ø§Ø±":10603,"ĠÙĪØ¨Ø¹Ø¯ÙĩØ§":10604,"ĠØ§ÙĦØªÙĩØ§Ø¨":10605,"Ø±Ø§ØªÙĬØ¬ÙĬØ©":10606,"ĠØªØ³ÙĬØ±":10607,"ĠÙĤØ§ÙħÙĪØ§":10608,"ĠØ§Ø³ÙĪØ§ÙĤ":10609,"Ø¶Ø±Ø§Ø¨":10610,"ÙĦØ®Øµ":10611,"ĠØªÙĨÙĤ":10612,"ÙħØ®Ø±Ø¬":10613,"ĠÙĬÙģØª":10614,"ĠØ¬ÙĦØ³Ø§Øª":10615,"ĠÙħØ®Ø±Ø¬":10616,"ĠØ§ÙĨØªØ§Ø¬":10617,"Ø¬Ø±ÙĬ":10618,"ĠØªØªØ±Ø§ÙĪØŃ":10619,"ĠAndroid":10620,"ĠÙĤØ¯ÙĬÙħØ©":10621,"ĠØ¨ØŃØ¯":10622,"ĠØ§ÙĪØ¨":10623,"Ġ<":10624,"ĠØ§ÙĦØ§Ø¹ÙĦØ§ÙĨØ§Øª":10625,"ĠØ§ÙĦØ±Ø§ØŃØ©":10626,"ĠØ§ÙĦØ§Ø³Ø±Ø©":10627,"ĠÙĦÙĦÙĨØ¸Ø§Ùħ":10628,"Ġj":10629,"ĠØŃÙĨ":10630,"ĠØ§ÙĦØŃØ¶Ø§Ø±Ø©":10631,"ĠØ§ÙĦÙĨØ¶":10632,"ĠÙĪÙĪØ¬Ùĩ":10633,"ĠÙĪØ¨Ø·":10634,"ÙģÙĦÙĪÙĨ":10635,"Ø¹Ø§Ø±Ø¶":10636,"ĠØ§ÙĦØŃØ¬Ø²":10637,"ĠÙĦØ£Ø³Ø¨Ø§Ø¨":10638,"ĠØ§ÙĦØ¹Ø³":10639,"ĠÙħØ§Ø¯":10640,"ĠØ¯ÙĬÙħÙĤ":10641,"ĠØ§ÙĦÙģØªØ§ØŃ":10642,"ÙĦÙĪØ§Øª":10643,"Ø¨ÙĩØ§Øª":10644,"ĠØ§ÙĦØ£ØµÙĪØ§Øª":10645,"ĠØ¬Ø¹ÙĦØª":10646,"ĠØ¨Ø§ÙĦØ§ØŃ":10647,"ĠØ§Ø³ØªØ¹Ø¯Ø§Ø¯Ø§":10648,"ĠÙĪØ¹Ø¨Ø±":10649,"ĠØ®Ø²Ø§ÙĨØ§Øª":10650,"ĠØªØ³Ø¬ÙĬ":10651,"Ø¨ÙĪØª":10652,"ĠØªØ¯ÙħÙĬØ±":10653,"ØºÙĦØ¨":10654,"ħØªØ¹":10655,"ĠØ¨Ø§Ùĩ":10656,"ĠØ§ÙĦÙĤØµÙĬÙħ":10657,"ĠØ§ÙĦÙĪØ§Ø¶ØŃ":10658,"ĠÙĦÙĦÙħÙĪØ§Ø·ÙĨÙĬÙĨ":10659,"ĠØŃØ¯ÙĬØ¯":10660,"ĠÙĬÙĨØ§":10661,"ĠÙħØŃØ§ÙĥÙħØ©":10662,"ĠØ§ÙĦØ¨Ø§ØŃØ«ÙĬÙĨ":10663,"ĠØ¬Ø³Ø¯":10664,"ĠØ§Ø¬ØªÙħØ§Ø¹Ø§Øª":10665,"ĠÙĨØµÙĪØµ":10666,"ĠØ³ÙĦØ·Ø§Øª":10667,"ĠØ³ÙĨØª":10668,"ĠØ¹ÙĨØ¯ÙĩØ§":10669,"ÙħØ³ÙĬ":10670,"ĠØ§ÙĦØºØ§ÙħØ¯ÙĬ":10671,"ĠÙĥÙĬÙĨ":10672,"ĠÙĦÙĦÙħØ¨":10673,"ĠØ§ÙĦØ³ÙĦÙĪÙĥ":10674,"ĠØ¢Ø®Ø±ÙĪÙĨ":10675,"ĠØ§ÙĦØ·ÙĪÙĬÙĦØ©":10676,"ĠÙĪØŃÙĬÙĨ":10677,"ĠØ¹Ø±Ø§ÙĤÙĬ":10678,"ĠØ§ÙĦÙģÙĬØ²ÙĬØ§Ø¡":10679,"Ø§Ø¦Ø¨Ø©":10680,"ĠÙĤØµÙģ":10681,"Ø´Ø¹":10682,"ĠØªØ±Ø´ÙĬØŃ":10683,"ĠØ±ÙĪØ§Ø¨Ø·":10684,"ĠØ±ÙģÙĬØ¹":10685,"ĠØ³Ø§Ø®":10686,"ĠØ§ÙĦÙħØ¹Ø§ÙĬÙĬØ±":10687,"ĠNew":10688,"ĠÙĨØ§Ø¯Ùī":10689,"ÙĨØ§ÙĤØ´":10690,"ĠØ§ÙĦØ³ÙĦÙĬÙħ":10691,"ÙĬÙĥÙĪ":10692,"ĠØ§ÙĦØ¨Ø´Ø±ÙĬ":10693,"ĠØ£ÙĤØ§Ùħ":10694,"ĠØ§ÙĦØªÙĪÙĤÙĬØ¹":10695,"ĠÙħØ¬Ø¯":10696,"ĠÙģÙĩØ°Ùĩ":10697,"ĠÙħÙĪØ§Ø±Ø¯":10698,"ĠÙħØ³ØªØ¹":10699,"ĠØ§ÙĦØ§ÙĬØ±Ø§ÙĨÙĬ":10700,"ĠØ§ØªØ´":10701,"ĠØ§ÙĦÙħØ¹Ø¯Ø©":10702,"ĠÙĥÙĪÙĦÙĪÙħ":10703,"ĠÙł":10704,"ĠÙĪØ£Ø±":10705,"ĠØ§ÙĦØ¬ÙĬØ²Ø©":10706,"ĠØªÙĤÙĨÙĬØ§Øª":10707,"ĠØ´Ø¹Ø¨Ø©":10708,"ĠØ§ÙĦÙħØ¬ÙĬØ¯":10709,"ĠÙĪØ£ÙĨÙĩØ§":10710,"ĠØ§ÙĦÙĬÙĪÙĨØ§ÙĨ":10711,"ĠØ§ÙĦÙģØ¬":10712,"Ġ800":10713,"Ø¨Øº":10714,"ĠØ§ÙĦØ¨Ø§Ø·ÙĨ":10715,"ĠÙĨØ§ÙĬÙģ":10716,"ĠØªÙĥØ±Ø§Ø±":10717,"ĠØ¨ÙħØ¬Ø±Ø¯":10718,"ĠØ§Ø¹ØªÙĤØ¯":10719,"ĠØ§ÙĦØµÙĨØ§Ø¹Ø§Øª":10720,"ĠÙĪØ³ÙĪØ±ÙĬØ§":10721,"´ØªØ±Ø§Ùĥ":10722,"ĠØ§ÙĦØ¢Ø³ÙĬÙĪÙĬØ©":10723,"ĠÙħÙĨØ¸ÙħØ§Øª":10724,"ĠØ£Ø¸ÙĩØ±Øª":10725,"90":10726,"ĠÙĤØµØ¯":10727,"Ø±Ø¢ÙĨ":10728,"ĠÙģÙĦØ³Ø·ÙĬÙĨÙĬØ©":10729,"ĠÙģØ§ÙĦØª":10730,"ĠØ¨ÙĥØª":10731,"ĠÙĦÙħØ®":10732,"ĠØ´Ø§Ø±ÙĥØª":10733,"ĠØ§ÙĦØ¹Ø§Ø¯ÙĬ":10734,"Ø§Ø¨ÙĦØ§Øª":10735,"ive":10736,"ĠØ¨ÙĬÙĨÙĩ":10737,"ĠØ§ÙĦØ¯ÙĬÙħÙĪÙĤØ±Ø§Ø·ÙĬØ©":10738,"ĠØ§ÙĦØ¨Ø§Ùĥ":10739,"ØµÙĦÙĬØ©":10740,"ĠÙĦÙĦØªÙĤ":10741,"ĠÙģØ¹Ø§ÙĦÙĬØ©":10742,"ĠØ¨Ø§ÙĦÙĥÙĪÙĬØª":10743,"ĠØ§ÙĦÙħÙĪØ§Ø²ÙĨØ©":10744,"ĠØ§ÙĦØ¨ÙĬÙĪØª":10745,"ĠÙĪØ§ÙĦØ¹Ø±Ø¨ÙĬØ©":10746,"ħØ§Ø±Ø©":10747,"ĠØ§ÙĦÙħÙģØ§Ø¬":10748,"ĠÙĪØ«ÙĤ":10749,"ĬØ±Ø©":10750,"ĠÙĨÙĥ":10751,"ĠÙĥØ§ÙĦÙĬ":10752,"Ø·Ø§Ø¨":10753,"ĠÙĪØªØ±Ùĥ":10754,"ĠÙĦØªØŃØ¯ÙĬØ¯":10755,"ĠØ®Ø¨ÙĬØ±":10756,"Ø¦Ùĩ":10757,"ĠÙħØ¹ØªÙħØ¯":10758,"ĠWindows":10759,"ĠØ§ÙĦØ£ÙĩÙĦÙī":10760,"ĠÙĩØ¬ÙħØ§Øª":10761,"ĠØ§ÙĦØªØŃÙĥÙĬÙħ":10762,"ĠØ§ÙĦØ¹Ø§ÙĦÙħÙĬÙĨ":10763,"ĠØ§ÙĦØ³Ø¬ÙĪÙĨ":10764,"ĠØµØŃÙĬØŃØ©":10765,"ĠØ§ÙĦØ¹ÙĥØ³":10766,"Ø®Ø§Ùħ":10767,"ĠØ§ÙĦÙħØ±ØªØ¨Ø·Ø©":10768,"ĠÙĨÙħØ§Ø°Ø¬":10769,"ĠØ¨Ø§ÙĦÙĦÙ":10770,"ĠÙĦÙĪØ³":10771,"ĠÙĪÙĬØ¹Ø¯":10772,"Ø§ØµÙħ":10773,"ĠÙħØ®Ø·Ø·":10774,"ĠÙĦÙĦØ£ÙĨ":10775,"ĠÙĬÙĤØ±Ø£":10776,"ĠØ§ÙĦØ«Ù":10777,"ĠØªÙĩØªÙħ":10778,"ĠØ£Ø±ÙĤØ§Ùħ":10779,"ĠAL":10780,"ĠØµØ¯Ø±Øª":10781,"ĠØ§ÙĦØ®Ø§ÙĦØ¯":10782,"Ø¯ÙħØ§Ø¬":10783,"Ø§ÙĥÙĬ":10784,"ĠØ§ÙĦØ¯Ø¹Ø§Ø¡":10785,"ĠØ§ÙĦØ£Ø²ÙĬØ§Ø¡":10786,"ĠÙĥØ³Ø¨":10787,"ĠØ§ÙĦØ¥Ø¨Ø¯Ø§Ø¹":10788,"ĠØ§ÙĨÙģØ¬Ø§Ø±":10789,"ĠØ§ÙĦØ¬ÙĩØ¯":10790,"ĠØ¨ØŃÙĥÙħ":10791,"Ø§ØªÙĬØ±":10792,"ĠØ§ÙĦØªÙģØ³ÙĬØ±":10793,"ĠÙĬÙģÙĩÙħ":10794,"ĠØ§ÙĦØ£ÙĪÙĦÙĬ":10795,"Ø£Ø®Ø°":10796,"Ø§ÙĩÙĬ":10797,"ØªØªÙħ":10798,"ĠØ¥Ø¹Ø·Ø§Ø¡":10799,"ÙĦÙĪØ±":10800,"ĠØŃØ±Ùħ":10801,"ĠÙħÙĬÙĦØ§ÙĨ":10802,"ĠØ¨ÙĬØ³":10803,"ĠØ§ÙĦÙģÙĬØ±ÙĪØ³":10804,"Ø§Ø¬Ø±Ø©":10805,"Ø±Ø¬ÙĪ":10806,"ĠØ§ÙĦÙĦØ§Ø²Ùħ":10807,"ĠØ§ÙĦØ£ÙĦÙģ":10808,"ĠÙĦÙĦØ¨ØŃØ«":10809,"ĠÙĥØ±ÙĬØ³":10810,"ĠØ¨Ø§ÙĦÙħÙĤ":10811,"SL":10812,"ĠØ§ÙĦØŃØ§Ø±Ø³":10813,"ĠÙħØ³ÙĬ":10814,"ĠÙĨØ¸Ø±ÙĬØ©":10815,"ĠØ³Ø®":10816,"ĠØ§ÙĦØªÙĦÙģ":10817,"tor":10818,"ĠØ±Ø£Ø³ÙĩØ§":10819,"ĠÙģØ±ØŃ":10820,"ĠÙħØ³ØŃ":10821,"ĠÙĨØ¹ÙĦÙħ":10822,"ĠÙĩÙĬÙĥ":10823,"ĠÙħØŃØ§Ø¯Ø«Ø§Øª":10824,"ĠØ§ÙĦÙĪØµÙģ":10825,"ĠÙĪØ£ÙĪ":10826,"Ø¤ÙħÙĨ":10827,"ĠØ±ÙĪØ§ÙĬØ§Øª":10828,"ÙĦØ§Ø°":10829,"ĠÙĨØ¨ÙĬ":10830,"ĠÙĬÙĪÙĨØ§ÙĬØªØ¯":10831,"ĠØªÙĦÙĤÙ":10832,"ĠØ§ÙĦÙĨØ§Ø±ÙĬØ©":10833,"ĠØ£Ø¹ÙĦØ§Ùĩ":10834,"ĠØ¬ÙĪÙĦØ¯":10835,"ĠØªÙģØª":10836,"ĠÙħÙĤØ§Ø·Ø¹Ø©":10837,"ĠØ§ÙĦÙĦØ°ÙĬÙĨ":10838,"Ġ86":10839,"ÙĬØ°":10840,"Ġ72":10841,"ĠØ£ØµØ¯Ø±Øª":10842,"ØªÙĨÙĬ":10843,"ĠÙħØ³Ø§ÙģØ©":10844,"ĠØ§ÙĦØ´ÙĬÙĪØ®":10845,"ĠØªÙĦÙĤÙĬ":10846,"ĠÙĪØ¥ØµØ§Ø¨Ø©":10847,"Ø¶Ø§Ø¡Ø©":10848,"ĠØ§ÙĦØ§ÙĪØ³Ø·":10849,"ĠØ§Ø¨ÙĨÙĩ":10850,"ÙĪØ¯Ø¹":10851,"ĠØ§ÙĦØ¹ÙģØ´":10852,"ĠØŃØµØ±ÙĬØ§":10853,"Ġ83":10854,"ĠØªØ®Ø²ÙĬÙĨ":10855,"ĠÙħØ¯Ø±Ø³":10856,"Ø´ÙĬØ¯":10857,"ĠØ§ÙĦÙħØ²Ø§Ø±Ø¹":10858,"ĠØ§ÙĦØ¥ØŃØµ":10859,"ĠØªØ±Ø§Ø¬":10860,"ĠDream":10861,"ĠÙħØŃÙĪØ±":10862,"ĠØ§ÙĦØ²ÙĬØ§Ø¯Ø©":10863,"ĠÙĪØ¨Ø´ÙĥÙĦ":10864,"ĠØ§ÙĦÙĨÙħÙĪØ°Ø¬":10865,"ĠÙĥØ±ÙĪÙĨØ©":10866,"ÙĦØ·Ø§Øª":10867,"ĠÙĥØ°Ø§":10868,"ĠØ§ÙĦØ¶ØŃØ§ÙĬØ§":10869,"ĠØ£Ø³Ø±Ø¹":10870,"ĠØ§ÙĦØ§ÙģØª":10871,"ĠØ§ÙĦÙħØ´Ø§Ø¹Ø±":10872,"sh":10873,"ĠÙĦÙĦØ³ÙĬØ§Ø±Ø§Øª":10874,"ÙĪØ¹Ø§":10875,"ĠÙĨØ¬ÙĬØ¨":10876,"ĠÙĥÙĦÙģ":10877,"ĠÙĬØŃÙĤ":10878,"ĠØ¹Ø§Ø´ÙĪØ±":10879,"ĠÙĬØªÙĪÙĤÙģ":10880,"ĠÙĦÙĬÙ":10881,"ĠØ¨Ø¨Ø³Ø§Ø·Ø©":10882,"ĠØºØ§ÙĦØ¨ÙĬØ©":10883,"Ø·Ø·Ø§Øª":10884,"ĠÙĦÙĬÙĦØ§":10885,"Ø§ÙĥØ³":10886,"ile":10887,"ĠÙħÙĨÙī":10888,"ÙĦØ§ÙĦÙĬØ©":10889,"ĠÙĪÙĥØªØ¨":10890,"ĠØ§Ø³Ø±Ø§Ø¦ÙĬ":10891,"ĠÙħÙĥØ§Ùģ":10892,"ĠØ§ÙĦØ®Ø§ØµÙĩ":10893,"ĠØ²Ø¹":10894,"ĠØ§ÙĦØ´Ø±Ø§ÙĥØ©":10895,"ĠÙħØ¤ÙĥØ¯Ø©":10896,"EN":10897,"ĠØ§ÙĦØ¨Ø¹ÙĬØ¯":10898,"ĠÙĤØµÙĬØ¯Ø©":10899,"ĠØ§ÙĦØ¨ÙĦØ§Øº":10900,"ĠÙĬØªÙĥÙĪÙĨ":10901,"Ø§Ø²Ø§Ø®":10902,"Ø³Ø¹ÙĬØ¯":10903,"ÙĬÙĨØª":10904,"ĠÙĥÙĬÙħÙĬ":10905,"ĠØ§ÙĦØ§Ø®ØªÙĦØ§Ùģ":10906,"ĠÙħØ¶Ùī":10907,"ĠØ¨Ø§ÙĦØªØ³Ø¬ÙĬÙĦ":10908,"ĠØ£Ø±Ùī":10909,"ĠØ§ÙĦØ§Ø³ØªØ±Ø§ØªÙĬ":10910,"ĠØ§ÙĦØ³ÙĨÙĬÙĨ":10911,"ÙĦÙĪÙģ":10912,"ĠÙĬÙĨÙĤ":10913,"ØªÙħØªØ§Ø¹":10914,"ÙĬØ¬Ø§Ø±":10915,"ĠÙĬØªØ®":10916,"ĠØ§ÙĦØ¹Ø³ÙĦ":10917,"ÙĥØ±ÙĬØ§Øª":10918,"ĠØ§ÙĤØ³Ø§Ùħ":10919,"ĠÙģÙĥØ§ÙĨØª":10920,"ĠØ§ÙĦØ¯Ø¨ÙĦÙĪÙħØ§Ø³ÙĬØ©":10921,"ĠØªØ£Ø³Ø³Øª":10922,"ĠØ´ÙĩØ§Ø¯Ø§Øª":10923,"ĠØ§ÙĦØŃØ¸":10924,"ÙģØ³ÙĩÙħ":10925,"ĠØ£ØºØ³":10926,"ĠØ§ÙĦØªÙĤØ¯ÙĬØ±":10927,"ĠØ¨ÙħØ±ÙĥØ²":10928,"ĠÙĦØ¹Ø±Ø¶":10929,"ĠÙĪØŃÙĬ":10930,"ĠØªÙĤØ±Ø±":10931,"ĠÙħÙĬØ³":10932,"ĠØ¢Ø±Ø§Ø¡":10933,"ĠØ§Ø³Ø·ÙĨØ¨ÙĪÙĦ":10934,"ĠØ¨Ø§ÙĦØªÙĤ":10935,"ĠØªØªØŃÙħÙĦ":10936,"ĠÙĦØ§ÙĨØª":10937,"ÙĥØ±Ùĩ":10938,"ĠÙĬØ¹ÙĤØ¯":10939,"ĠØ§ÙĦÙħØ³ÙĦÙħØ©":10940,"ĠÙĤØ±Ø§Ø¨Ø©":10941,"ĠØ¨ØªÙĨÙģÙĬØ°":10942,"ĠØ§ÙĦÙĩÙĨØ¯ÙĬ":10943,"ÙģØªØ§ØŃ":10944,"ÙĥÙĥ":10945,"ĠØ£ÙĪÙĤØ§Øª":10946,"ĠÙħÙĦØ§ÙħØŃ":10947,"ĠØ¨Ø·Ø§ÙĤØ§Øª":10948,"ĠØ§ÙĦÙģØªØŃ":10949,"ĠØ§ÙĦØŃÙĨ":10950,"Ø±ÙĪØ¶Ø©":10951,"ĠØªÙĤØ§Ùħ":10952,"ĠØ£ØŃØ¯ÙĩÙħ":10953,"ĦÙĨÙĬ":10954,"ĠØŃÙħÙĪØ¯":10955,"ĠØ§ÙĦØªØ±Ø´ÙĬØŃ":10956,"ØºØ¯":10957,"ĠÙĨÙĬØ§Ø¨Ø©":10958,"Ø±Ø§Ø³Ø©":10959,"ØªØ±Ø·":10960,"ĠØ¢ÙĬØ§Øª":10961,"ÙĬÙĨÙĪ":10962,"ĠØªØ¹ÙĦÙĬÙħÙĬØ©":10963,"ØŃÙĦØ§Øª":10964,"ÙģØ·":10965,"ĠÙĬØ§Ø±":10966,"ĠØ§ÙĦØ¢Ø¯Ø§Ø¨":10967,"ĬØ§Ø·":10968,"ĠØ³ØªØ³":10969,"ĠØ¹ÙĤÙĪØ¨Ø§Øª":10970,"lo":10971,"ĠØ§ØµØ¯Ø§Ø±":10972,"ĠØ§ÙĦØªØ¬Ø¯ÙĬØ¯":10973,"ĠÙĤØ±Ø§Ø¡":10974,"ĠØ§ÙĦØ±ÙĪØ¨ÙĦ":10975,"ĠØ¨ÙĨØ´Ø±":10976,"ĠÙĤÙĦØ¨Ù":10977,"ĠØ§ÙĦÙĤØ·Ø¹":10978,"ÙĬÙĥØ§ÙĨ":10979,"ĠÙĤÙĦØ¨ÙĬ":10980,"ĠØ§ÙĦÙĤÙĪÙĬ":10981,"ĠÙħØ´Ø±ÙĪØ¹Ø§Øª":10982,"ĠØ§ÙĦÙĥÙĬØ§ÙĨ":10983,"ĠØ²Ø§ÙħØ¨ÙĬØ§":10984,"ĠØ§ÙĦØ§ÙģÙĦØ§Ùħ":10985,"ĠØŃØ°Ø±":10986,"ĠØ´ÙħÙĦØª":10987,"ĠÙħÙĨØ²ÙĦÙĩ":10988,"ĠÙĩØ§Ø´Ùħ":10989,"ĠÙģØ±Ø§ÙĨØ³":10990,"ĠØ¬Ø²Ø§Ø¡":10991,"ĠØ§Ø¬ØªÙħØ¹":10992,"Ø§ÙĪØ±Ø§Øª":10993,"ĠØ§Ø¬ØªÙħØ§Ø¹Ø§":10994,"Ø³ØªØ§ÙĨÙĬØ©":10995,"ĠØ§ÙĦØ³ÙĨÙĬ":10996,"Ø¬Ø¯Ø¯Ø©":10997,"ĠÙĨÙĤØ§Ø´":10998,"ĠØ§ÙĦØªÙĥÙĨ":10999,"ĠØ§ÙĦØ¹Ø±Ø§ÙĤÙĬÙĬÙĨ":11000,"Ø§ÙĬÙĦØ§Øª":11001,"ĠØ§ÙĦØ±Ø§Ø¦Ø¯Ø©":11002,"ØºØ±Ø§ÙģÙĬØ§":11003,"ØªØ¯Ø§Ø¡Ø§Øª":11004,"ĠØ§ÙĦØ£Ø³Ø¨ÙĤ":11005,"ĠØ§ÙĦØ«Ùħ":11006,"ĠÙĬØ¹ÙĬØ¯":11007,"ĠÙĪØ§ÙĦØ³ÙģØ±":11008,"ĠÙĦÙĦØŃØ²Ø¨":11009,"ĠÙĩÙĪÙĦÙĨØ¯Ø§":11010,"ĠØ¨ÙĪÙĦØ§ÙĬØ©":11011,"ĠØ§ÙĦÙħØµÙĦØŃØ©":11012,"ĠØ§ÙĦÙħØ¨Ø§ÙĨÙĬ":11013,"ĠØ§ÙĦÙĤØ°Ø§ÙģÙĬ":11014,"ĠArab":11015,"ĠØ§ÙĦÙħØ³ØªÙĪØ·":11016,"ĠØ£Ø´ÙĬØ§Ø¡":11017,"ĠØ§ÙĦÙģØªÙĬØ§Øª":11018,"ĠÙĪØ§ÙĦØ¹ÙĤ":11019,"ĠØ§ÙĦÙħØ±Ø§Ùĩ":11020,"ĠØ§ÙĦØ§ØŃØ¯Ø§Ø«":11021,"ĠØ§ÙĦØ³ÙĬØ§ØŃÙĬ":11022,"ĠÙħÙĪØ¬Ø©":11023,"ĠØ§ÙĦØªÙħÙĬØ²":11024,"ĠÙĦÙĦØªØ³":11025,"ĠØ§ÙĦØ¶Ù":11026,"ĠØ§Ø³ØªÙģ":11027,"ĠÙĦÙĦÙĨØ³Ø§Ø¡":11028,"ĠØ§ÙĦÙħØ¶Ø§ÙģØ©":11029,"Ø«ÙĤ":11030,"ĠÙħØ´Ø§Ø±ÙĥØª":11031,"Ø§ØŃÙĨØ§Øª":11032,"ĠØ±ÙĪÙĨØ§ÙĦØ¯ÙĪ":11033,"ĠØ¢ÙĦÙĬØ§Øª":11034,"ĠØ§ÙĦØ§Ø¹ÙĦØ§ÙĨ":11035,"ĠØ¨Ø³Ø¹Ø±":11036,"Ø¬Ø§Ø¹Ø©":11037,"ĠÙĪÙĬÙĤÙĪÙħ":11038,"ĠØ§ÙĦØªØ£ÙĥÙĬØ¯":11039,"av":11040,"Ø§ÙĬÙĤ":11041,"ĠÙģØ§Ø¦":11042,"ĠØ¢ÙģØ§ÙĤ":11043,"ĠÙĬØªÙĤ":11044,"ĠØ³Ø±ÙĬØ¹Ø§":11045,"ĠØ§ÙĦØ£Ø¬ÙĪØ§Ø¡":11046,"ĠÙħØ¹Ø§ÙĦÙħ":11047,"ĠØ¨Ø£ÙĥØ«Ø±":11048,"ĠÙĦÙĦØ§ÙĬØ¬Ø§Ø±":11049,"ĠØ§ÙĩØªÙħ":11050,"ĠØªÙĥØª":11051,"ÙĨÙĤ":11052,"ĠØ§ÙĬÙģ":11053,"ĠØ§ÙĦÙħÙĤØ§Ùħ":11054,"ĬÙĥÙĬ":11055,"ĠÙħØ³Ø¬ÙĦ":11056,"ĠØ§ÙĦØ¨ÙĨØ§Øª":11057,"ĠØ§ÙĦÙħØ²Ø¹":11058,"ĠØ±Ø¯ÙĪØ¯":11059,"ĠØŃÙħÙĦØ§Øª":11060,"ĠÙĪØ¬Ø±":11061,"ĠØ§ÙĦØµÙĦØ§ØŃ":11062,"Ġ97":11063,"ĠØ§ÙĦØ¯Ùģ":11064,"ÙĪØªÙĩØ§":11065,"ĠÙĦÙħØªØ§Ø¨Ø¹Ø©":11066,"ĠØ¨ÙĥÙĦÙĬØ©":11067,"ĠØ¬ÙĨØ§ØŃ":11068,"ĠØ§ÙĦØ±Ø§Øº":11069,"ĠØ§ÙĦØŃÙĦÙħ":11070,"ĠÙħØ´Ø¯Ø¯Ø§":11071,"ĠØ§ÙĦÙħØ¹Ø§ØµØ±":11072,"Ø±ÙģÙĬ":11073,"ĠÙĪØ²ÙĪØ¬":11074,"ĠØ§ÙĦÙĩÙĨØ¯ÙĬØ©":11075,"ÙĦØ§ÙģØ©":11076,"ĠØ¯ÙĪØ±ÙĩØ§":11077,"ĠÙĪÙĥÙĨØª":11078,"ÙĬØ³ÙĬØ©":11079,"ĠØ±ÙģØ¶Øª":11080,"ĠØ£ØŃÙĬØ§Ø¡":11081,"ĠØ§ÙĦØ§ØªØŃØ§Ø¯ÙĬØ©":11082,"ĠØ§ÙĦÙģÙĦØ§Ø´":11083,"ey":11084,"ĠÙĥÙĩØ±Ø¨Ø§Ø¡":11085,"ĠØºØ¶ÙĪÙĨ":11086,"ĠÙĥÙĪØ§Ø´Ø§":11087,"ĠØ±Ø¦ÙĬØ³ÙĬØ©":11088,"ĠØ³Ø±ÙĤØ©":11089,"ĠØ§ÙĦØ£Ø®Ø·Ø§Ø¡":11090,"ĠØ§ÙĦÙħØ¹Ø¬Ùħ":11091,"ĠØ¨ÙħØ¬ÙĦØ³":11092,"ĠØ±Ø¤ÙĪØ³":11093,"ĠØ¬Ø§Ø±":11094,"ĠØ§ÙĦÙĪØ§Ø¬Ø¨":11095,"22":11096,"ĠØŃØ§ÙĪÙĦØª":11097,"ĠØ£ØµÙĦØ§":11098,"Ġ98":11099,"ĠØ¥Ø³Ø¨Ø§ÙĨÙĬØ§":11100,"ĠØ§ÙĦØªØ¹Ø§Ø¯ÙĦ":11101,"ĠØ§ÙĦØ¥Ø³ÙħØ§Ø¹ÙĬ":11102,"ĠØŃÙħØ¯Ø§ÙĨ":11103,"ĠØ¨ÙĥØ§ÙģØ©":11104,"ĠØ§ÙĦØ§ÙĨØ³Ø§ÙĨÙĬØ©":11105,"ĠÙĬÙĨØ´Ø±":11106,"Ø§Ø·Ø¨":11107,"ĠØ§ÙĦØ£Ø´ÙĥØ§ÙĦ":11108,"ÙĦÙħØ¨ÙĬØ©":11109,"ĠÙħÙĨÙĤ":11110,"ĠØ£Ø¨ÙĦØº":11111,"ĠØ§ÙĦÙģØ±ÙĬÙĤÙĬÙĨ":11112,"ĠØ¹Ø§Ø¨":11113,"ĠØªÙĤØª":11114,"ÙĩØ±Ø¬Ø§ÙĨØ§Øª":11115,"ĠÙĨÙĪØ¹Ø§":11116,"ØªØ¨Ø¹":11117,"ĠÙĪØ§ÙĦØ§ØªØŃØ§Ø¯":11118,"ĠStar":11119,"ĠØ£Ø³Ø§Ø³ÙĬ":11120,"Ø§ØµÙĦØ§Øª":11121,"ĠØ¹ÙĤØ¯Ùĩ":11122,"ÙĪÙĩØ±Ø§Øª":11123,"ĠØ§ÙĦÙħØ³Ø§ÙĩÙħØ©":11124,"ĠØ§ÙĦØ§ÙĩÙĦÙĬ":11125,"ĠÙĪÙĬØ¨Ø¯ÙĪ":11126,"ĠÙĪØ¥Ø¹":11127,"ÙĤÙħØ§Ø±":11128,"ÙĪØ¹ÙĬ":11129,"ĠØ§ÙĦÙħÙģØªÙĪØŃ":11130,"ĠØ§ÙĦÙħØŃØ§Ø³Ø¨Ø©":11131,"ĠØ§ÙĦØ°Ø§ØªÙĬ":11132,"ĠØ§ÙĦØºØ¶Ø¨":11133,"ĠØ·Ø§ÙĤØ©":11134,"ĠÙģØ±ÙĨ":11135,"ĠØ§ÙĦÙħØ·Ø§ÙĦØ¨":11136,"ĠØ±Ø¦ÙĬØ³ÙĬ":11137,"ge":11138,"ĠØ§ÙĦØ¹ÙĤÙĬØ¯Ø©":11139,"ĠØŃØ¨ÙĬ":11140,"ĠÙĤØ¯Ø±Ø§Øª":11141,"Ø¯Ø¯Øª":11142,"ĠÙħØ±ÙĪØ§ÙĨ":11143,"ÙĪØ±Ø§ÙĤ":11144,"ĠÙĦØ±ÙģØ¹":11145,"ĠÙĦÙĪÙĤÙģ":11146,"ĠØŃØµØ±":11147,"ĠØ§ÙĦÙħÙħØ«ÙĦ":11148,"ĠÙĪØ®Ø§Ø±Ø¬":11149,"ĠÙĬØŃØ¶Ø±":11150,"ĠØ§ÙĦÙħÙĨØŃ":11151,"ĠÙĦÙĦØ§Ø·ÙģØ§ÙĦ":11152,"ĠÙĨØ§Ø¯Ø±":11153,"ĠÙĦÙĦÙĤØ¶Ø§Ø¡":11154,"ĠØŃØ§Ø³":11155,"ĠÙĪØŃØ¯ÙĩØ§":11156,"ĠØ§ÙĦØ¹ÙĤÙĬØ¯":11157,"ĠØ§ÙĦØ£ÙĦÙħ":11158,"ĠÙħØªÙĪØ³Ø·Ø©":11159,"ĠÙĪØªÙĩ":11160,"ĠÙĦÙĦØ¹Ø§ÙĦÙħ":11161,"ĠÙĤÙĦØ¨Ùĩ":11162,"ĠÙħØ¤Ø³Ø³":11163,"ĠÙħØŃØ¯Ø¯":11164,"ĠØ¨Ø±ØµÙĬØ¯":11165,"ĠØ§ÙĦØ³ÙħÙĥ":11166,"ĠØ§ØªÙĩØ§Ùħ":11167,"ĠØ§ÙĦØ¨ÙĬØ¦ÙĬØ©":11168,"ĠØ§ÙĨØªØµØ§Ø±":11169,"ĠØ§ÙĦÙħØ³ÙĬØŃÙĬÙĬÙĨ":11170,"ĠÙĬÙħÙĥÙĨÙĩ":11171,"ĠÙĪØ§ÙĦØ¬Ø±Ø§Ùģ":11172,"ÙĦÙĥÙĬ":11173,"ĠØ§ÙĦÙħØµØ§Ø±Ùģ":11174,"ĠÙĪØ¹ÙħØ±":11175,"ĠØ§ÙĦØ¶ØºÙĪØ·":11176,"ĠÙĪØ§ÙĨÙĩ":11177,"ĠØ§ÙĦØªÙĪØŃÙĬØ¯":11178,"ĠØ¨Ø±ÙħÙĬÙĦ":11179,"ly":11180,"ĠÙĦØ²ÙĬØ§Ø¯Ø©":11181,"ĠØ§Ø³ØªÙĥÙħØ§ÙĦ":11182,"ĠÙĦÙĦØ³ÙĬØ¯":11183,"ĠØ¨ÙĪÙĦ":11184,"ĠØ§ÙĦØ²ÙĪØ¬Ø©":11185,"ĠØ¨Ø£ÙĨÙĩÙħ":11186,"ĠØ¨ØªØ®":11187,"ĠØ³ØŃ":11188,"ĠØªÙĪÙħ":11189,"ĠÙħØ±Ø§Ø¯":11190,"ĠÙĪØ§ØŃØ©":11191,"ĠÙĪØªØ¹Ø¯":11192,"ĠØ¯Ø§Ùģ":11193,"ĠØªØ§ÙĬÙħØ²":11194,"Ø§ØªÙĬØŃ":11195,"ĠÙĬÙĨØ¸Ùħ":11196,"ÙĪØªÙĬÙĨ":11197,"ĠØªÙģØ±Ø¶":11198,"ĠÙĬÙĤØ§Ø±Ø¨":11199,"ĠÙĬÙĥØª":11200,"ĠØ§ÙĦØ¥Ø®Ø¨Ø§Ø±ÙĬØ©":11201,"Ø§ÙĩÙĨ":11202,"ĠÙĪØ§ÙĦØ³ÙĨØ©":11203,"ĠØ§ÙĦÙĤØŃØ·":11204,"ĠÙĪÙħØªØ§Ø¨Ø¹Ø©":11205,"ÙģÙĬÙĥ":11206,"ĠØ§ÙĦØ³ÙĬØ§ØŃ":11207,"ĠÙħÙĨØ¯ÙĪØ¨":11208,"ĠÙĪØ¶Ø¹ÙĩØ§":11209,"ĠØ¹ÙħÙĦØª":11210,"ĠØ§ÙĦÙĤØ§Ø¨Ø¶Ø©":11211,"ĠØ£ÙģØ§Ø¯":11212,"ĠØ§ÙĦØ±Ø§Ø¦Ø¹":11213,"ĠØ§ÙĦØ¬Ø¨ÙĦ":11214,"Ø±ÙĬØ¶Ø©":11215,"ØŃÙĨØ§":11216,"Ø§ØºÙĬ":11217,"ĠØªÙĨØ²ÙĬÙĦ":11218,"ĠÙĪØ³Ø¨":11219,"ÙĦØ¢":11220,"ĠÙĨÙĩÙĬØ§ÙĨ":11221,"ĠÙĪØ§ÙĬØ¶Ø§":11222,"ĠØ§ÙĦØ±Ø§ÙĩÙĨ":11223,"ĠØ¶Ø¨Ø§Ø·":11224,"ĠØ³ÙĬØ§Ø³Ø§Øª":11225,"ĠØ·ÙĦØ§ÙĦ":11226,"iy":11227,"ĦÙĪØ³":11228,"ĠÙĨØ§Øª":11229,"ĠÙĨØ¹ÙĬØ´":11230,"ĠØ§ÙĦØ¹Ø§Ø¬":11231,"ĠØªØ¹ÙĤØ¯":11232,"ĠÙĦÙĪØ±":11233,"ĠØªÙĥØ§ÙĦÙĬÙģ":11234,"ĠÙĦØ§Ø³ØªØ®Ø¯Ø§Ùħ":11235,"ĠØ§ÙĦØ¨Ø´ÙĬØ±":11236,"ĠØ§ÙĩØ¯Ø§Ùģ":11237,"ĠØ¹ÙĨØ¯ÙĨØ§":11238,"ĠÙĬÙĤØ¶ÙĬ":11239,"ĠØ±ÙĪØ§Ø¯":11240,"ĠØ§ÙĦÙħØ±Ø¡":11241,"ĠÙĪØ§ÙĬ":11242,"ĠÙħØ³Ø±":11243,"ĠÙħØµØ·ÙĦØŃ":11244,"ĠØµØŃØ±Ø§Ø¡":11245,"ĠÙĪØ§ÙĦØ§ÙĤ":11246,"ĠØªÙģØ¹ÙĦ":11247,"lam":11248,"Ø¨Ø§ÙĦ":11249,"ĠÙĪØ§ÙĦÙħØº":11250,"ĠØ§ÙĦØ¬Ø§ÙĨØ¨ÙĬÙĨ":11251,"ĠØ¹Ø§Ø¦ÙĦØªÙĩ":11252,"ØªÙģØ¸":11253,"ĠØ±Ø¨ØŃ":11254,"ĠÙħØªØ±Ø§":11255,"ĠØ±Ø¦":11256,"ĠØ±ÙģØ¹Øª":11257,"ÙĥÙĪÙĥ":11258,"ĠÙĪØ£Ø¹Ø¶Ø§Ø¡":11259,"ĠÙĦØªÙĪÙģÙĬØ±":11260,"ĠÙĦØ§Ø¹Ø¨ÙĬÙĨ":11261,"ĠØ§ÙĦØ¨Ø·ÙĪÙĦØ§Øª":11262,"ĠÙĦÙĨØ¸Ø§Ùħ":11263,"ĠÙĬØ§Ø³ÙĬÙĨ":11264,"ØŃÙĤØ§ÙĤ":11265,"ĠØ³Ø¨ÙĬ":11266,"lay":11267,"Ø±ÙĪØ²":11268,"ĠØ¨ØªÙģ":11269,"ĠØ§ØµÙĦØ§ØŃ":11270,"ĠÙĪØ¬ÙĩØ§Øª":11271,"ĠØ§ÙĦÙĨÙģØ·ÙĬØ©":11272,"ĠÙĤØ±Ø£":11273,"ĠØ§ÙĦØ¯ÙĪØ§Ø¡":11274,"ĠØ¨Ø§ÙĦØ£Ø³":11275,"ĠÙħØµÙĨ":11276,"ĠØºØ§Ø¯Ø±":11277,"ĠÙĬØ®Ø¯Ùħ":11278,"ĠÙĪÙģØªØŃ":11279,"ħØ±ÙħÙī":11280,"ĠØ§ÙĦÙĪÙĬØ¨":11281,"ĠØ§ÙĦÙħÙĪÙĨ":11282,"ÙħØ±ÙħÙī":11283,"ĠÙħØ±ÙħÙī":11284,"ĠÙĨÙħØ·":11285,"ĠÙĬØ§ÙĨ":11286,"ĠÙĪØ§ÙĦÙĦÙĬØ²Ùĥ":11287,"ĬØ§ÙģØ©":11288,"ĠÙĥØ§ÙĦØª":11289,"ĠÙħØ±Ùĩ":11290,"ĠÙĬØ¯ÙĪØ±":11291,"ĠØ§ÙĦÙĤØ¯Ø±Ø§Øª":11292,"ĠØ§ÙĦÙĨØ¬ÙħØ©":11293,"ĠØ§ÙĨØ·ÙĦØ§ÙĤØ§":11294,"Ø®Ø±ÙĬØ©":11295,"ĠØ§ÙĦÙħØ¨ÙĨÙī":11296,"ĠÙħÙĪØ³ÙĪØ¹Ø©":11297,"ĠÙĪØ£Ø¨ÙĪ":11298,"ĠÙģØ§Ø¦Ø¯Ø©":11299,"ach":11300,"ĠØ¨ØŃØ±ÙĬØ©":11301,"ĠØ§ÙĦØ£Ø¯ÙĪØ§Øª":11302,"ĠØ¨Ø¯ÙĤØ©":11303,"Ø¨Ø§ÙĤ":11304,"ĠÙ£":11305,"ĠÙĨÙĤÙĦØª":11306,"Ġwhat":11307,"ĠØ§ÙĦÙĤØ§Ø¯Ø©":11308,"ĠØ³ÙĬØ±Ø©":11309,"ĠØ§ÙĦØ¹Ø§Ø¯Ø©":11310,"ĠØªÙħÙĨØ¹":11311,"ĠØ¨Ø§ÙĦØªØ§ÙĦÙĬ":11312,"ĠÙģØ³Ø§Ø¯":11313,"ĠØ§ÙĦØ®ÙĦÙĬÙĦ":11314,"ĠØ§ÙĦØªÙħØ«ÙĬÙĦ":11315,"ĠØ§ÙĦØºØ±Ùģ":11316,"ĠØµÙĦØ§ØŃÙĬØ§Øª":11317,"ĠÙĤØ§Ø¨ÙĦØ©":11318,"Ø±ÙħØ¬ÙĬØ§Øª":11319,"ĠØ¨Ø§ÙĦÙĦÙĬØ²Ùĥ":11320,"Ø²Ø¹Ø©":11321,"ÙĪØ§ØªØ±":11322,"Ø§Ø¸Ù":11323,"Ø§ÙĬØ¬Ø±":11324,"ĠÙĤØ¯ÙĬÙħ":11325,"ĠØ´Ø§Ø¹Ø±":11326,"ĠØ£Ø³ÙģÙĦ":11327,"Ø¬ÙĪÙĨ":11328,"ĠÙħÙĤØ¨":11329,"ĠÙĪØ§ÙĦÙħÙģ":11330,"ĠØ§ÙĨØ¯Ø±ÙĪÙĬØ¯":11331,"ĠÙĬÙħÙĪ":11332,"ÙĪØ§Ø©":11333,"ĠÙĪØ£Ø®Ø±Ùī":11334,"ÙĥØ§ÙĬØ©":11335,"Ø¨Ø§Ø¯":11336,"ĠÙĪØ§ÙĦÙĬÙĪÙħ":11337,"ÙħÙĥØ§ÙĨÙĬØ§Øª":11338,"ĠØ§ÙĦØªØŃÙĪÙĦ":11339,"ĠØ±ÙĬÙħ":11340,"ĠØ§ÙĦÙĬÙĪÙħÙĬ":11341,"ĠØ¨ÙħÙĥØ©":11342,"ĠØ§ÙĦØªÙĪØ¬ÙĬÙĩ":11343,"ĠÙĬØŃÙĥÙħ":11344,"ĠØ³Ø±ÙĬØ©":11345,"Ø«Ø¨ÙĬØª":11346,"ĠÙĪØ´Ø§Ø±Ùĥ":11347,"Ø¶ÙħØ§ÙĨ":11348,"ĠØ¹ÙħØ±Ø§ÙĨ":11349,"Ø§Ø³Ø±":11350,"ĠØ²Ø¹Ùħ":11351,"ĠØ§ÙĦØ±Ø§ÙĩÙĨØ©":11352,"ĠØ¨ÙĬÙĪØª":11353,"ÙĪØ§Ø±Ø«":11354,"ĠÙĥÙĬØ§ÙĨ":11355,"ĠØ§ÙĦØ£ØµØ¯ÙĤØ§Ø¡":11356,"ĠØ§ÙĦØ³ÙĪÙĬ":11357,"ĠØ´Ø±Ø¨":11358,"ĠØ§ÙĦØ·Ø§Ø¦ÙģÙĬ":11359,"ĠÙĪØ§ÙĦÙħØ·":11360,"ĠØ·ÙĬÙĦØ©":11361,"ĠØ§ÙĦØ§ØŃÙħØ±":11362,"ĠØ£ØŃÙĦØ§Ùħ":11363,"ĠØªØ³ÙĪÙĬØ©":11364,"Ø¨ÙĬØŃ":11365,"Ø§ÙĪÙĬÙĨ":11366,"ĠÙĪØ¹ÙĬ":11367,"ĠÙĪØ§ÙĦØ¥Ø¹ÙĦØ§Ùħ":11368,"ĠØ¬ÙĪÙĩØ±":11369,"ĠØ§ÙĦÙĤØ±ÙĬØ¨Ø©":11370,"ĠØŃÙħØ²Ø©":11371,"ĠÙĪØªÙĤØ¯ÙĬØ±":11372,"ĠØ§ÙĦØµÙĪØ§Ø±ÙĬØ®":11373,"ĠÙĬÙĤÙĪÙħÙĪÙĨ":11374,"lus":11375,"ĠØªØªØ®Ø°":11376,"ĠØ§ÙĦØªÙĪÙģÙĬÙĤ":11377,"ĠØªØªÙĪ":11378,"ĠØºØ±ÙĬØ¨Ø©":11379,"ĠØ¨ÙĥØ§ÙĦ":11380,"ĠØ¨Ø§Ø¹ØªØ¨Ø§Ø±ÙĩØ§":11381,"ĠÙĩÙĦØ§ÙĦ":11382,"ĠØªÙĨØªØ¸Ø±":11383,"ĠØ§ÙĦÙħØªØ§Ø¨Ø¹Ø©":11384,"ĠØ¹Ø¨Ø¯Ùĩ":11385,"Ġ79":11386,"ĠØ§ÙĦØ£Ø³ÙħØ§Ùĥ":11387,"ØµØ§Ø±Ùī":11388,"ÙĨØº":11389,"ĠØ§ÙĦØµØ¯Ø¯":11390,"ĠÙħÙĨÙĪØ¹Ø©":11391,"ĠØ³ÙĩÙĪÙĦØ©":11392,"ĠØ§Ø³ØªÙĩØ¯Ø§Ùģ":11393,"ĠØªØ´Ù":11394,"ĠØ§ÙĦØ±Ø¨Ø§Ø·":11395,"ĠØ§ÙĦÙĨÙĤØ¯ÙĬØ©":11396,"ĠØ§Ø³ÙĦØ§ÙħÙĬØ©":11397,"ĠØ§ÙĦÙģÙħ":11398,"ĠØ§ÙĦÙħÙĨØ¹":11399,"ĠØ³ØªØª":11400,"ĠØ£Ø¯Ø§Ø©":11401,"ĠØ¹ÙĦÙħÙ":11402,"ĠÙĤØ±Ùī":11403,"ĠØ§ÙĦÙĩÙĨØ¯Ø³ÙĬØ©":11404,"ĠØ§ÙĦØ¨ÙĪÙĦÙĬ":11405,"ĠØ¹ÙĦÙħÙĬ":11406,"ĠÙĬØ¯Ø¹Ùī":11407,"Ø±ÙĬØ±Ùĥ":11408,"ĠØ§ÙĦØ¯Ø¹ÙĪÙī":11409,"ĠØ¨ÙĦØ§Ø¯ÙĨØ§":11410,"ĠØ¨ÙĬØªÙĩ":11411,"ĠÙĪØ§Ùĩ":11412,"ĠØ´ÙĩØ±Ø§":11413,"ĠÙĥÙĨÙĬØ³Ø©":11414,"ĠÙħØ¯ÙĨÙĬ":11415,"ĠØ§ÙĨØ¬Ø§Ø²":11416,"ĠØ²Ø§ÙĪÙĬØ©":11417,"Ø®Ø§Ø±":11418,"Ø§Ø¯ÙĬÙĪ":11419,"ĠÙħÙĪØ¶ÙĪØ¹Ø§Øª":11420,"ÙħØ§ÙĦØ§":11421,"ĠØ§ÙĦØ¬Ø±ÙĬØ¯Ø©":11422,"ĠÙģØ¹ÙĦÙĩ":11423,"ĠØ§ÙĦØªØ¹Ø¯ÙĬÙĦ":11424,"Ø°ÙĪØ±":11425,"ĠÙĪØªÙħØª":11426,"Ø¦ÙĦ":11427,"ĠØªÙĦÙħÙĬ":11428,"ĠØ¥ÙĤØ±Ø§Ø±":11429,"ĠØ§ÙĦØ³Ø¹ÙĪØ¯ÙĬÙĬÙĨ":11430,"ĠØ¹Øª":11431,"ĠØ³Ø±Ø§ØŃ":11432,"ĠØ§ÙĦØ§Ø³Ø¹Ø§Ø±":11433,"ove":11434,"Ġ87":11435,"ĠØ¨Ø£Ø¹ÙħØ§ÙĦ":11436,"ĠØ§ÙĦÙģÙĪØ¶Ùī":11437,"ĠÙĥØ±Ø³ÙĬ":11438,"Ġth":11439,"ĠØ£ÙħÙĬ":11440,"ĠØ·Ø¨Ø®":11441,"ĠØ§ÙĦØ²ÙĪØ±":11442,"ĠØ§ÙĦØ£ÙģØ±ÙĬÙĤÙĬØ©":11443,"ĠÙĨØ²ÙĦ":11444,"ĠÙħÙĨØ§Ø²":11445,"ĠØ¨ÙĤØ±Ø§Ø±":11446,"ĠÙĬØªÙĤØ¯Ùħ":11447,"ĠØ®ØµØ§Ø¦Øµ":11448,"ĠØ´Ø¹Ø¨ÙĨØ§":11449,"ĠØ§ÙĦØ®ÙĦØ§ÙģØ§Øª":11450,"Ø³Ø±Ø¹":11451,"ĠÙĨÙĪØ¹ÙĩØ§":11452,"ĠÙĦØ£ÙĨÙĨØ§":11453,"ĠØ¨Ø¹Ø«Ø©":11454,"ĠØ§ÙĦÙĤÙĬØ§Ø¯Ø§Øª":11455,"ĠØ§ÙĦÙĨØ¹":11456,"ĠØ§ÙĨØ®ÙģØ¶":11457,"ÙĤÙĬØ§Ø³":11458,"Ø§ÙĬÙĪØ§ÙĨ":11459,"ĠØ§ÙĦÙĥÙĪÙħ":11460,"ĠÙĬÙģØªØ±Ø¶":11461,"ĠØ§ÙĦÙĥÙĬÙħÙĬØ§Ø¦ÙĬØ©":11462,"Ø·Ø§Ùģ":11463,"ÙģÙĬØ§ÙĨ":11464,"ĠØ§ÙĦØ´Ø±ÙĪÙĤ":11465,"ĠØ£ÙĤÙĬÙħØª":11466,"ĠØªØ¨ÙĪÙĥ":11467,"omp":11468,"ĠØªØ±Ø§Ø«":11469,"ĠØ§ÙĦØŃØ¬Ø§Ø¬":11470,"ĠØ§ÙĪØ±ÙĪØ¨Ø§":11471,"ĠØ¨ÙħØ¹Ø¯ÙĦ":11472,"ĠÙĪØªØŃØ³ÙĬÙĨ":11473,"ĠÙĪÙĦØ£ÙĨ":11474,"ĠÙĪØªØ²":11475,"ĠÙĪÙĬØ±Ùī":11476,"ĠÙħØ¨ÙĬÙĨØ§":11477,"ĠØ§ÙĦÙħØªØ³":11478,"ĠØ¬ÙĪØ§ÙĦ":11479,"Ø±ÙĬØ§Ø¡":11480,"ĠÙĪØ®Ø·":11481,"ÙĪÙĬØ¬ÙĬØ©":11482,"ĠÙĦØ¨ØŃØ«":11483,"ĠÙħØ¹Ø§ÙĨØ§Ø©":11484,"ĠØ¹ÙħÙĦØ§":11485,"ĠØ§ÙĦØ¹Ø´":11486,"ĠØ§ÙĦÙĤØ§Ø±Ø©":11487,"ĠØ¨Ø§Ø³ØªØ«ÙĨØ§Ø¡":11488,"qu":11489,"ĠØ§ÙĦÙĤØ¶Ø§Ø©":11490,"ĠÙĨØ§ÙĤ":11491,"ĠØ¹Ø²ÙĬØ²Ù":11492,"Ø§Ø¯ØªÙĩØ§":11493,"ĠØ¹Ø²ÙĬØ²ÙĬ":11494,"ĠÙĦØ¯Ø±Ø¬Ø©":11495,"ĠÙĦØ´Ø±Ø§Ø¡":11496,"ĠØ·Ø§Ø¦Ø±":11497,"ĠØ§Ø´Øª":11498,"ĠÙħØ¹Ø±Ùģ":11499,"Ø²Ùī":11500,"ĠØ´Ø§Ùħ":11501,"ÙĦØ³Ø·ÙĬÙĨ":11502,"ĠÙħØ¹ÙĨ":11503,"ĠØªÙħØ§Ø±Ø³":11504,"ĠØ¯Ø§Ø¹ÙĬØ§":11505,"ĠØ£Ø³Ùħ":11506,"ĠØ¨ØªÙĦÙĥ":11507,"ĠØªØ¹ÙĪÙĬØ¶":11508,"ĠØ§ÙĦÙħØŃØ¨Ø©":11509,"ĠØ¨ØªÙħ":11510,"Ø·Ø§ÙĤ":11511,"ĠÙħØ±Ø§Ø¹Ø§Ø©":11512,"ĠØ§ÙĦÙĨØŃ":11513,"ÙĪÙħØ§ÙĨØ³ÙĬØ©":11514,"ĠLe":11515,"ĠÙĪØ§ÙĦØªÙĥ":11516,"ĠØ§ÙĦÙħØ¯Ø©":11517,"ħØŃÙħ":11518,"ĠØ§ÙĦØµÙĬØ§Ùħ":11519,"ĠØ³ÙĬÙħ":11520,"ĬÙĩØ¯Ø¯":11521,"ĠÙħØ¯Ø¨":11522,"Ø¹ÙħÙĦØ©":11523,"ĠØ§ÙĦÙħØ³ÙĦØ³ÙĦØ§Øª":11524,"ÙĬÙĩØ¯Ø¯":11525,"ĠÙĬÙĩØ¯Ø¯":11526,"ĠØ´ÙĤ":11527,"ĠØ³Ø§Ø¦Ø±":11528,"Ø³ÙĬÙĦØ©":11529,"ĠØ¬Ø§Ø²Ø§ÙĨ":11530,"ĠØ§ÙĦØ£Ø³Ø¨":11531,"ĠØªØŃØ¨":11532,"ĠØ§ÙĦØ¨Ø§ØŃØ«ÙĪÙĨ":11533,"ĠÙħÙĥÙĪÙĨØ§Øª":11534,"ĠÙħØªØ±Ø¬ÙħØ©":11535,"ĠÙĦÙĥØ§ÙģØ©":11536,"ĠÙĪØ§ÙĦØªØ·ÙĪÙĬØ±":11537,"ĠØ£ÙħØ±ÙĬÙĥÙĬØ©":11538,"ĠØ£Ø¨ØŃØ§Ø«":11539,"ÙħØŃÙħ":11540,"Ø§ÙĤØ·":11541,"ĠÙħÙĪÙĤØ¹ÙĩØ§":11542,"ĠÙħØŃÙħ":11543,"ĠÙĬØ§Ùħ":11544,"ĠÙĦÙħØµÙĦØŃØ©":11545,"ĠØ§ÙĦÙħØ±Ø§Ø¯":11546,"ĠØ§ÙĦÙħÙĨÙĩØ¬":11547,"Ø±ÙĬØ¨ÙĬ":11548,"ĠØ§ÙĦØŃÙĪØ«ÙĬÙĬÙĨ":11549,"Ø¶Ø§Ø¦Ø¹":11550,"ĠØ§ÙĦØºØ±Ø¶":11551,"ĠØ§ÙĦÙħØ¯ÙĬØ±ÙĬØ©":11552,"Ø§ØŃÙĨØ©":11553,"ĠÙĦÙĪØŃØ§Øª":11554,"ÙĪØµØ§Øª":11555,"ĠØ§ÙĦØ¨Ø¯ÙĨÙĬØ©":11556,"RE":11557,"ĠØ¨Ø¥ØŃ":11558,"ĠØªØ§Ùħ":11559,"ĠÙĨØ¨Ø¶":11560,"ÙĤÙĪÙĨ":11561,"ÙģØ§ÙĪØª":11562,"ØµØ±Ø§Ø±":11563,"ĠÙĪØ§ÙĦØ§Ø³ØªÙĤØ±Ø§Ø±":11564,"ĠØªÙĨØ³":11565,"ĠØ³ÙĥÙĨ":11566,"Ø±Ø§Ø·ÙĬØ©":11567,"ĠØ§ÙĦØ±ÙĪØ§ÙĬØ§Øª":11568,"ĠØ§ÙĨÙĩÙĬØ§Ø±":11569,"ĠØ¨ÙĪØ³Øª":11570,"ĠÙĪÙĨØ´":11571,"ÙģÙĬØ¸":11572,"ĠØ§ÙĦØ²Ø¨":11573,"ĠØ£Ø¹Ø±Ø¨":11574,"ĠØ§ÙĬÙĨ":11575,"ĠÙħØµØ±Ùģ":11576,"ĠØ´Ø¹ÙĪØ¨":11577,"ĠØ§ÙĦØ£Ø·Ø¹ÙħØ©":11578,"ĠØµØŃÙģÙĬØ©":11579,"ĠØ³ÙĨØªÙĬÙĨ":11580,"ĠØ¥Ø±ÙĩØ§Ø¨ÙĬØ©":11581,"ĠÙĦØ£Ø³":11582,"ÙĦÙħÙĩ":11583,"ĠÙĦÙĤØ§Ø¡Ø§Øª":11584,"ØªØ±ÙĪÙĦ":11585,"ĠÙħÙĤØ¯Ùħ":11586,"ĠÙĦÙĪÙĦØ§":11587,"ĠØ§ÙĦØŃÙĥØ§Ùħ":11588,"ĠØ¨ÙĬØ§ÙĨØ§":11589,"ÙĥÙĪÙĦØ§Øª":11590,"ÙĩØ¯Ø¦Ø©":11591,"ĠØ§ÙĦØŃØ²":11592,"ĠØªÙĦÙģ":11593,"ĠØ¨Ø¹Ø±Ø¶":11594,"Ø§Ø³Ùī":11595,"ĠØ§ÙĦØ§ÙĦÙħØ§ÙĨÙĬ":11596,"ant":11597,"ĠØ§ÙĦØ¹ÙĦÙĪÙĬ":11598,"ĠÙħØ³ØªØ¹Ø¯":11599,"ĠØ¹ÙħÙĦØ§Ø¦":11600,"Ù¦":11601,"ĠØ§ÙĦÙĦÙĬØ±Ø©":11602,"ĠØ¨Ø¯ÙĪØ±ÙĩØ§":11603,"ÙĩÙĬÙ":11604,"ĠÙĪÙĬØ¤ÙĥØ¯":11605,"ĠØªÙĦØ¹Ø¨":11606,"ĠÙĪØ¬Ø¹ÙĦ":11607,"ĠØ§ÙĦØ´ÙĪ":11608,"ĠÙĪØ§ÙĦØ·ÙģÙĦ":11609,"ÙĦØ§ÙĦÙĩ":11610,"ĠÙĪØ¨Ø¯Ø£Øª":11611,"ien":11612,"ÙĬØ¬Ø§Ø¯":11613,"ÙĬÙĨÙĬÙĪÙĨ":11614,"ĠÙĬØµØ¹Ø¨":11615,"ĠÙģØ¥ÙĨÙĨØ§":11616,"ĦÙĪØ¨":11617,"ĠØ§ÙĦÙĥÙĦÙĬ":11618,"oft":11619,"ĠØ§ÙĦØµØŃØ±":11620,"ĠAr":11621,"ĠÙħØ´ÙĩØ¯":11622,"ĠØ¥ÙĨØ³Ø§ÙĨÙĬØ©":11623,"ĠØªØªÙĬØŃ":11624,"ĠØ§ÙĦØ§ÙĨØ¯":11625,"ĠØ£Ø®Ø±Ø¬":11626,"ĠØ§ÙĦÙħÙĩØ§Ø±Ø§Øª":11627,"ĠÙĪØ´Ø¹Ø¨":11628,"ĠØ´ØªÙī":11629,"Ø±Ø¯ÙĨ":11630,"ĠØ§ÙĦÙħÙĩØ§Ùħ":11631,"ĠØªØ¯ÙĦ":11632,"ÙĥØ§ØªÙĩ":11633,"ĠÙģØ¶Ø§Ø¡":11634,"ĠÙĥÙģØ§Ø¡Ø©":11635,"Ġ1998":11636,"Ø·ÙĬØ©":11637,"Ø°Ø§Ø¡":11638,"ĠØ¨ØŃØ¬Ùħ":11639,"ĠØªÙħÙĥÙĬÙĨ":11640,"ĠØ§ÙĦØ£Ø¯ÙĨÙī":11641,"ĠØ§ÙĦÙĨØ¸Ø§ÙģØ©":11642,"ĠØ¬Ø§ÙħØ¹":11643,"Ø§Ø³Ø§":11644,"ĠØ¨ÙģØ§Ø±ÙĤ":11645,"ĠØ§ÙĦØ±ÙĥÙĨ":11646,"ĠØªØ¬ÙħÙĬÙĦ":11647,"ĠØ§Ø³ØªØ·ÙĦØ§Ø¹":11648,"ĠØ§ÙĦØ³ÙĦØ©":11649,"ĠØ£Ø¯Ø±Ùĥ":11650,"ĠÙĤØ¯ÙħØ§":11651,"ØªØµØ§ÙĦØ§Øª":11652,"ĠØ§ÙĦØªÙģØ§ÙĪØ¶":11653,"ØªÙģØ§Ø¡":11654,"ĠÙĤØ§Ø±":11655,"ĠØ§ÙĦØ®ÙĪØ§Ø·Ø±":11656,"ĠØ¢ÙħÙĨØ©":11657,"ÙĩÙĦÙĩ":11658,"ÙĪÙĤÙģØª":11659,"ØµØ§Ø¡":11660,"Ø¹ÙĥØ³":11661,"ĠÙħØ¹Ø±ÙĪÙģØ©":11662,"ĠÙĪØ¯ÙĬ":11663,"ĠØ¹Ø¶ÙĪÙĬØ©":11664,"Ø¸Ø§ÙĩØ±Ø©":11665,"ĠØ§ÙĦÙĨØ§Ø®Ø¨ÙĬÙĨ":11666,"ĠØŃÙĪÙĦÙĩØ§":11667,"ĠØªÙĦØ¨":11668,"ĠÙĨØ¬Ø±Ø§ÙĨ":11669,"ħØªÙħÙĬØ²Ø©":11670,"ÙħØªÙħÙĬØ²Ø©":11671,"ØŃÙĨØ©":11672,"HP":11673,"ĠØ§ÙĦØ³Ø¨Ø§ÙĤ":11674,"ĠØ§ÙĦØ§Ø¬Ø±Ø§Ø¡Ø§Øª":11675,"ĠØ§ÙĦØŃØ±ÙĥØ§Øª":11676,"ĠØŃÙĬØ§ØªÙĨØ§":11677,"ĠØ§ÙĦØ±ÙĪØ§Ø¨Ø·":11678,"ØªØ¨Ø§Ø¹":11679,"Ø§Ø¬Ø¹Ø§Øª":11680,"ĠØ§ÙĦØµÙģØ±":11681,"ĠÙĬÙĨØªÙĩÙĬ":11682,"ĠØ§ÙĦÙħØ¹ØªÙĤÙĦÙĬÙĨ":11683,"ÙĪØ±ÙĬÙĪØ³":11684,"ĬØµÙģ":11685,"ĠÙĬØ«ÙĬØ±":11686,"ØªÙĩÙħØ§":11687,"ĠØ§ÙĦÙģØ±Ø¹ÙĬØ©":11688,"ÙĬØµÙģ":11689,"ĠÙĬØµÙģ":11690,"ĠÙħØªÙħÙĬØ²Ø©":11691,"ĠØ§ÙĦÙĬÙĩÙĪØ¯ÙĬØ©":11692,"ĠÙĪØ§ÙĦØ¹Ø¯Ø§ÙĦØ©":11693,"ĠØµØ§ØŃØ¨Ø©":11694,"Ø´Ø±ØŃ":11695,"ĠØ§ÙĦØ§ØµÙĦØ§ØŃ":11696,"ĠØŃÙĤÙĩ":11697,"ĠØªÙĪØµÙĬØ§Øª":11698,"ĠÙĥØ¹":11699,"ĠØ§ÙĦÙħÙĨØ²ÙĦÙĬ":11700,"ĠØ§ÙĦÙĨØ§ÙĤ":11701,"Ø³ÙĬØ·Ø©":11702,"ĠØ§ÙĦØ³Ø±ÙĬØ¹Ø©":11703,"ĠØ¨ÙĨÙī":11704,"ĠØªØ£ÙĬÙĬØ¯":11705,"Ø§ÙĥØ´":11706,"ĠÙħØ«Ø§ÙĦ":11707,"ĠØ§ÙĦØ§ÙħÙĬÙĨ":11708,"ĠØ§ÙĦØ¹ØªÙĬ":11709,"ĠÙĦØ£Ø¬ÙĩØ²Ø©":11710,"ĠØªØŃØ¯ÙĬØ¯Ø§":11711,"ĠØ£ÙĪÙĥØ±Ø§ÙĨÙĬØ§":11712,"ĠØ¥ÙĦÙĥØªØ±ÙĪÙĨÙĬØ©":11713,"ĠÙĦÙħØ´Ø±ÙĪØ¹":11714,"ĠØ§ÙĦÙħÙĨØ§ÙĤ":11715,"ÙĦÙĬÙĨÙ":11716,"ĠØ¨Ø¬Ø±ÙĪØŃ":11717,"ĠÙħØªØ§ØŃ":11718,"ĠØ·ÙĦØ¨Øª":11719,"ĠÙħØ¸ÙĦØ§Øª":11720,"ĠØ§ÙĦØ³Ø±ÙĬØ©":11721,"ĠØ±Ø§Ø¬Ø¹":11722,"ÙĬØ±ÙĬØ©":11723,"ĠÙĪØ¯ÙĪØ±":11724,"Ø±ÙĪÙĬØ©":11725,"ĠÙħØ«Ø¨Øª":11726,"ÙĥØ±Ø§Ø¯":11727,"ĠØ£ÙģØ§Ø¯Øª":11728,"ĠÙħÙģÙĬØ¯Ø©":11729,"ĠØ§ÙĦØ¥Øº":11730,"ØªÙĬØ±ÙĬØ§":11731,"Ø¬ÙĦÙĬÙĨ":11732,"ĠØ§ÙĦØ¬ÙĬØ¯":11733,"ĠØ§ÙĦÙĨØ³Ø¨Ø©":11734,"ĠØªÙĥÙĦÙģ":11735,"ĠØ§Ø³Ø¨ÙĪØ¹":11736,"ĠÙĥØ§ÙĦÙħ":11737,"Ø¦ÙĬØ§":11738,"ĠØŃØ§ÙħÙĦ":11739,"ĠØ§Ø¨ØŃØ«":11740,"ĠØ§ÙĦÙħØªØ´":11741,"Ø³Ø®":11742,"ĠØ§ÙĦÙħØ³ØªÙĤØ¨ÙĦÙĬØ©":11743,"Ø§Ø¨ÙĬØ¨":11744,"ĠØŃØ¯Ø«Øª":11745,"ĠØ§ÙĦØªØ¹Ø¯ÙĬÙĦØ§Øª":11746,"ĠØ§ÙĦØ¨Ø¹Ø«":11747,"ous":11748,"ĠØ§ÙĦÙĥÙĪØ±ÙĬØ©":11749,"Ø®ÙģØ¶Ø©":11750,"ØªÙħØ§ÙĨ":11751,"ĠØ§ÙĦÙħØµØ§Ø¨":11752,"ĠÙĨØ¬ØŃØª":11753,"ĠØ·Ø±ÙĬÙĤÙĩ":11754,"ĠÙĪØ¯ÙĪÙĨ":11755,"ebook":11756,"ĠØ¹ÙĦÙĬÙĩÙħØ§":11757,"ħÙĩØ¯":11758,"ĠØ§ÙĦÙħÙģØ¶":11759,"ĠØ±Ø²ÙĤ":11760,"ĠØªØµÙģØŃ":11761,"ĠÙĪØ¯ÙģØ¹":11762,"ĠØ§ÙĦØ¨ÙĥØ§ÙĦ":11763,"ĠÙĪØŃÙĦÙĪÙĦ":11764,"ĠÙħØªØ·":11765,"ĠØ§ÙĦÙĤØ§Ø¯":11766,"Ø¹ÙĦÙĪØ§":11767,"ĠØ¨ÙĨÙĬØ©":11768,"ĠÙħÙĥØ§ÙĨØ©":11769,"ÙĦØªÙĥ":11770,"ĠØ§ÙĦØ¬Ø§Ø±ÙĬØ©":11771,"ÙĦÙĬÙģØ©":11772,"ĠØ§ÙĦÙħÙĨØ³":11773,"ĠØ¨ÙĤØ§Ø¡":11774,"ĠÙĪØ§Ø³ØªÙħØ±":11775,"ĠØ§ÙĦØ¯ÙĬÙĪØ§ÙĨ":11776,"ĠØ§ÙĦÙĥØ±Ø¯ÙĬØ©":11777,"ĠÙĬØ¹ÙĬØ´ÙĪÙĨ":11778,"ÙĥÙħØª":11779,"ĠØ§ÙĦÙħÙĦØ§Ø¦ÙĥØ©":11780,"ĠØ¨Ø´ÙĬØ±":11781,"ĠÙĪØ¬ÙħØ¹":11782,"ĠØ§ÙĦÙħÙĨØªØ¯ÙĬ":11783,"ĠØ§ÙĦÙħØŃØ§ÙħÙĬÙĨ":11784,"ĠØºØ°Ø§Ø¦ÙĬØ©":11785,"ĠÙħØŃØ§Ø¶Ø±Ø©":11786,"ĠÙĬØ¹Øª":11787,"ĠØ§ÙĦÙĥÙĦÙĬØ§Øª":11788,"ĠØµÙĪØ§Ø±ÙĬØ®":11789,"ĠØ§ÙĦØ±ØŃÙĦØ©":11790,"ĠØ§ØµØ·":11791,"ÙĦØ§ÙĦÙĬ":11792,"ĠØ§ÙĦØ¬ÙħØ§Ø¹ÙĬØ©":11793,"ĠØ¨Ø§ÙĨÙĪØ±":11794,"ÙĪÙĦÙĥ":11795,"ĠØ§ÙĤØªØ±Ø§ØŃ":11796,"ÙĪØ¯ÙĪ":11797,"ĠØ§ÙĦØªØŃØ±Ùĥ":11798,"ĠØ§ÙĦØ¥ÙħØ§Ø±Ø§ØªÙ":11799,"ĠØ§ÙĦØ¥ÙħØ§Ø±Ø§ØªÙĬ":11800,"ĠÙĨØ¸ÙĬÙģ":11801,"ÙĪÙĥÙĪÙĦ":11802,"ĠØ§Ø²ÙĬ":11803,"ĠÙĪØ²ÙĨ":11804,"ØªÙĩØ±":11805,"aw":11806,"ĠÙĤØ·Ø§Ø¹Ø§Øª":11807,"ĠÙĬÙĨØªØ¬":11808,"ĠÙĤØ¯Ø±Ùĩ":11809,"ÙĪØ§ÙħØ±":11810,"ĠØ§ÙĦØ¬ÙħØ±":11811,"Ø¨Ø±Ø§Øª":11812,"ÙĪØ¨Ùĩ":11813,"Ø±ÙħÙĦ":11814,"Ø§ÙĦÙģØ©":11815,"ĠØ§ÙĦØŃÙģ":11816,"ĠØ§ÙĦØ¨Ø±ÙħØ¬Ø©":11817,"ĠØ£Ø¶Ø¹":11818,"ĠØ§ÙĦØ¬Ø³Ø¯":11819,"ĠÙĪØ§ÙĪØ¶ØŃ":11820,"ĠÙħØŃØ§Ø±Ø¨Ø©":11821,"ĠØªØ®Øµ":11822,"ĠØ§ÙĦØªØ®ØµØµØ§Øª":11823,"ÙĪØ¨ÙĬÙĨ":11824,"ĠØ§ÙĦØŃÙĬÙĨ":11825,"ÙĨØ§Ø¹Ø§Øª":11826,"ĠØªØ³Ø¹Ø©":11827,"ĠØ§ÙĦØªÙĪØ§Ø²ÙĨ":11828,"ĠÙħØºØ±Ø¨ÙĬ":11829,"ĠÙĬØ³ÙĪØ¹":11830,"ĠÙĪØ§ÙĦØµØŃ":11831,"ĠØ³Ø¨ØŃØ§ÙĨ":11832,"ÙĨÙĬÙĥ":11833,"ĠØ¨Ø§ÙĦØ¹Ø§ØµÙħØ©":11834,"ĠØ§Ø®Ø°":11835,"ĠØ§ÙĦØµØ¨":11836,"ĠØªÙģØªØŃ":11837,"Ø¯ÙģØª":11838,"ĠØ§ÙĦØ¹Ø´Ø±":11839,"ĠØ£ÙĩÙħÙĩØ§":11840,"ĠØ¹Ø¯ÙĨØ§ÙĨ":11841,"ĠØ§ÙĦØ£Ø±ÙĤØ§Ùħ":11842,"ĠØ§Ø®ØªÙĦÙģ":11843,"ĠØ³ÙĬØ¦Ø©":11844,"ĠÙĪØ§ÙĦØ´Ø¹Ø¨":11845,"ĠØ§ÙĦØ¬ÙĨØ±Ø§ÙĦ":11846,"Ø±Ø¬Ø©":11847,"ĠÙĦÙĬÙĦ":11848,"ØªÙĬÙĩ":11849,"ĠØ£Ø¬ÙĨØ¨ÙĬØ©":11850,"ØªÙĬØ§ÙĨ":11851,"ÙĬØ§Ø³Ø©":11852,"Ø¨Ø§Ø±Ù":11853,"ĠÙĪØªÙĪØ²ÙĬØ¹":11854,"ÙħÙĪØ¶":11855,"ĠÙĪØ±Ø£Ùī":11856,"Ø§ÙģØ°":11857,"ĠØ§ÙĦØ¯ÙĪØ§Ø¦Ø±":11858,"ĠØªØ´ØªÙħÙĦ":11859,"ĠÙĤØ±ÙĬØ¨Ø©":11860,"ĠÙħØ¹Ø§ÙĦÙĬÙĩ":11861,"ĠØ¨ÙĨÙĬØ§ÙħÙĬÙĨ":11862,"21":11863,"ĠÙĪÙĬØ¹ÙħÙĦ":11864,"ĠØ§ÙĦØ²Ø±Ø§Ø¹ÙĬ":11865,"ĠØ§ÙĦØªÙĤÙĨÙĬ":11866,"Ġ61":11867,"ÙĪÙĥØ§ÙĦØ©":11868,"ĠÙĬÙĪÙĦ":11869,"ĠØ±ØºØ¨":11870,"Ø±Ø³Ø©":11871,"ĠÙĪØ¬Ø§Ø¡Øª":11872,"ĠÙĦÙĬÙĥ":11873,"Ø¨Ø§Ø±ÙĬ":11874,"ĠÙģØ¦Ø§Øª":11875,"ĠØ§ÙĦÙģØŃØµ":11876,"ĠØ§ÙĦØ¹ÙħÙĬÙĤ":11877,"ĠØ§ÙĦØ£ØµÙĦÙĬØ©":11878,"ĠØ§ÙĦØ³ÙĬØ¯Ø§Øª":11879,"ĠØ§ÙĦØ¥Ø³Ø§Ø¡Ø©":11880,"ĠØ§ÙĦØ¸ÙĦÙħ":11881,"ĠØ§ÙĦØ³ÙĪÙĬØ³Ø±ÙĬ":11882,"ĠÙĨØ¹ÙħØ©":11883,"ĠØ§ÙĦØ§Ø³ØªÙģØªØ§Ø¡":11884,"ĠØ§ÙĦÙħØ³ØªÙħØ±Ø©":11885,"ĠÙĪÙĩØ§":11886,"ĠÙĤØ³":11887,"df":11888,"ite":11889,"ĠØ§ÙĦÙħÙĨØ·":11890,"ĠØ¨Ø§ÙĦØ¥ÙĨ":11891,"ÙĩÙĪØ±Ø©":11892,"ĠØ¹ÙĤÙĪØ¨Ø©":11893,"ØºØ§ÙĨÙĬ":11894,"ĠÙĦÙħØ¬ÙħÙĪØ¹Ø©":11895,"ĠÙĪØ§ÙĨÙħØ§":11896,"ĠØªÙĪÙĤÙĬÙģ":11897,"Ġ190":11898,"ĠØ³ÙĦØ·ÙĨØ©":11899,"ĠØ¨Ø§Ø¹ØªØ¨Ø§Ø±Ùĩ":11900,"ĠØªØ§ÙĬ":11901,"ĠØ¨Ø¬ÙĪØ§Ø±":11902,"ĠØ§ÙĦÙħØ¨Ø§ÙĦØº":11903,"ĠÙĪØ§ÙĦØ¥ÙĤ":11904,"ĠØ¨Ø¯Ùħ":11905,"Ø¤ÙĪÙĦ":11906,"ÙĬØ§ÙĦ":11907,"Ø§Ø³ÙĬØ±":11908,"ĠØ³ÙĪØ¨Ø±":11909,"ĠÙĥØ±ÙĪØª":11910,
[...]
